{
  "version": "1.0",
  "truncation": null,
  "padding": null,
  "added_tokens": [
    {
      "id": 0,
      "content": "<s>",
      "single_word": false,
      "lstrip": false,
      "rstrip": false,
      "normalized": false,
      "special": true
    },
    {
      "id": 1,
      "content": "<pad>",
      "single_word": false,
      "lstrip": false,
      "rstrip": false,
      "normalized": false,
      "special": true
    },
    {
      "id": 2,
      "content": "</s>",
      "single_word": false,
      "lstrip": false,
      "rstrip": false,
      "normalized": false,
      "special": true
    },
    {
      "id": 3,
      "content": "<unk>",
      "single_word": false,
      "lstrip": false,
      "rstrip": false,
      "normalized": false,
      "special": true
    }
  ],
  "normalizer": {
    "type": "NFKC"
  },
  "pre_tokenizer": {
    "type": "Metaspace",
    "replacement": "▁",
    "add_prefix_space": true
  },
  "post_processor": {
    "type": "TemplateProcessing",
    "single": [
      {
        "SpecialToken": {
          "id": "<s>",
          "type_id": 0
        }
      },
      {
        "Sequence": {
          "id": "A",
          "type_id": 0
        }
      },
      {
        "SpecialToken": {
          "id": "</s>",
          "type_id": 0
        }
      }
    ],
    "pair": [
      {
        "SpecialToken": {
          "id": "<s>",
          "type_id": 0
        }
      },
      {
        "Sequence": {
          "id": "A",
          "type_id": 0
        }
      },
      {
        "SpecialToken": {
          "id": "</s>",
          "type_id": 0
        }
      },
      {
        "Sequence": {
          "id": "B",
          "type_id": 1
        }
      },
      {
        "SpecialToken": {
          "id": "</s>",
          "type_id": 1
        }
      }
    ],
    "special_tokens": {
      "</s>": {
        "id": "</s>",
        "ids": [
          2
        ],
        "tokens": [
          "</s>"
        ]
      },
      "<s>": {
        "id": "<s>",
        "ids": [
          0
        ],
        "tokens": [
          "<s>"
        ]
      }
    }
  },
  "decoder": {
    "type": "Metaspace",
    "replacement": "▁",
    "add_prefix_space": true
  },
  "model": {
    "type": "BPE",
    "dropout": null,
    "unk_token": null,
    "continuing_subword_prefix": null,
    "end_of_word_suffix": null,
    "fuse_unk": false,
    "vocab": {
      "<s>": 0,
      "<pad>": 1,
      "</s>": 2,
      "<unk>": 3,
      "\b": 4,
      "!": 5,
      "\"": 6,
      "#": 7,
      "$": 8,
      "%": 9,
      "&": 10,
      "'": 11,
      "(": 12,
      ")": 13,
      "*": 14,
      "+": 15,
      ",": 16,
      "-": 17,
      ".": 18,
      "/": 19,
      "0": 20,
      "1": 21,
      "2": 22,
      "3": 23,
      "4": 24,
      "5": 25,
      "6": 26,
      "7": 27,
      "8": 28,
      "9": 29,
      ":": 30,
      ";": 31,
      "<": 32,
      "=": 33,
      ">": 34,
      "?": 35,
      "@": 36,
      "A": 37,
      "B": 38,
      "C": 39,
      "D": 40,
      "E": 41,
      "F": 42,
      "G": 43,
      "H": 44,
      "I": 45,
      "J": 46,
      "K": 47,
      "L": 48,
      "M": 49,
      "N": 50,
      "O": 51,
      "P": 52,
      "Q": 53,
      "R": 54,
      "S": 55,
      "T": 56,
      "U": 57,
      "V": 58,
      "W": 59,
      "X": 60,
      "Y": 61,
      "Z": 62,
      "[": 63,
      "\\": 64,
      "]": 65,
      "_": 66,
      "`": 67,
      "a": 68,
      "b": 69,
      "c": 70,
      "d": 71,
      "e": 72,
      "f": 73,
      "g": 74,
      "h": 75,
      "i": 76,
      "j": 77,
      "k": 78,
      "l": 79,
      "m": 80,
      "n": 81,
      "o": 82,
      "p": 83,
      "q": 84,
      "r": 85,
      "s": 86,
      "t": 87,
      "u": 88,
      "v": 89,
      "w": 90,
      "x": 91,
      "y": 92,
      "z": 93,
      "|": 94,
      "~": 95,
      "£": 96,
      "«": 97,
      "­": 98,
      "°": 99,
      "±": 100,
      "·": 101,
      "»": 102,
      "À": 103,
      "Á": 104,
      "Â": 105,
      "Ã": 106,
      "É": 107,
      "Ê": 108,
      "Ì": 109,
      "Í": 110,
      "Ð": 111,
      "Ñ": 112,
      "Ò": 113,
      "Ó": 114,
      "Ô": 115,
      "Õ": 116,
      "×": 117,
      "Ú": 118,
      "Ü": 119,
      "Ý": 120,
      "à": 121,
      "á": 122,
      "â": 123,
      "ã": 124,
      "ä": 125,
      "ç": 126,
      "è": 127,
      "é": 128,
      "ê": 129,
      "ë": 130,
      "ì": 131,
      "í": 132,
      "î": 133,
      "ï": 134,
      "ñ": 135,
      "ò": 136,
      "ó": 137,
      "ô": 138,
      "õ": 139,
      "ö": 140,
      "÷": 141,
      "ù": 142,
      "ú": 143,
      "ü": 144,
      "ý": 145,
      "Ă": 146,
      "ă": 147,
      "ć": 148,
      "Đ": 149,
      "đ": 150,
      "Ē": 151,
      "Ĩ": 152,
      "ĩ": 153,
      "ō": 154,
      "š": 155,
      "ũ": 156,
      "ū": 157,
      "Ơ": 158,
      "ơ": 159,
      "Ư": 160,
      "ư": 161,
      "ǎ": 162,
      "ǐ": 163,
      "̀": 164,
      "̣": 165,
      "ក": 166,
      "ខ": 167,
      "គ": 168,
      "ឃ": 169,
      "ង": 170,
      "ច": 171,
      "ឆ": 172,
      "ជ": 173,
      "ឈ": 174,
      "ញ": 175,
      "ដ": 176,
      "ឋ": 177,
      "ឌ": 178,
      "ឍ": 179,
      "ណ": 180,
      "ត": 181,
      "ថ": 182,
      "ទ": 183,
      "ធ": 184,
      "ន": 185,
      "ប": 186,
      "ផ": 187,
      "ព": 188,
      "ភ": 189,
      "ម": 190,
      "យ": 191,
      "រ": 192,
      "ល": 193,
      "វ": 194,
      "ស": 195,
      "ហ": 196,
      "ឡ": 197,
      "អ": 198,
      "ឥ": 199,
      "ឦ": 200,
      "ឧ": 201,
      "ឨ": 202,
      "ឩ": 203,
      "ឪ": 204,
      "ឫ": 205,
      "ឬ": 206,
      "ឭ": 207,
      "ឮ": 208,
      "ឯ": 209,
      "ឱ": 210,
      "ឲ": 211,
      "ឳ": 212,
      "ា": 213,
      "ិ": 214,
      "ី": 215,
      "ឹ": 216,
      "ឺ": 217,
      "ុ": 218,
      "ូ": 219,
      "ួ": 220,
      "ើ": 221,
      "ឿ": 222,
      "ៀ": 223,
      "េ": 224,
      "ែ": 225,
      "ៃ": 226,
      "ោ": 227,
      "ៅ": 228,
      "ំ": 229,
      "ះ": 230,
      "ៈ": 231,
      "៉": 232,
      "៊": 233,
      "់": 234,
      "៌": 235,
      "៍": 236,
      "៎": 237,
      "៏": 238,
      "័": 239,
      "៑": 240,
      "្": 241,
      "។": 242,
      "៕": 243,
      "៖": 244,
      "ៗ": 245,
      "០": 246,
      "១": 247,
      "២": 248,
      "៣": 249,
      "៤": 250,
      "៥": 251,
      "៦": 252,
      "៧": 253,
      "៨": 254,
      "៩": 255,
      "Ạ": 256,
      "ạ": 257,
      "Ả": 258,
      "ả": 259,
      "Ấ": 260,
      "ấ": 261,
      "Ầ": 262,
      "ầ": 263,
      "Ẩ": 264,
      "ẩ": 265,
      "ẫ": 266,
      "ậ": 267,
      "Ắ": 268,
      "ắ": 269,
      "ằ": 270,
      "ẳ": 271,
      "ẵ": 272,
      "Ặ": 273,
      "ặ": 274,
      "Ẹ": 275,
      "ẹ": 276,
      "Ẻ": 277,
      "ẻ": 278,
      "ẽ": 279,
      "Ế": 280,
      "ế": 281,
      "ề": 282,
      "Ể": 283,
      "ể": 284,
      "Ễ": 285,
      "ễ": 286,
      "Ệ": 287,
      "ệ": 288,
      "ỉ": 289,
      "ị": 290,
      "Ọ": 291,
      "ọ": 292,
      "ỏ": 293,
      "Ố": 294,
      "ố": 295,
      "Ồ": 296,
      "ồ": 297,
      "Ổ": 298,
      "ổ": 299,
      "ỗ": 300,
      "Ộ": 301,
      "ộ": 302,
      "Ớ": 303,
      "ớ": 304,
      "Ờ": 305,
      "ờ": 306,
      "Ở": 307,
      "ở": 308,
      "ỡ": 309,
      "Ợ": 310,
      "ợ": 311,
      "ụ": 312,
      "Ủ": 313,
      "ủ": 314,
      "Ứ": 315,
      "ứ": 316,
      "Ừ": 317,
      "ừ": 318,
      "ử": 319,
      "Ữ": 320,
      "ữ": 321,
      "Ự": 322,
      "ự": 323,
      "Ỳ": 324,
      "ỳ": 325,
      "ỵ": 326,
      "ỷ": 327,
      "Ỹ": 328,
      "ỹ": 329,
      "​": 330,
      "‌": 331,
      "‎": 332,
      "–": 333,
      "—": 334,
      "‘": 335,
      "’": 336,
      "“": 337,
      "”": 338,
      "⁄": 339,
      "≥": 340,
      "▁": 341,
      "●": 342,
      "佐": 343,
      "克": 344,
      "拉": 345,
      "杨": 346,
      "青": 347,
      "风": 348,
      "﻿": 349,
      "▁t": 350,
      "ng": 351,
      "▁c": 352,
      "▁đ": 353,
      "nh": 354,
      "▁v": 355,
      "្រ": 356,
      "▁,": 357,
      "▁h": 358,
      "▁th": 359,
      "▁ប": 360,
      "▁tr": 361,
      "▁l": 362,
      "▁ន": 363,
      "▁ក": 364,
      "▁k": 365,
      "▁ch": 366,
      "iệ": 367,
      "▁ស": 368,
      "ាន": 369,
      "▁n": 370,
      "▁.": 371,
      "▁b": 372,
      "ារ": 373,
      "▁nh": 374,
      "▁s": 375,
      "▁T": 376,
      "▁m": 377,
      "▁g": 378,
      "ác": 379,
      "▁d": 380,
      "ph": 381,
      "▁N": 382,
      "▁ph": 383,
      "▁ng": 384,
      "qu": 385,
      "▁qu": 386,
      "▁ដ": 387,
      "▁và": 388,
      "្ត": 389,
      "▁អ": 390,
      "▁រ": 391,
      "▁kh": 392,
      "្ន": 393,
      "▁gi": 394,
      "▁ទ": 395,
      "ជា": 396,
      "▁ម": 397,
      "ên": 398,
      "ông": 399,
      "▁củ": 400,
      "▁ប្រ": 401,
      "▁V": 402,
      "▁của": 403,
      "an": 404,
      "▁các": 405,
      "ម្": 406,
      "▁C": 407,
      "ới": 408,
      "▁។": 409,
      "▁ការ": 410,
      "am": 411,
      "ong": 412,
      "▁ព": 413,
      "ាំ": 414,
      "▁និ": 415,
      "ại": 416,
      "▁ច": 417,
      "ướ": 418,
      "iế": 419,
      "▁គ": 420,
      "▁ល": 421,
      "uy": 422,
      "ân": 423,
      "▁ត": 424,
      "▁និង": 425,
      "ុង": 426,
      "iệt": 427,
      "▁là": 428,
      "▁វ": 429,
      "ស់": 430,
      "▁H": 431,
      "▁ជា": 432,
      "ភា": 433,
      "inh": 434,
      "ườ": 435,
      "ាម": 436,
      "ực": 437,
      "ượ": 438,
      "▁Đ": 439,
      "▁Nam": 440,
      "ốc": 441,
      "iể": 442,
      "ất": 443,
      "▁Việt": 444,
      "ước": 445,
      "▁B": 446,
      "▁x": 447,
      "▁ngh": 448,
      "▁trong": 449,
      "▁r": 450,
      "ាក": 451,
      "ch": 452,
      "ội": 453,
      "▁ថ": 454,
      "ប់": 455,
      "▁បាន": 456,
      "▁Tr": 457,
      "▁Th": 458,
      "▁ខ": 459,
      "iên": 460,
      "្ល": 461,
      "្ស": 462,
      "ình": 463,
      "iện": 464,
      "្នុង": 465,
      "▁2": 466,
      "iề": 467,
      "្ឋ": 468,
      "▁có": 469,
      "ដ្ឋ": 470,
      "▁phá": 471,
      "ươ": 472,
      "▁នៅ": 473,
      "ành": 474,
      "ương": 475,
      "▁với": 476,
      "ăm": 477,
      "▁ជ": 478,
      "ược": 479,
      "ត្ត": 480,
      "្ច": 481,
      "ai": 482,
      "ភាព": 483,
      "▁-": 484,
      "ày": 485,
      "ោះ": 486,
      "ិក": 487,
      "▁nước": 488,
      "▁រប": 489,
      "▁đã": 490,
      "ាយ": 491,
      "ាង": 492,
      "ម្ម": 493,
      "▁cho": 494,
      "▁Ng": 495,
      "ính": 496,
      "ao": 497,
      "េស": 498,
      "oà": 499,
      "ាស": 500,
      "▁ក្នុង": 501,
      "▁M": 502,
      "▁ផ": 503,
      "▁1": 504,
      "ៀត": 505,
      "ối": 506,
      "ាក់": 507,
      "ung": 508,
      "ាល": 509,
      "▁របស់": 510,
      "▁Ch": 511,
      "ộng": 512,
      "ầu": 513,
      "▁được": 514,
      "្យ": 515,
      "iều": 516,
      "ូវ": 517,
      "ាំង": 518,
      "▁tế": 519,
      "ức": 520,
      "ần": 521,
      "ច្ច": 522,
      "ường": 523,
      "ết": 524,
      "ំណ": 525,
      "ង្": 526,
      "▁Q": 527,
      "ែល": 528,
      "ំន": 529,
      "ឹង": 530,
      "ột": 531,
      "▁A": 532,
      "▁P": 533,
      "▁មាន": 534,
      "▁L": 535,
      "▁quan": 536,
      "ប្រ": 537,
      "ាប់": 538,
      "anh": 539,
      "ững": 540,
      "iển": 541,
      "េះ": 542,
      "▁năm": 543,
      "តិ": 544,
      "▁សម": 545,
      "ួយ": 546,
      "▁Qu": 547,
      "iến": 548,
      "▁hội": 549,
      "ិន": 550,
      "▁ដែល": 551,
      "▁20": 552,
      "▁đị": 553,
      "ណាម": 554,
      "▁quy": 555,
      "▁វៀត": 556,
      "ang": 557,
      "ោយ": 558,
      "▁វៀតណាម": 559,
      "ន្ត": 560,
      "ải": 561,
      "▁យ": 562,
      "▁một": 563,
      "ăng": 564,
      "ិច្ច": 565,
      "▁quốc": 566,
      "▁ឆ": 567,
      "ản": 568,
      "កម្ម": 569,
      "ồng": 570,
      "ំព": 571,
      "▁công": 572,
      "្វ": 573,
      "ទេស": 574,
      "ền": 575,
      "ây": 576,
      "ận": 577,
      "▁S": 578,
      "▁về": 579,
      "▁K": 580,
      "▁Ph": 581,
      "▁នេះ": 582,
      "▁để": 583,
      "▁ធ": 584,
      "ục": 585,
      "ến": 586,
      "្ធ": 587,
      "▁(": 588,
      "▁)": 589,
      "ợp": 590,
      "ập": 591,
      "ការ": 592,
      "oàn": 593,
      "▁tác": 594,
      "▁những": 595,
      "ិស": 596,
      "▁ត្រ": 597,
      "▁định": 598,
      "ោក": 599,
      "ិត": 600,
      "ay": 601,
      "iệc": 602,
      "▁លើ": 603,
      "iệp": 604,
      "▁រដ្ឋ": 605,
      "▁phát": 606,
      "▁chính": 607,
      "▁នៃ": 608,
      "▁triển": 609,
      "ười": 610,
      "▁hợp": 611,
      "▁D": 612,
      "▁do": 613,
      "▁Quốc": 614,
      "ịch": 615,
      "ống": 616,
      "ộc": 617,
      "▁kinh": 618,
      "▁dân": 619,
      "▁họ": 620,
      "▁đó": 621,
      "ũng": 622,
      "▁động": 623,
      "▁người": 624,
      "ូល": 625,
      "▁việc": 626,
      "ạo": 627,
      "▁không": 628,
      "▁sự": 629,
      "្ថ": 630,
      "▁đồng": 631,
      "ាត": 632,
      "▁ho": 633,
      "àng": 634,
      "▁ថា": 635,
      "▁giá": 636,
      "▁này": 637,
      "▁/": 638,
      "▁thành": 639,
      "▁ឆ្ន": 640,
      "▁ប្រទេស": 641,
      "▁២": 642,
      "▁Nh": 643,
      "▁đầu": 644,
      "្ប": 645,
      "ảng": 646,
      "▁ឆ្នាំ": 647,
      "▁hiện": 648,
      "▁ដើ": 649,
      "▁dự": 650,
      "ាន់": 651,
      "ời": 652,
      "ật": 653,
      "▁tại": 654,
      "▁gia": 655,
      "ạt": 656,
      "▁ហ": 657,
      "ách": 658,
      "ảo": 659,
      "▁ក្រ": 660,
      "▁như": 661,
      "▁thu": 662,
      "ម្ប": 663,
      "▁លោក": 664,
      "ើន": 665,
      "▁ពី": 666,
      "ơn": 667,
      "ưở": 668,
      "ưởng": 669,
      "▁từ": 670,
      "េល": 671,
      "▁vào": 672,
      "ọng": 673,
      "នុ": 674,
      "ល់": 675,
      "▁ទី": 676,
      "▁cũng": 677,
      "ញ្": 678,
      "▁nghiệp": 679,
      "in": 680,
      "▁ត្រូវ": 681,
      "án": 682,
      "▁201": 683,
      "▁sẽ": 684,
      "ấn": 685,
      "្ទ": 686,
      "្ម": 687,
      "▁ở": 688,
      "▁nhân": 689,
      "▁đối": 690,
      "ម្បី": 691,
      "▁thực": 692,
      "▁“": 693,
      "▁សេ": 694,
      "ễn": 695,
      "▁đề": 696,
      "▁ដើម្បី": 697,
      "ន៍": 698,
      "▁nhiều": 699,
      "on": 700,
      "êu": 701,
      "▁đến": 702,
      "ទ្ធ": 703,
      "័យ": 704,
      "▁ដោយ": 705,
      "▁hệ": 706,
      "ួន": 707,
      "▁ra": 708,
      "▁trên": 709,
      "▁cả": 710,
      "▁thể": 711,
      "▁học": 712,
      "ấp": 713,
      "áng": 714,
      "ùng": 715,
      "eo": 716,
      "iết": 717,
      "▁នឹង": 718,
      "▁vực": 719,
      "ើង": 720,
      "▁Nguy": 721,
      "iệu": 722,
      "ភិ": 723,
      "ăn": 724,
      "ướng": 725,
      "ណ្": 726,
      "▁cao": 727,
      "បាន": 728,
      "ែង": 729,
      "▁trường": 730,
      "▁គឺ": 731,
      "ម្រ": 732,
      "▁cơ": 733,
      "ổi": 734,
      "▁G": 735,
      "ស្ស": 736,
      "▁tăng": 737,
      "▁mạ": 738,
      "កិច្ច": 739,
      "▁អា": 740,
      "▁kết": 741,
      "ích": 742,
      "▁Trung": 743,
      "▁tiế": 744,
      "úc": 745,
      "▁hai": 746,
      "▁lu": 747,
      "▁nhất": 748,
      "▁cu": 749,
      "យោ": 750,
      "▁pháp": 751,
      "▁២០": 752,
      "au": 753,
      "ằng": 754,
      "▁tư": 755,
      "ữa": 756,
      "ổng": 757,
      "▁១": 758,
      "▁ទាំង": 759,
      "▁ngày": 760,
      "ិការ": 761,
      "ượng": 762,
      "ំប": 763,
      "▁:": 764,
      "ួម": 765,
      "▁số": 766,
      "▁hơn": 767,
      "en": 768,
      "▁hàng": 769,
      "▁ទៅ": 770,
      "ពី": 771,
      "▁mới": 772,
      "iệm": 773,
      "▁doanh": 774,
      "▁lực": 775,
      "ុន": 776,
      "uyên": 777,
      "្វើ": 778,
      "▁thời": 779,
      "មួយ": 780,
      "ុក": 781,
      "▁trọng": 782,
      "▁khi": 783,
      "វិ": 784,
      "▁សម្រ": 785,
      "ôi": 786,
      "ធាន": 787,
      "ួល": 788,
      "iểm": 789,
      "âu": 790,
      "▁សហ": 791,
      "ាស់": 792,
      "ែក": 793,
      "ង់": 794,
      "▁nhà": 795,
      "ក្ស": 796,
      "▁បង្": 797,
      "▁nghị": 798,
      "áo": 799,
      "▁%": 800,
      "▁chủ": 801,
      "▁viên": 802,
      "្ង": 803,
      "ài": 804,
      "▁tiếp": 805,
      "▁3": 806,
      "ia": 807,
      "oại": 808,
      "៊ី": 809,
      "ង្គ": 810,
      "▁ប្រជា": 811,
      "ôn": 812,
      "▁thế": 813,
      "ជ្": 814,
      "▁quyền": 815,
      "00": 816,
      "▁toàn": 817,
      "▁làm": 818,
      "▁khu": 819,
      "▁qua": 820,
      "▁កិច្ច": 821,
      "តែ": 822,
      "ào": 823,
      "ជាតិ": 824,
      "▁thống": 825,
      "▁ជាមួយ": 826,
      "▁chức": 827,
      "▁chỉ": 828,
      "ជន": 829,
      "▁đang": 830,
      "ម្ល": 831,
      "▁Bộ": 832,
      "្តី": 833,
      "▁giới": 834,
      "▁xu": 835,
      "▁cuộc": 836,
      "ạn": 837,
      "▁មិន": 838,
      "▁មួយ": 839,
      "ស្រ": 840,
      "▁ក៏": 841,
      "ảm": 842,
      "ន់": 843,
      "ុំ": 844,
      "ើយ": 845,
      "▁trưởng": 846,
      "▁គ្រ": 847,
      "ាត់": 848,
      "ặc": 849,
      "ាធ": 850,
      "▁ប៉": 851,
      "▁AS": 852,
      "▁lớ": 853,
      "េរ": 854,
      "▁តាម": 855,
      "ូច": 856,
      "ូរ": 857,
      "▁sản": 858,
      "▁hành": 859,
      "▁thông": 860,
      "▁ASE": 861,
      "▁ធ្វើ": 862,
      "ứng": 863,
      "▁quyết": 864,
      "▁phải": 865,
      "▁វិ": 866,
      "▁នោះ": 867,
      "ặt": 868,
      "AN": 869,
      "▁đổi": 870,
      "▁5": 871,
      "េញ": 872,
      "iểu": 873,
      "▁mạnh": 874,
      "▁tạo": 875,
      "▁trình": 876,
      "▁អនុ": 877,
      "▁Mỹ": 878,
      "▁ASEAN": 879,
      "្រើន": 880,
      "ុខ": 881,
      "òng": 882,
      "វត្ត": 883,
      "៉ាង": 884,
      "ắc": 885,
      "âm": 886,
      "ái": 887,
      "▁I": 888,
      "▁\"": 889,
      "ិត្ត": 890,
      "▁lại": 891,
      "ណ្ត": 892,
      "▁quả": 893,
      "ឡើង": 894,
      "▁giữa": 895,
      "ោល": 896,
      "iêu": 897,
      "▁សម្រាប់": 898,
      "▁phủ": 899,
      "▁Chủ": 900,
      "ាក់ទ": 901,
      "▁Nguyễn": 902,
      "្គ": 903,
      "▁ទំន": 904,
      "▁យ៉ាង": 905,
      "▁ត្រូវបាន": 906,
      "▁dựng": 907,
      "ក្រ": 908,
      "▁bảo": 909,
      "▁ខ្ល": 910,
      "▁សេដ្ឋ": 911,
      "▁vụ": 912,
      "▁xã": 913,
      "្នក": 914,
      "ឌ្": 915,
      "▁sinh": 916,
      "▁ពេល": 917,
      "▁Trong": 918,
      "ន្ទ": 919,
      "▁សេដ្ឋកិច្ច": 920,
      "▁អ្នក": 921,
      "▁ខាង": 922,
      "▁kho": 923,
      "ព្រ": 924,
      "ណៈ": 925,
      "ឌ្ឍ": 926,
      "▁U": 927,
      "ភាគ": 928,
      "▁tịch": 929,
      "▁tướng": 930,
      "ẫn": 931,
      "▁đại": 932,
      "▁trị": 933,
      "▁Tổng": 934,
      "úng": 935,
      "ណ៍": 936,
      "▁xuất": 937,
      "▁ដូច": 938,
      "ឹក": 939,
      "ưa": 940,
      "▁đạo": 941,
      "ាណ": 942,
      "វឌ្ឍ": 943,
      "ំនួន": 944,
      "▁X": 945,
      "▁lớn": 946,
      "▁xây": 947,
      "òn": 948,
      "▁Thủ": 949,
      "▁cấp": 950,
      "ហា": 951,
      "ភិវឌ្ឍ": 952,
      "▁nhiệm": 953,
      "▁Chính": 954,
      "▁លើក": 955,
      "▁ថ្ង": 956,
      "▁ថ្ងៃ": 957,
      "▁bộ": 958,
      "ើត": 959,
      "ុះ": 960,
      "▁4": 961,
      "▁phương": 962,
      "▁tiêu": 963,
      "▁នា": 964,
      "▁tục": 965,
      "▁ៗ": 966,
      "ẳng": 967,
      "▁E": 968,
      "គ្រ": 969,
      "▁lã": 970,
      "▁19": 971,
      "▁Hội": 972,
      "ទួល": 973,
      "▁ដំណ": 974,
      "▁បង្ក": 975,
      "ợi": 976,
      "▁giải": 977,
      "▁vấn": 978,
      "▁tự": 979,
      "▁ប្រធាន": 980,
      "▁điều": 981,
      "▁lượng": 982,
      "▁giao": 983,
      "ẩy": 984,
      "ánh": 985,
      "▁ការប": 986,
      "▁rằng": 987,
      "▁theo": 988,
      "▁tổ": 989,
      "▁រួម": 990,
      "ក្នុង": 991,
      "▁tới": 992,
      "ំបន់": 993,
      "àn": 994,
      "▁bình": 995,
      "នា": 996,
      "▁thương": 997,
      "▁២០១": 998,
      "át": 999,
      "▁mà": 1000,
      "▁sách": 1001,
      "ឹម": 1002,
      "▁thị": 1003,
      "▁Đảng": 1004,
      "▁cách": 1005,
      "▁nay": 1006,
      "▁អំព": 1007,
      "▁đẩy": 1008,
      "ỉnh": 1009,
      "ទី": 1010,
      "▁តំបន់": 1011,
      "ar": 1012,
      "▁អាម": 1013,
      "ុម": 1014,
      "▁biết": 1015,
      "ốt": 1016,
      "▁អាមេរ": 1017,
      "ជី": 1018,
      "▁សំ": 1019,
      "▁cầu": 1020,
      "▁បញ្": 1021,
      "ត្ថ": 1022,
      "▁tham": 1023,
      "▁អាមេរិក": 1024,
      "▁ខ្": 1025,
      "▁điểm": 1026,
      "្ដ": 1027,
      "er": 1028,
      "▁lập": 1029,
      "ើរ": 1030,
      "▁គោល": 1031,
      "▁កំព": 1032,
      "▁còn": 1033,
      "▁lý": 1034,
      "ិប": 1035,
      "ាល់": 1036,
      "▁ភាគ": 1037,
      "▁hình": 1038,
      "▁hiệu": 1039,
      "▁ដល់": 1040,
      "បត្ត": 1041,
      "▁chuy": 1042,
      "▁lần": 1043,
      "ក់": 1044,
      "▁nhận": 1045,
      "▁ប្រជាជន": 1046,
      "▁នូវ": 1047,
      "▁giáo": 1048,
      "▁thức": 1049,
      "▁ស្ថ": 1050,
      "ទ្យ": 1051,
      "ន្ធ": 1052,
      "▁tháng": 1053,
      "▁an": 1054,
      "▁chiến": 1055,
      "▁sử": 1056,
      "ត្រ": 1057,
      "▁năng": 1058,
      "▁y": 1059,
      "ែន": 1060,
      "▁gó": 1061,
      "▁lợi": 1062,
      "្មី": 1063,
      "ត់": 1064,
      "ុប": 1065,
      "▁tâm": 1066,
      "ốn": 1067,
      "្នាក់": 1068,
      "ន្ន": 1069,
      "▁hoạt": 1070,
      "ញ្ញ": 1071,
      "▁អាស": 1072,
      "បាល": 1073,
      "ạch": 1074,
      "▁ឧ": 1075,
      "▁tin": 1076,
      "ិទ្ធ": 1077,
      "al": 1078,
      "ពេល": 1079,
      "▁ពិ": 1080,
      "▁ច្ប": 1081,
      "▁ទទួល": 1082,
      "▁mại": 1083,
      "ច្រើន": 1084,
      "▁dụ": 1085,
      "oài": 1086,
      "▁ហើយ": 1087,
      "▁ជាច្រើន": 1088,
      "ាច": 1089,
      "▁ចំនួន": 1090,
      "▁រដ្ឋម": 1091,
      "▁dịch": 1092,
      "ប្រតិ": 1093,
      "iễn": 1094,
      "ĩnh": 1095,
      "▁ថ្មី": 1096,
      "▁biệt": 1097,
      "▁đạt": 1098,
      "▁bị": 1099,
      "ព័": 1100,
      "▁Kh": 1101,
      "▁ក្រុម": 1102,
      "▁thứ": 1103,
      "▁cần": 1104,
      "ពល": 1105,
      "▁ការអ": 1106,
      "ែរ": 1107,
      "ấy": 1108,
      "▁cử": 1109,
      "▁dụng": 1110,
      "▁Ho": 1111,
      "iền": 1112,
      "▁ចំណ": 1113,
      "ៀប": 1114,
      "▁lãnh": 1115,
      "óa": 1116,
      "▁cùng": 1117,
      "▁tích": 1118,
      "្នា": 1119,
      "▁ព្រ": 1120,
      "យៈ": 1121,
      "▁202": 1122,
      "▁nó": 1123,
      "▁;": 1124,
      "ន្តរ": 1125,
      "▁chế": 1126,
      "▁នៅក្នុង": 1127,
      "▁luật": 1128,
      "គ្គ": 1129,
      "ទ្រ": 1130,
      "▁đây": 1131,
      "▁nhập": 1132,
      "▁ប៉ុ": 1133,
      "▁góp": 1134,
      "▁6": 1135,
      "▁សមា": 1136,
      "▁ចូល": 1137,
      "▁ពីរ": 1138,
      "▁sau": 1139,
      "ពស់": 1140,
      "▁trước": 1141,
      "▁lĩnh": 1142,
      "▁ý": 1143,
      "▁ផល": 1144,
      "▁đoàn": 1145,
      "ấu": 1146,
      "បាយ": 1147,
      "្ត្រ": 1148,
      "ọi": 1149,
      "▁អំពី": 1150,
      "▁thúc": 1151,
      "ឲ្យ": 1152,
      "ាញ": 1153,
      "ណ្ដ": 1154,
      "▁bên": 1155,
      "▁Liên": 1156,
      "▁ទៀត": 1157,
      "▁tình": 1158,
      "▁biểu": 1159,
      "▁បរ": 1160,
      "បត្តិការ": 1161,
      "áp": 1162,
      "▁kỳ": 1163,
      "▁ស្រ": 1164,
      "▁ភ": 1165,
      "▁đất": 1166,
      "▁នាយ": 1167,
      "▁ចំព": 1168,
      "ភិបាល": 1169,
      "▁ចំពោះ": 1170,
      "▁báo": 1171,
      "▁tỷ": 1172,
      "ែម": 1173,
      "វាង": 1174,
      "ំនង": 1175,
      "ឱ្យ": 1176,
      "ាក់ទំនង": 1177,
      "▁gian": 1178,
      "▁liên": 1179,
      "▁ông": 1180,
      "យោបាយ": 1181,
      "េច": 1182,
      "▁ទំនាក់ទំនង": 1183,
      "▁Gi": 1184,
      "▁rất": 1185,
      "ណ្ឌ": 1186,
      "ằm": 1187,
      "ភិវឌ្ឍន៍": 1188,
      "ជ្ជ": 1189,
      "ាភិបាល": 1190,
      "▁នាយក": 1191,
      "▁អន្តរ": 1192,
      "មាន": 1193,
      "▁tranh": 1194,
      "▁នយោបាយ": 1195,
      "ោង": 1196,
      "▁đặc": 1197,
      "▁tỉnh": 1198,
      "▁mu": 1199,
      "em": 1200,
      "▁សកម្ម": 1201,
      "▁trung": 1202,
      "▁phòng": 1203,
      "▁7": 1204,
      "▁lên": 1205,
      "សារ": 1206,
      "ạm": 1207,
      "▁phần": 1208,
      "▁Đại": 1209,
      "▁Đông": 1210,
      "▁khác": 1211,
      "▁bố": 1212,
      "ផល": 1213,
      "▁thăm": 1214,
      "▁អង្គ": 1215,
      "ន្ល": 1216,
      "▁រវាង": 1217,
      "▁បណ្ត": 1218,
      "▁Theo": 1219,
      "▁វិស": 1220,
      "▁án": 1221,
      "▁tốt": 1222,
      "ខាន់": 1223,
      "êm": 1224,
      "▁tập": 1225,
      "▁khai": 1226,
      "▁giảm": 1227,
      "ếu": 1228,
      "ចិត្ត": 1229,
      "ករ": 1230,
      "▁trở": 1231,
      "ានា": 1232,
      "េង": 1233,
      "òa": 1234,
      "ồn": 1235,
      "▁con": 1236,
      "ម្លៃ": 1237,
      "▁កំពុង": 1238,
      "▁ban": 1239,
      "ិញ": 1240,
      "▁trợ": 1241,
      "ển": 1242,
      "្អ": 1243,
      "▁kiến": 1244,
      "▁ឯ": 1245,
      "ប្រតិបត្តិការ": 1246,
      "▁គ្រប់": 1247,
      "▁đi": 1248,
      "▁nền": 1249,
      "▁ផ្ល": 1250,
      "▁ứng": 1251,
      "ូប": 1252,
      "▁បក្ស": 1253,
      "▁R": 1254,
      "▁សង្គ": 1255,
      "្រី": 1256,
      "▁បច្ច": 1257,
      "▁nhưng": 1258,
      "▁ដ៏": 1259,
      "▁thuận": 1260,
      "▁chất": 1261,
      "▁អាច": 1262,
      "ក្សា": 1263,
      "▁ភាព": 1264,
      "▁អន្តរជាតិ": 1265,
      "▁tiến": 1266,
      "el": 1267,
      "▁vì": 1268,
      "ắt": 1269,
      "▁hướng": 1270,
      "ុល": 1271,
      "▁tiên": 1272,
      "▁សន្ត": 1273,
      "▁ច្បាប់": 1274,
      "ិនិ": 1275,
      "▁sở": 1276,
      "▁ប្រក": 1277,
      "ំរ": 1278,
      "▁បណ្ដ": 1279,
      "▁mục": 1280,
      "▁chung": 1281,
      "ាស្ត្រ": 1282,
      "▁lịch": 1283,
      "▁អនុវត្ត": 1284,
      "▁cực": 1285,
      "▁kiện": 1286,
      "▁cường": 1287,
      "▁khẳng": 1288,
      "▁thiết": 1289,
      "▁គណៈ": 1290,
      "តី": 1291,
      "▁Kỳ": 1292,
      "ព័ន្ធ": 1293,
      "▁សំខាន់": 1294,
      "▁nhằm": 1295,
      "▁địa": 1296,
      "▁Công": 1297,
      "ậy": 1298,
      "▁រយៈ": 1299,
      "▁mở": 1300,
      "im": 1301,
      "ងារ": 1302,
      "យោគ": 1303,
      "▁đảm": 1304,
      "ដៅ": 1305,
      "▁Hà": 1306,
      "▁vẫn": 1307,
      "ưu": 1308,
      "▁ឈ": 1309,
      "្ខ": 1310,
      "ដ្ឋាន": 1311,
      "▁៣": 1312,
      "៊ាន": 1313,
      "▁tôi": 1314,
      "▁8": 1315,
      "▁văn": 1316,
      "▁ថ្ងៃទី": 1317,
      "ទុក": 1318,
      "ផ្ស": 1319,
      "▁nói": 1320,
      "▁កំណ": 1321,
      "et": 1322,
      "▁ប្រស": 1323,
      "▁diện": 1324,
      "▁ជាង": 1325,
      "▁EU": 1326,
      "ាធិការ": 1327,
      "▁រយៈពេល": 1328,
      "ủng": 1329,
      "▁chu": 1330,
      "ៀង": 1331,
      "▁អាស៊ាន": 1332,
      "or": 1333,
      "▁ភាគី": 1334,
      "ុទ្ធ": 1335,
      "▁so": 1336,
      "uyền": 1337,
      "នាំ": 1338,
      "ិនិយោគ": 1339,
      "▁Nguyen": 1340,
      "▁Xu": 1341,
      "▁khẩ": 1342,
      "ាវ": 1343,
      "▁hóa": 1344,
      "▁ngoại": 1345,
      "ទៅ": 1346,
      "▁10": 1347,
      "▁thi": 1348,
      "▁ដំណើរ": 1349,
      "▁Minh": 1350,
      "▁nghĩ": 1351,
      "▁F": 1352,
      "▁ngoài": 1353,
      "ូន": 1354,
      "ừa": 1355,
      "▁ការព": 1356,
      "រួម": 1357,
      "▁đánh": 1358,
      "▁9": 1359,
      "ក្រុង": 1360,
      "▁mình": 1361,
      "▁ទេ": 1362,
      "▁tài": 1363,
      "▁ký": 1364,
      "▁ទីក្រុង": 1365,
      "រី": 1366,
      "âng": 1367,
      "េខ": 1368,
      "▁hoạch": 1369,
      "▁ពាណ": 1370,
      "ិជ្ជ": 1371,
      "▁ngành": 1372,
      "ដោយ": 1373,
      "▁ពាណិជ្ជ": 1374,
      "▁វិស័យ": 1375,
      "ẩm": 1376,
      "▁triệu": 1377,
      "▁បង្កើត": 1378,
      "សភា": 1379,
      "▁châu": 1380,
      "▁bản": 1381,
      "▁đưa": 1382,
      "▁Nga": 1383,
      "▁chúng": 1384,
      "ជីវ": 1385,
      "វិទ្យ": 1386,
      "▁ខ្ពស់": 1387,
      "គម": 1388,
      "ូង": 1389,
      "▁Nhà": 1390,
      "ុត": 1391,
      "▁បន្ត": 1392,
      "▁បញ្ហា": 1393,
      "▁Bình": 1394,
      "ừng": 1395,
      "▁2020": 1396,
      "▁nông": 1397,
      "▁diễn": 1398,
      "ិសេស": 1399,
      "▁ថា៖": 1400,
      "ាប": 1401,
      "id": 1402,
      "េត": 1403,
      "▁Hoa": 1404,
      "▁លាន": 1405,
      "▁trò": 1406,
      "▁biến": 1407,
      "▁vị": 1408,
      "ov": 1409,
      "▁khẩu": 1410,
      "▁មក": 1411,
      "▁គឺជា": 1412,
      "ẩn": 1413,
      "ន្តែ": 1414,
      "▁សង្គម": 1415,
      "▁កស": 1416,
      "▁ពាណិជ្ជកម្ម": 1417,
      "▁កិច្ចស": 1418,
      "▁rộng": 1419,
      "▁Các": 1420,
      "▁hòa": 1421,
      "ắn": 1422,
      "▁đóng": 1423,
      "ជិក": 1424,
      "▁រដ្ឋាភិបាល": 1425,
      "ិទ្ធិ": 1426,
      "▁vững": 1427,
      "▁ដូចជា": 1428,
      "▁khó": 1429,
      "▁ផង": 1430,
      "▁US": 1431,
      "▁bằng": 1432,
      "▁nâng": 1433,
      "ធី": 1434,
      "▁ប៉ុន្តែ": 1435,
      "▁ninh": 1436,
      "▁gần": 1437,
      "▁ផ្ទ": 1438,
      "▁cộng": 1439,
      "▁Nội": 1440,
      "▁chống": 1441,
      "ồi": 1442,
      "មក": 1443,
      "ូត": 1444,
      "▁ពិភ": 1445,
      "▁ការស": 1446,
      "es": 1447,
      "▁អភិវឌ្ឍន៍": 1448,
      "▁nghệ": 1449,
      "▁huy": 1450,
      "▁tiền": 1451,
      "▁ការប្រ": 1452,
      "▁ចាប់": 1453,
      "▁lược": 1454,
      "ោត": 1455,
      "▁mức": 1456,
      "ạnh": 1457,
      "▁Anh": 1458,
      "ុញ": 1459,
      "▁ចិន": 1460,
      "▁cảnh": 1461,
      "▁ជាតិ": 1462,
      "ួង": 1463,
      "▁luận": 1464,
      "uồn": 1465,
      "▁thì": 1466,
      "▁minh": 1467,
      "េក": 1468,
      "▁ឯក": 1469,
      "▁USD": 1470,
      "▁cứ": 1471,
      "▁ឲ្យ": 1472,
      "▁ជំន": 1473,
      "ន្រ": 1474,
      "០០": 1475,
      "▁ổ": 1476,
      "▁ឡើង": 1477,
      "ន្រ្តី": 1478,
      "នុស្ស": 1479,
      "ពលោក": 1480,
      "ួរ": 1481,
      "ệnh": 1482,
      "▁J": 1483,
      "ởi": 1484,
      "▁ពិភពលោក": 1485,
      "ុយ": 1486,
      "▁បណ្ដា": 1487,
      "▁មនុស្ស": 1488,
      "▁ổn": 1489,
      "ាហ": 1490,
      "▁vai": 1491,
      "▁នាំ": 1492,
      "▁ជន": 1493,
      "▁nghĩa": 1494,
      "▁độ": 1495,
      "▁thư": 1496,
      "▁ថ្នាក់": 1497,
      "ទាំង": 1498,
      "▁សមាជិក": 1499,
      "ស្រាយ": 1500,
      "ំផ": 1501,
      "▁ខ្លាំង": 1502,
      "▁hỗ": 1503,
      "▁សកម្មភាព": 1504,
      "▁Cộng": 1505,
      "ữu": 1506,
      "▁mặt": 1507,
      "ចក": 1508,
      "▁chí": 1509,
      "▁thảo": 1510,
      "▁សេចក": 1511,
      "▁tu": 1512,
      "ầm": 1513,
      "▁ក្រស": 1514,
      "▁ការច": 1515,
      "ៀន": 1516,
      "ỗi": 1517,
      "▁ក្រសួង": 1518,
      "ោះស្រាយ": 1519,
      "▁tộc": 1520,
      "▁truyền": 1521,
      "ឹកនាំ": 1522,
      "នឹង": 1523,
      "▁កម្ម": 1524,
      "ជុំ": 1525,
      "àm": 1526,
      "▁ទទួលបាន": 1527,
      "ិភាព": 1528,
      "▁Phó": 1529,
      "ảnh": 1530,
      "▁tuy": 1531,
      "ុទ្រ": 1532,
      "▁thủ": 1533,
      "រំ": 1534,
      "▁ខេ": 1535,
      "▁ផ្ស": 1536,
      "iếu": 1537,
      "▁៥": 1538,
      "▁nguồn": 1539,
      "▁ខេត្ត": 1540,
      "▁hoàn": 1541,
      "▁quân": 1542,
      "▁mọi": 1543,
      "▁បំផ": 1544,
      "រ៉": 1545,
      "▁Á": 1546,
      "▁vệ": 1547,
      "▁nhiên": 1548,
      "ជីវកម្ម": 1549,
      "▁nguyên": 1550,
      "▁បើ": 1551,
      "ន្ត្រី": 1552,
      "▁phố": 1553,
      "▁nên": 1554,
      "▁sức": 1555,
      "▁rõ": 1556,
      "▁វិនិយោគ": 1557,
      "ìn": 1558,
      "ចំ": 1559,
      "▁khách": 1560,
      "▁thấy": 1561,
      "ញ្ច": 1562,
      "▁រដ្ឋមន្រ្តី": 1563,
      "▁កិច្ចសហ": 1564,
      "▁đo": 1565,
      "000": 1566,
      "▁vậy": 1567,
      "▁ធំ": 1568,
      "▁họp": 1569,
      "▁អង្គការ": 1570,
      "▁តម្លៃ": 1571,
      "▁hộ": 1572,
      "▁mạng": 1573,
      "▁ương": 1574,
      "▁chuẩn": 1575,
      "▁đường": 1576,
      "ៀបចំ": 1577,
      "▁thường": 1578,
      "▁ម៉": 1579,
      "▁ខែ": 1580,
      "ប្ត": 1581,
      "as": 1582,
      "ញុំ": 1583,
      "ដែរ": 1584,
      "▁tổng": 1585,
      "▁រដ្ឋសភា": 1586,
      "▁ឥ": 1587,
      "▁quá": 1588,
      "▁ផងដែរ": 1589,
      "▁កន្ល": 1590,
      "▁tất": 1591,
      "▁chưa": 1592,
      "ើស": 1593,
      "៊ុន": 1594,
      "ង្រ": 1595,
      "▁អាជីវកម្ម": 1596,
      "▁Â": 1597,
      "▁chương": 1598,
      "▁phẩm": 1599,
      "úp": 1600,
      "ắng": 1601,
      "ស្សន": 1602,
      "hi": 1603,
      "út": 1604,
      "▁គ្នា": 1605,
      "EC": 1606,
      "▁Ô": 1607,
      "▁hữu": 1608,
      "ន្ថ": 1609,
      "▁nội": 1610,
      "▁គណៈកម្ម": 1611,
      "▁vùng": 1612,
      "▁ta": 1613,
      "▁phí": 1614,
      "▁đều": 1615,
      "▁និយ": 1616,
      "▁Âu": 1617,
      "▁giúp": 1618,
      "▁chuyến": 1619,
      "▁bất": 1620,
      "▁ប្រាក់": 1621,
      "▁ảnh": 1622,
      "▁ការងារ": 1623,
      "▁មូល": 1624,
      "ង្ក": 1625,
      "▁ខ្លួន": 1626,
      "▁បន្ទ": 1627,
      "▁tính": 1628,
      "▁bán": 1629,
      "▁Ông": 1630,
      "▁000": 1631,
      "▁bước": 1632,
      "▁W": 1633,
      "▁trực": 1634,
      "▁សមុទ្រ": 1635,
      "▁បំផុត": 1636,
      "▁càng": 1637,
      "ện": 1638,
      "▁khí": 1639,
      "▁នានា": 1640,
      "▁កិច្ចសហប្រតិបត្តិការ": 1641,
      "▁chuyển": 1642,
      "ព្រម": 1643,
      "▁មុន": 1644,
      "ើម": 1645,
      "ុស": 1646,
      "▁đàm": 1647,
      "▁trí": 1648,
      "▁nhau": 1649,
      "▁ផ្ត": 1650,
      "▁sáng": 1651,
      "ិរ": 1652,
      "័ត": 1653,
      "▁dục": 1654,
      "▁ការទ": 1655,
      "▁lao": 1656,
      "oi": 1657,
      "▁៤": 1658,
      "ាល័យ": 1659,
      "▁yêu": 1660,
      "▁biển": 1661,
      "ỏi": 1662,
      "▁Tru": 1663,
      "ហ៊ុន": 1664,
      "▁kế": 1665,
      "▁ផលិត": 1666,
      "▁Nhật": 1667,
      "▁ឡ": 1668,
      "ơi": 1669,
      "▁Ngh": 1670,
      "▁vừa": 1671,
      "▁គណៈកម្មាធិការ": 1672,
      "▁ជ្រ": 1673,
      "óng": 1674,
      "លើ": 1675,
      "▁អគ្គ": 1676,
      "▁hạn": 1677,
      "▁duy": 1678,
      "ណា": 1679,
      "ប្ប": 1680,
      "▁រដ្ឋមន្ត្រី": 1681,
      "▁sống": 1682,
      "គមន៍": 1683,
      "▁nỗ": 1684,
      "ំហ": 1685,
      "ក្ខ": 1686,
      "▁Biển": 1687,
      "▁phục": 1688,
      "at": 1689,
      "ការណ៍": 1690,
      "▁khoảng": 1691,
      "▁Lu": 1692,
      "▁ចូលរួម": 1693,
      "ត្តិ": 1694,
      "▁thay": 1695,
      "▁vốn": 1696,
      "ព្រៀង": 1697,
      "▁AP": 1698,
      "▁trách": 1699,
      "▁Ban": 1700,
      "▁hoá": 1701,
      "កាស": 1702,
      "ran": 1703,
      "▁sát": 1704,
      "ាច់": 1705,
      "▁ការក": 1706,
      "▁ឱ្យ": 1707,
      "ិយ": 1708,
      "ជ្ឈ": 1709,
      "ួប": 1710,
      "▁Xuân": 1711,
      "▁២០២": 1712,
      "មូល": 1713,
      "▁លេខ": 1714,
      "ín": 1715,
      "ាស់ប្ត": 1716,
      "▁tương": 1717,
      "▁យើង": 1718,
      "▁cứu": 1719,
      "ovid": 1720,
      "▁មជ្ឈ": 1721,
      "▁Bản": 1722,
      "៉េ": 1723,
      "▁Tuy": 1724,
      "▁Ủ": 1725,
      "ាស់ប្តូរ": 1726,
      "▁Ủy": 1727,
      "▁ស្តី": 1728,
      "▁បទ": 1729,
      "▁trì": 1730,
      "ព្រមព្រៀង": 1731,
      "ុណ": 1732,
      "▁ឧប": 1733,
      "▁cải": 1734,
      "▁quản": 1735,
      "▁Đây": 1736,
      "▁12": 1737,
      "it": 1738,
      "ុប្ប": 1739,
      "▁môi": 1740,
      "▁hoà": 1741,
      "▁cạnh": 1742,
      "ạng": 1743,
      "▁ច្រើន": 1744,
      "▁បច្ចុប្ប": 1745,
      "▁កាន់": 1746,
      "▁hết": 1747,
      "ើញ": 1748,
      "៌មាន": 1749,
      "▁nào": 1750,
      "ưng": 1751,
      "▁khăn": 1752,
      "▁បច្ចុប្បន្ន": 1753,
      "▁luôn": 1754,
      "▁hưởng": 1755,
      "ម្ភ": 1756,
      "មុខ": 1757,
      "▁Ngoại": 1758,
      "▁Y": 1759,
      "▁កិច្ចព្រមព្រៀង": 1760,
      "▁ប្រកប": 1761,
      "▁ល្អ": 1762,
      "▁Đồng": 1763,
      "▁Triều": 1764,
      "ិបតី": 1765,
      "▁សេចក្តី": 1766,
      "▁du": 1767,
      "▁Hàn": 1768,
      "▁កូរ": 1769,
      "▁រូប": 1770,
      "us": 1771,
      "▁ចាត់": 1772,
      "ậu": 1773,
      "▁O": 1774,
      "▁Văn": 1775,
      "▁to": 1776,
      "▁Covid": 1777,
      "ចេញ": 1778,
      "ត្ប": 1779,
      "▁đảo": 1780,
      "ណ្តាល": 1781,
      "▁điện": 1782,
      "▁GD": 1783,
      "▁ích": 1784,
      "▁cáo": 1785,
      "▁thiện": 1786,
      "▁ខ្ញុំ": 1787,
      "▁phán": 1788,
      "▁ប្រកបដោយ": 1789,
      "ដល់": 1790,
      "▁11": 1791,
      "្សា": 1792,
      "ìm": 1793,
      "▁kỷ": 1794,
      "ឿន": 1795,
      "▁APEC": 1796,
      "▁សិទ្ធិ": 1797,
      "▁từng": 1798,
      "▁ជាព": 1799,
      "▁mang": 1800,
      "▁កូរ៉េ": 1801,
      "ផ្សារ": 1802,
      "▁muốn": 1803,
      "▁Bí": 1804,
      "▁Thái": 1805,
      "▁đặt": 1806,
      "▁Phu": 1807,
      "▁đảng": 1808,
      "▁kiểm": 1809,
      "▁Cam": 1810,
      "ra": 1811,
      "▁song": 1812,
      "្ដី": 1813,
      "▁បណ្តា": 1814,
      "▁tôn": 1815,
      "mp": 1816,
      "▁ការផ": 1817,
      "ិច": 1818,
      "▁មុខ": 1819,
      "េតុ": 1820,
      "្មាន": 1821,
      "▁phạm": 1822,
      "រណ៍": 1823,
      "▁2019": 1824,
      "ét": 1825,
      "▁chuyên": 1826,
      "▁dư": 1827,
      "▁ជាពិសេស": 1828,
      "▁su": 1829,
      "▁vọng": 1830,
      "▁nữa": 1831,
      "ដឹកនាំ": 1832,
      "▁ឃ": 1833,
      "▁Cu": 1834,
      "▁រៀបចំ": 1835,
      "▁សហគ្រ": 1836,
      "▁tín": 1837,
      "▁ទីផ្សារ": 1838,
      "▁đoạn": 1839,
      "ាធិបតី": 1840,
      "▁cán": 1841,
      "▁tuyên": 1842,
      "▁បន្ទាប់": 1843,
      "▁mua": 1844,
      "▁Tiên": 1845,
      "ិសុខ": 1846,
      "▁bu": 1847,
      "▁2018": 1848,
      "▁នាក់": 1849,
      "▁kể": 1850,
      "▁ការពារ": 1851,
      "▁Trường": 1852,
      "un": 1853,
      "iềm": 1854,
      "▁Hồ": 1855,
      "ám": 1856,
      "▁ស្តីពី": 1857,
      "▁សន្តិសុខ": 1858,
      "▁សារ": 1859,
      "▁đa": 1860,
      "▁bền": 1861,
      "▁ជាក់": 1862,
      "▁ngân": 1863,
      "▁tìm": 1864,
      "▁ឆ្ល": 1865,
      "▁ពាន់": 1866,
      "▁ជួយ": 1867,
      "▁ស្ថាន": 1868,
      "▁ty": 1869,
      "▁Hiệp": 1870,
      "▁ប្រធានាធិបតី": 1871,
      "ូម": 1872,
      "▁ត្រឹម": 1873,
      "▁Nhân": 1874,
      "▁ក្រុមហ៊ុន": 1875,
      "▁sâu": 1876,
      "ញ្ញា": 1877,
      "រដ្ឋ": 1878,
      "▁mối": 1879,
      "▁លទ្ធ": 1880,
      "pu": 1881,
      "ọn": 1882,
      "ើប": 1883,
      "▁អ៊ី": 1884,
      "វិញ": 1885,
      "▁ដូច្ន": 1886,
      "ុះប": 1887,
      "▁សហគ្រាស": 1888,
      "▁biện": 1889,
      "▁គោលដៅ": 1890,
      "▁Luật": 1891,
      "▁១៩": 1892,
      "▁និយាយ": 1893,
      "▁cam": 1894,
      "▁Do": 1895,
      "is": 1896,
      "▁dẫn": 1897,
      "្វី": 1898,
      "ម្លាំង": 1899,
      "▁អោយ": 1900,
      "ោម": 1901,
      "▁យុទ្ធ": 1902,
      "ណ្ណ": 1903,
      "▁Chí": 1904,
      "▁giữ": 1905,
      "▁vi": 1906,
      "▁bắt": 1907,
      "ad": 1908,
      "▁ស្ម": 1909,
      "ួត": 1910,
      "▁mô": 1911,
      "▁dài": 1912,
      "iếm": 1913,
      "ជ្រ": 1914,
      "ឆ្ន": 1915,
      "ចំណ": 1916,
      "ặp": 1917,
      "▁ផែន": 1918,
      "េយ": 1919,
      "រណ": 1920,
      "▁កន្លង": 1921,
      "▁bao": 1922,
      "ស្សនកិច្ច": 1923,
      "ះអ": 1924,
      "puch": 1925,
      "ហាញ": 1926,
      "▁ឱ": 1927,
      "▁mẽ": 1928,
      "puchia": 1929,
      "▁ផ្លូវ": 1930,
      "▁Campuchia": 1931,
      "▁em": 1932,
      "ិកា": 1933,
      "▁tinh": 1934,
      "▁chia": 1935,
      "ិក្សា": 1936,
      "▁វិទ្យ": 1937,
      "សម្រ": 1938,
      "▁phân": 1939,
      "▁thêm": 1940,
      "▁bầu": 1941,
      "▁គេ": 1942,
      "ួក": 1943,
      "▁ដូច្នេះ": 1944,
      "▁ណ": 1945,
      "▁bỏ": 1946,
      "ោធ": 1947,
      "▁សាល": 1948,
      "ac": 1949,
      "▁hay": 1950,
      "ំរុញ": 1951,
      "▁nhấn": 1952,
      "▁viện": 1953,
      "▁Đối": 1954,
      "▁khoa": 1955,
      "▁An": 1956,
      "គ្នា": 1957,
      "ុល្ល": 1958,
      "▁ដុល្ល": 1959,
      "▁ដាក់": 1960,
      "▁លក្ខ": 1961,
      "▁Với": 1962,
      "ធម": 1963,
      "វិធី": 1964,
      "▁giai": 1965,
      "▁Dương": 1966,
      "▁coi": 1967,
      "▁TP": 1968,
      "▁បង្កើន": 1969,
      "▁mỗi": 1970,
      "ំល": 1971,
      "▁Tổ": 1972,
      "ឆាំង": 1973,
      "▁chứng": 1974,
      "▁lo": 1975,
      "▁trao": 1976,
      "▁chấp": 1977,
      "ចំណែក": 1978,
      "នេះ": 1979,
      "ាកាស": 1980,
      "▁យក": 1981,
      "áy": 1982,
      "ព្វ": 1983,
      "▁gặp": 1984,
      "▁Phúc": 1985,
      "▁Sa": 1986,
      "ះអាង": 1987,
      "វិទ្យា": 1988,
      "▁ទាក់ទ": 1989,
      "▁ចាត់ទុក": 1990,
      "▁បរទេស": 1991,
      "iêm": 1992,
      "▁cố": 1993,
      "▁សន្ន": 1994,
      "ọc": 1995,
      "▁Trump": 1996,
      "ầy": 1997,
      "▁ủng": 1998,
      "▁ពួក": 1999,
      "▁đơn": 2000,
      "▁៦": 2001,
      "ិត្យ": 2002,
      "ượt": 2003,
      "▁ទោះ": 2004,
      "▁tra": 2005,
      "▁ប្រជាជាតិ": 2006,
      "om": 2007,
      "▁រាល់": 2008,
      "▁ចេញ": 2009,
      "▁lời": 2010,
      "ស្រី": 2011,
      "ាធារ": 2012,
      "▁khủng": 2013,
      "▁2017": 2014,
      "ប្រជុំ": 2015,
      "▁phù": 2016,
      "នាគ": 2017,
      "▁សម្": 2018,
      "▁បង្ហាញ": 2019,
      "ជាក់": 2020,
      "▁thuộc": 2021,
      "▁Kim": 2022,
      "ឺរ៉": 2023,
      "▁វា": 2024,
      "▁Phú": 2025,
      "▁bạn": 2026,
      "ាកល": 2027,
      "▁đàn": 2028,
      "ប់រំ": 2029,
      "▁Thị": 2030,
      "▁នី": 2031,
      "▁អះអាង": 2032,
      "▁ក្ល": 2033,
      "▁loại": 2034,
      "▁phụ": 2035,
      "▁ឬ": 2036,
      "▁ស្ន": 2037,
      "▁Đức": 2038,
      "▁បច្ចេក": 2039,
      "កាល": 2040,
      "▁Hai": 2041,
      "▁មូលដ្ឋាន": 2042,
      "ៃគ": 2043,
      "▁កសាង": 2044,
      "▁ưu": 2045,
      "ក្ល": 2046,
      "▁Năm": 2047,
      "ồm": 2048,
      "▁ឱកាស": 2049,
      "▁ថែម": 2050,
      "▁ការអនុ": 2051,
      "▁trẻ": 2052,
      "▁ដើម": 2053,
      "▁gồm": 2054,
      "▁Những": 2055,
      "▁ការរ": 2056,
      "▁Lào": 2057,
      "▁ជាក់ស": 2058,
      "▁hoặc": 2059,
      "▁កាន់តែ": 2060,
      "▁ước": 2061,
      "▁bối": 2062,
      "ុស្ស": 2063,
      "ẹp": 2064,
      "ấm": 2065,
      "សាស្ត្រ": 2066,
      "▁ដំណើរការ": 2067,
      "គ្រង": 2068,
      "▁សហគមន៍": 2069,
      "ធម៌": 2070,
      "▁ដុង": 2071,
      "▁សាធារ": 2072,
      "▁ដំប": 2073,
      "▁Nghị": 2074,
      "il": 2075,
      "▁đào": 2076,
      "ាំទ្រ": 2077,
      "▁yếu": 2078,
      "▁xác": 2079,
      "ịp": 2080,
      "អស់": 2081,
      "▁bệnh": 2082,
      "ាទី": 2083,
      "▁gọi": 2084,
      "▁កម្លាំង": 2085,
      "▁ប្រឆាំង": 2086,
      "ដឹង": 2087,
      "្ក": 2088,
      "▁chi": 2089,
      "▁កំណត់": 2090,
      "▁បន្ទាប់ពី": 2091,
      "▁Điều": 2092,
      "▁សន្តិភាព": 2093,
      "▁រុស្ស": 2094,
      "▁Thanh": 2095,
      "▁nhanh": 2096,
      "▁Tại": 2097,
      "ép": 2098,
      "ត្រូវ": 2099,
      "▁đáng": 2100,
      "▁0": 2101,
      "▁hậu": 2102,
      "▁dung": 2103,
      "▁2016": 2104,
      "▁tho": 2105,
      "▁đủ": 2106,
      "▁អឺរ៉": 2107,
      "▁nếu": 2108,
      "▁Sy": 2109,
      "▁xử": 2110,
      "óm": 2111,
      "▁នៅតែ": 2112,
      "▁រុស្ស៊ី": 2113,
      "▁200": 2114,
      "▁កើន": 2115,
      "▁មិត្ត": 2116,
      "▁ស៊ី": 2117,
      "▁thần": 2118,
      "▁ជំរុញ": 2119,
      "▁កាល": 2120,
      "▁Pháp": 2121,
      "▁ដោយសារ": 2122,
      "▁bài": 2123,
      "▁cuối": 2124,
      "▁ដំបូង": 2125,
      "▁chọn": 2126,
      "▁khiến": 2127,
      "▁tưởng": 2128,
      "▁thuế": 2129,
      "▁ប្រភ": 2130,
      "▁បុ": 2131,
      "▁Việc": 2132,
      "▁ស្ថានភាព": 2133,
      "▁sẻ": 2134,
      "ឿង": 2135,
      "▁Iran": 2136,
      "▁ដុល្លារ": 2137,
      "▁ពួកគ": 2138,
      "▁បើក": 2139,
      "ៃគូ": 2140,
      "▁តួន": 2141,
      "▁២០២០": 2142,
      "▁lệ": 2143,
      "▁យោង": 2144,
      "េយ្យ": 2145,
      "▁Trọng": 2146,
      "▁đội": 2147,
      "▁ការធ": 2148,
      "▁xét": 2149,
      "▁កិច្ចប្រជុំ": 2150,
      "ីយ": 2151,
      "ỡng": 2152,
      "▁តួនាទី": 2153,
      "▁ប៉ុណ្ណ": 2154,
      "ផ្ត": 2155,
      "▁ផែនការ": 2156,
      "▁sang": 2157,
      "ីរ": 2158,
      "▁ពួកគេ": 2159,
      "àu": 2160,
      "▁Quang": 2161,
      "ាតុ": 2162,
      "OV": 2163,
      "▁Syr": 2164,
      "▁Sau": 2165,
      "PT": 2166,
      "▁ប៉ុណ្ណោះ": 2167,
      "▁៧": 2168,
      "ោះឆ្ន": 2169,
      "êng": 2170,
      "ោះឆ្នោត": 2171,
      "សាស": 2172,
      "ing": 2173,
      "ោគ": 2174,
      "▁chị": 2175,
      "▁សន្និស": 2176,
      "▁độc": 2177,
      "▁dù": 2178,
      "ỏa": 2179,
      "▁máy": 2180,
      "▁Syria": 2181,
      "ប្រាស់": 2182,
      "▁ធានា": 2183,
      "▁លទ្ធផល": 2184,
      "ro": 2185,
      "▁តែ": 2186,
      "▁2015": 2187,
      "TA": 2188,
      "្នែក": 2189,
      "េទ": 2190,
      "▁Kinh": 2191,
      "វត្ថ": 2192,
      "▁tầm": 2193,
      "▁Thành": 2194,
      "▁phối": 2195,
      "យោជ": 2196,
      "▁sắc": 2197,
      "▁gây": 2198,
      "ជាប់": 2199,
      "▁biên": 2200,
      "ắp": 2201,
      "▁ការអនុវត្ត": 2202,
      "▁đấu": 2203,
      "▁គម្រ": 2204,
      "▁nối": 2205,
      "▁វាយ": 2206,
      "័ន": 2207,
      "ើប្រាស់": 2208,
      "ter": 2209,
      "▁អឺរ៉ុប": 2210,
      "▁đô": 2211,
      "▁ឧស្ស": 2212,
      "▁ស្រុក": 2213,
      "▁khả": 2214,
      "▁nghiệm": 2215,
      "▁សក": 2216,
      "▁Một": 2217,
      "▁đốc": 2218,
      "▁ហូ": 2219,
      "▁ឡើងវិញ": 2220,
      "▁ថ្ល": 2221,
      "▁ស្វ": 2222,
      "▁lớp": 2223,
      "▁ទាំងអស់": 2224,
      "▁30": 2225,
      "▁cửa": 2226,
      "▁ជិត": 2227,
      "ប៉": 2228,
      "uyến": 2229,
      "▁កម្មវិធី": 2230,
      "ខំ": 2231,
      "ặng": 2232,
      "▁cá": 2233,
      "ដាក់": 2234,
      "▁hạt": 2235,
      "▁ឧស្សាហ": 2236,
      "tin": 2237,
      "▁phản": 2238,
      "▁hút": 2239,
      "▁សរ": 2240,
      "▁nghiên": 2241,
      "▁cụ": 2242,
      "▁đình": 2243,
      "▁ចុះ": 2244,
      "▁លោកស្រី": 2245,
      "▁thách": 2246,
      "▁cung": 2247,
      "▁sứ": 2248,
      "▁liệu": 2249,
      "▁phiếu": 2250,
      "▁Bắc": 2251,
      "យោជន៍": 2252,
      "▁Thứ": 2253,
      "▁ផ្នែក": 2254,
      "▁Trước": 2255,
      "▁ច្បាស់": 2256,
      "▁giờ": 2257,
      "▁សម្រេច": 2258,
      "▁áp": 2259,
      "ạp": 2260,
      "ងឺ": 2261,
      "▁រួមចំណែក": 2262,
      "▁ការអភិវឌ្ឍ": 2263,
      "ាណូ": 2264,
      "្ងន់": 2265,
      "▁ប្រសិទ្ធ": 2266,
      "▁កម្រ": 2267,
      "ធិប": 2268,
      "▁ការល": 2269,
      "▁សំណ": 2270,
      "ិនិត្យ": 2271,
      "▁thoại": 2272,
      "▁hiệp": 2273,
      "▁ប្រសិទ្ធភាព": 2274,
      "ាត់ប": 2275,
      "▁បច្ចេកវិទ្យា": 2276,
      "▁vàng": 2277,
      "▁នៅលើ": 2278,
      "▁បញ្ច": 2279,
      "▁ការជ": 2280,
      "▁គុណ": 2281,
      "▁tuyển": 2282,
      "▁nhu": 2283,
      "ង្វ": 2284,
      "iêng": 2285,
      "▁ខែម": 2286,
      "▁ការវ": 2287,
      "▁Vì": 2288,
      "្តែង": 2289,
      "យក": 2290,
      "តេយ្យ": 2291,
      "▁trả": 2292,
      "ចាំ": 2293,
      "▁ក្លាយ": 2294,
      "▁ប្រព័ន្ធ": 2295,
      "▁đúng": 2296,
      "បទ": 2297,
      "ាណូយ": 2298,
      "▁អប់រំ": 2299,
      "▁ការធ្វើ": 2300,
      "▁កម្": 2301,
      "ចំនួន": 2302,
      "ic": 2303,
      "▁បន្ថ": 2304,
      "▁tiếng": 2305,
      "▁suất": 2306,
      "▁ហាណូយ": 2307,
      "▁mong": 2308,
      "▁trang": 2309,
      "ធិបតេយ្យ": 2310,
      "▁sửa": 2311,
      "▁ដោះស្រាយ": 2312,
      "▁ស្ថាប": 2313,
      "▁ទូ": 2314,
      "តាំង": 2315,
      "្ជាប់": 2316,
      "▁ដំណើរទ": 2317,
      "▁បំព": 2318,
      "▁គម្រោង": 2319,
      "▁kỹ": 2320,
      "▁tắc": 2321,
      "▁កំណើន": 2322,
      "▁កើនឡើង": 2323,
      "▁៨": 2324,
      "▁đời": 2325,
      "▁đẹp": 2326,
      "▁Thương": 2327,
      "▁soát": 2328,
      "▁Tây": 2329,
      "▁ផ្តល់": 2330,
      "▁មួយចំនួន": 2331,
      "វិទ្យាល័យ": 2332,
      "▁គួរ": 2333,
      "▁Ngày": 2334,
      "▁ទឹក": 2335,
      "▁Lan": 2336,
      "ឹងប្រ": 2337,
      "មិញ": 2338,
      "ឹងប្រែង": 2339,
      "II": 2340,
      "▁hồi": 2341,
      "▁ក្រោយ": 2342,
      "▁Ấ": 2343,
      "▁Ngoài": 2344,
      "ជ្ញ": 2345,
      "ប្រឹ": 2346,
      "▁thanh": 2347,
      "▁Hoà": 2348,
      "▁Ấn": 2349,
      "តម្លៃ": 2350,
      "▁nguy": 2351,
      "▁ហូជី": 2352,
      "▁Phát": 2353,
      "▁ដំណើរទស្សនកិច្ច": 2354,
      "▁ព័ត": 2355,
      "▁Độ": 2356,
      "▁កសិក": 2357,
      "ុះបណ្តាល": 2358,
      "កម្": 2359,
      "ិស្ស": 2360,
      "▁អាស៊ី": 2361,
      "▁ផ្សេង": 2362,
      "▁ពល": 2363,
      "▁Ngân": 2364,
      "▁lai": 2365,
      "ជ័យ": 2366,
      "▁hiểu": 2367,
      "▁vận": 2368,
      "▁TH": 2369,
      "▁ហូជីមិញ": 2370,
      "▁15": 2371,
      "▁វិញ": 2372,
      "▁បន្ថែម": 2373,
      "ប្រយោជន៍": 2374,
      "▁dùng": 2375,
      "▁bày": 2376,
      "▁đăng": 2377,
      "▁Vi": 2378,
      "▁–": 2379,
      "..": 2380,
      "èo": 2381,
      "▁ខាងត្ប": 2382,
      "▁vượt": 2383,
      "▁Về": 2384,
      "▁In": 2385,
      "កើត": 2386,
      "▁nhóm": 2387,
      "ạy": 2388,
      "▁រហ": 2389,
      "▁khởi": 2390,
      "▁សាកល": 2391,
      "▁ការផ្ល": 2392,
      "▁ខាងត្បូង": 2393,
      "▁bà": 2394,
      "▁ទន្ទ": 2395,
      "▁៩": 2396,
      "កម្ពស់": 2397,
      "▁ទេស": 2398,
      "▁Mo": 2399,
      "▁ឧស្សាហកម្ម": 2400,
      "▁đứng": 2401,
      "ឹត្ត": 2402,
      "▁ថ្នាក់ដឹកនាំ": 2403,
      "▁xem": 2404,
      "▁Hiến": 2405,
      "▁ប្រតិ": 2406,
      "ba": 2407,
      "▁ទាំងមូល": 2408,
      "ទុកដាក់": 2409,
      "▁សហប្រតិបត្តិការ": 2410,
      "ំដ": 2411,
      "្ថាន": 2412,
      "▁ក្រុមប្រឹ": 2413,
      "▁Don": 2414,
      "ចិត្តទុកដាក់": 2415,
      "▁nêu": 2416,
      "▁ត្រឹមតែ": 2417,
      "ắm": 2418,
      "▁ព័ត៌មាន": 2419,
      "ំបាក": 2420,
      "▁ba": 2421,
      "ន្ថយ": 2422,
      "▁ăn": 2423,
      "▁យុទ្ធសាស្ត្រ": 2424,
      "▁anh": 2425,
      "▁ជាមួយនឹង": 2426,
      "ើល": 2427,
      "▁tái": 2428,
      "▁thẳng": 2429,
      "▁nghiêm": 2430,
      "▁nhìn": 2431,
      "▁ទ្វ": 2432,
      "▁ជី": 2433,
      "▁nghèo": 2434,
      "ហារ": 2435,
      "▁Châu": 2436,
      "▁អង្គភាព": 2437,
      "▁ហេតុ": 2438,
      "▁ខាងកើត": 2439,
      "▁tử": 2440,
      "▁lưu": 2441,
      "ảy": 2442,
      "ạc": 2443,
      "ាស៊ី": 2444,
      "ap": 2445,
      "▁សេរី": 2446,
      "ីទ": 2447,
      "▁chặt": 2448,
      "▁ជាន់": 2449,
      "▁ពិសេស": 2450,
      "ែប": 2451,
      "▁ខាងមុខ": 2452,
      "▁បំពេញ": 2453,
      "ង្រឹង": 2454,
      "▁hỏi": 2455,
      "▁dấu": 2456,
      "▁Hải": 2457,
      "ំនិត": 2458,
      "▁សាលា": 2459,
      "ប៉ុន": 2460,
      "▁កម្រិត": 2461,
      "▁Để": 2462,
      "▁tố": 2463,
      "▁ជប៉ុន": 2464,
      "▁ការបរ": 2465,
      "▁phê": 2466,
      "▁phong": 2467,
      "▁cấu": 2468,
      "▁nhỏ": 2469,
      "▁nơi": 2470,
      "▁១០": 2471,
      "ak": 2472,
      "▁giám": 2473,
      "▁រក្សា": 2474,
      "▁Trần": 2475,
      "ald": 2476,
      "▁đầy": 2477,
      "ោរ": 2478,
      "▁សិស្ស": 2479,
      "▁ដែរ": 2480,
      "ton": 2481,
      "▁សន្និសីទ": 2482,
      "▁Hoàng": 2483,
      "▁bởi": 2484,
      "▁ទន្ទឹម": 2485,
      "▁គណ": 2486,
      "▁ចាប់ពី": 2487,
      "▁chú": 2488,
      "▁សង្ក": 2489,
      "បើ": 2490,
      "▁សុ": 2491,
      "▁tri": 2492,
      "▁thuật": 2493,
      "▁tỏ": 2494,
      "▁tấn": 2495,
      "ាត់បន្ថយ": 2496,
      "▁ជម្រ": 2497,
      "▁cảm": 2498,
      "ậm": 2499,
      "▁មហ": 2500,
      "ផ្សាយ": 2501,
      "▁រហូត": 2502,
      "▁xuyên": 2503,
      "▁លក្ខណៈ": 2504,
      "▁13": 2505,
      "រក": 2506,
      "▁ផ្លាស់ប្តូរ": 2507,
      "ិរភាព": 2508,
      "▁ជំ": 2509,
      "▁ដៃគូ": 2510,
      "▁tượng": 2511,
      "▁đột": 2512,
      "▁gắn": 2513,
      "▁phía": 2514,
      "▁មេ": 2515,
      "▁ផលិតផល": 2516,
      "▁ក្រៅ": 2517,
      "▁nổi": 2518,
      "▁Long": 2519,
      "▁sĩ": 2520,
      "▁Tu": 2521,
      "▁đáp": 2522,
      "ửa": 2523,
      "ោគជ័យ": 2524,
      "▁ក៏ដោយ": 2525,
      "▁កំពូល": 2526,
      "ol": 2527,
      "▁đỉnh": 2528,
      "▁ទេសច": 2529,
      "▁riêng": 2530,
      "▁Dũng": 2531,
      "▁thỏa": 2532,
      "ម៉": 2533,
      "▁Du": 2534,
      "▁ចុង": 2535,
      "▁គី": 2536,
      "▁miền": 2537,
      "រយៈ": 2538,
      "▁ghi": 2539,
      "នាគារ": 2540,
      "▁ការបរទេស": 2541,
      "្រ្ត": 2542,
      "▁Nhưng": 2543,
      "▁ឡើយ": 2544,
      "▁ប្រសិន": 2545,
      "▁តំណ": 2546,
      "▁ngay": 2547,
      "ủy": 2548,
      "▁ធ្ល": 2549,
      "កាន់": 2550,
      "▁ង": 2551,
      "▁គាំទ្រ": 2552,
      "▁ទិស": 2553,
      "▁ព្រម": 2554,
      "▁ក្រុមប្រឹក្សា": 2555,
      "re": 2556,
      "▁bổ": 2557,
      "▁Donald": 2558,
      "ពុ": 2559,
      "▁nghề": 2560,
      "ưỡng": 2561,
      "▁ស្ដី": 2562,
      "▁ស្ថាប័ន": 2563,
      "ាការ": 2564,
      "▁វិទ្យាស": 2565,
      "▁Hiện": 2566,
      "▁ប្រទេសជាតិ": 2567,
      "▁តាមរយៈ": 2568,
      "▁bay": 2569,
      "▁hoảng": 2570,
      "▁lòng": 2571,
      "ន្យ": 2572,
      "▁thân": 2573,
      "▁តម្រ": 2574,
      "▁Thu": 2575,
      "▁toán": 2576,
      "▁ប្រភព": 2577,
      "▁di": 2578,
      "▁ការអភិវឌ្ឍន៍": 2579,
      "▁វប្ប": 2580,
      "▁Viet": 2581,
      "▁ប្រសិនបើ": 2582,
      "▁ជំងឺ": 2583,
      "្រីក": 2584,
      "▁Phạm": 2585,
      "រច": 2586,
      "▁ទំនិញ": 2587,
      "▁មតិ": 2588,
      "▁GDP": 2589,
      "▁Giám": 2590,
      "▁Ả": 2591,
      "▁khoản": 2592,
      "▁bàn": 2593,
      "▁ខឿន": 2594,
      "▁lâu": 2595,
      "▁Hợp": 2596,
      "▁nhũng": 2597,
      "▁ផលប្រយោជន៍": 2598,
      "បាច់": 2599,
      "ầng": 2600,
      "▁vũ": 2601,
      "▁មជ្ឈឹម": 2602,
      "▁VOV": 2603,
      "▁អង់": 2604,
      "▁យន្ត": 2605,
      "▁សិក្សា": 2606,
      "▁ណាស់": 2607,
      "▁tầng": 2608,
      "▁củng": 2609,
      "▁លើកកម្ពស់": 2610,
      "ភ្ជាប់": 2611,
      "▁niệm": 2612,
      "▁ការផ្លាស់ប្តូរ": 2613,
      "សម្រេច": 2614,
      "មាណ": 2615,
      "▁Xuan": 2616,
      "ND": 2617,
      "ít": 2618,
      "▁ដំណោះស្រាយ": 2619,
      "▁រស់": 2620,
      "▁Lê": 2621,
      "▁កន្លងទៅ": 2622,
      "ង្រីក": 2623,
      "▁សាស": 2624,
      "ựa": 2625,
      "▁Từ": 2626,
      "▁ដឹង": 2627,
      "▁ជួប": 2628,
      "▁2013": 2629,
      "▁បដ": 2630,
      "▁vật": 2631,
      "បត្តិ": 2632,
      "លេខ": 2633,
      "▁hạ": 2634,
      "ភាក្សា": 2635,
      "ោរព": 2636,
      "ំណង": 2637,
      "▁Quy": 2638,
      "បី": 2639,
      "▁កសិកម្ម": 2640,
      "▁Đặc": 2641,
      "▁thích": 2642,
      "▁វាយតម្លៃ": 2643,
      "ំណាច": 2644,
      "▁សមត្ថ": 2645,
      "▁គាត់": 2646,
      "▁ការគ": 2647,
      "ារកិច្ច": 2648,
      "▁ĐT": 2649,
      "▁ធនាគារ": 2650,
      "▁ké": 2651,
      "▁trạng": 2652,
      "▁tiềm": 2653,
      "▁ប្រកាស": 2654,
      "ជើង": 2655,
      "▁phóng": 2656,
      "▁ជីវ": 2657,
      "▁សុខ": 2658,
      "▁ជោគជ័យ": 2659,
      "ត្រា": 2660,
      "▁សភា": 2661,
      "ញ្ជ": 2662,
      "▁ទ្វេ": 2663,
      "▁ខែក": 2664,
      "ệt": 2665,
      "▁អាកាស": 2666,
      "▁trận": 2667,
      "▁thắng": 2668,
      "ណ្ឌល": 2669,
      "▁ទាន់": 2670,
      "▁នាំចេញ": 2671,
      "▁ប្រជុំ": 2672,
      "▁បណ្តុះបណ្តាល": 2673,
      "▁ĐH": 2674,
      "CM": 2675,
      "▁huyện": 2676,
      "រំល": 2677,
      "▁ស្ថិរភាព": 2678,
      "▁cư": 2679,
      "ផ្តើម": 2680,
      "▁lương": 2681,
      "គ្ល": 2682,
      "▁danh": 2683,
      "▁ទោះបី": 2684,
      "▁2021": 2685,
      "ôm": 2686,
      "▁tựu": 2687,
      "▁Tấn": 2688,
      "▁khổ": 2689,
      "▁ពង្រឹង": 2690,
      "and": 2691,
      "▁អង់គ្ល": 2692,
      "▁អង់គ្លេស": 2693,
      "ព័ត": 2694,
      "▁14": 2695,
      "▁ភារកិច្ច": 2696,
      "▁nữ": 2697,
      "▁25": 2698,
      "▁កិច្ចការ": 2699,
      "VN": 2700,
      "ចុះ": 2701,
      "ីស": 2702,
      "ត្ថម្ភ": 2703,
      "▁khối": 2704,
      "▁លក់": 2705,
      "គ្គី": 2706,
      "លេខា": 2707,
      "ូស": 2708,
      "▁កង": 2709,
      "ខុស": 2710,
      "▁ràng": 2711,
      "▁ឃើញ": 2712,
      "ើសរ": 2713,
      "ើសរើស": 2714,
      "▁ចាំ": 2715,
      "▁kêu": 2716,
      "ាមគ្គី": 2717,
      "រណកម្ម": 2718,
      "▁ជាក់ស្តែង": 2719,
      "▁គ្មាន": 2720,
      "▁គំនិត": 2721,
      "▁កាលពី": 2722,
      "▁ម្ច": 2723,
      "▁ឈាន": 2724,
      "▁hải": 2725,
      "▁គ្រប់គ្រង": 2726,
      "ៀវ": 2727,
      "▁lệnh": 2728,
      "▁សមាហ": 2729,
      "▁Thi": 2730,
      "▁គុណភាព": 2731,
      "ត្ថលេខា": 2732,
      "សាសន៍": 2733,
      "▁phiên": 2734,
      "▁ម្ចាស់": 2735,
      "▁អតិ": 2736,
      "▁lấy": 2737,
      "ារម្ម": 2738,
      "▁gì": 2739,
      "ិតខំ": 2740,
      "▁២០១៨": 2741,
      "▁២០១៩": 2742,
      "▁Hu": 2743,
      "▁100": 2744,
      "▁បញ្ជាក់": 2745,
      "▁ទុក": 2746,
      "▁សមាហរណកម្ម": 2747,
      "▁thấp": 2748,
      "▁មិត្តភាព": 2749,
      "្ញ": 2750,
      "▁tuần": 2751,
      "ូមិ": 2752,
      "ửi": 2753,
      "ួច": 2754,
      "▁chiều": 2755,
      "ul": 2756,
      "▁Cuba": 2757,
      "▁buộc": 2758,
      "ហត្ថលេខា": 2759,
      "▁ផ្ទាល់": 2760,
      "▁tiết": 2761,
      "ក្លា": 2762,
      "▁ពង្រីក": 2763,
      "ធ្យ": 2764,
      "▁xúc": 2765,
      "▁Thông": 2766,
      "▁កម្ពុ": 2767,
      "▁ទ្រ": 2768,
      "▁កម្ពុជា": 2769,
      "ត់ធ": 2770,
      "▁ប៉ុន": 2771,
      "▁មធ្យ": 2772,
      "▁សម័យ": 2773,
      "▁thôn": 2774,
      "▁tên": 2775,
      "▁ការលំបាក": 2776,
      "▁មហាស": 2777,
      "▁Tết": 2778,
      "▁គិត": 2779,
      "▁តម្រូវ": 2780,
      "ព័ត៌មាន": 2781,
      "ed": 2782,
      "▁វប្បធម៌": 2783,
      "▁“T": 2784,
      "ោស": 2785,
      "▁lễ": 2786,
      "tern": 2787,
      "ារម្មណ៍": 2788,
      "▁dịp": 2789,
      "▁ការទទួល": 2790,
      "oc": 2791,
      "▁ngừng": 2792,
      "▁50": 2793,
      "▁khuôn": 2794,
      "ហ្វ": 2795,
      "▁អ៊ីរ៉": 2796,
      "▁ឧបត្ថម្ភ": 2797,
      "▁សាកលវិទ្យាល័យ": 2798,
      "▁cổ": 2799,
      "▁Đoàn": 2800,
      "▁ជម្រុញ": 2801,
      "▁gửi": 2802,
      "ớm": 2803,
      "▁TT": 2804,
      "▁Tuyên": 2805,
      "▁môn": 2806,
      "▁dưới": 2807,
      "▁nợ": 2808,
      "▁Bảo": 2809,
      "▁18": 2810,
      "▁កាត់បន្ថយ": 2811,
      "▁ngại": 2812,
      "▁thoả": 2813,
      "ãi": 2814,
      "▁khỏi": 2815,
      "▁អត្ថ": 2816,
      "▁phạt": 2817,
      "▁ពន្ធ": 2818,
      "▁ការបង្ក": 2819,
      "▁ចំណោម": 2820,
      "▁ប៉ុន្មាន": 2821,
      "▁ចាំបាច់": 2822,
      "▁ប្រវត្ត": 2823,
      "▁tay": 2824,
      "▁ដំណាក់": 2825,
      "▁វិធាន": 2826,
      "▁បញ្ចប់": 2827,
      "ភូ": 2828,
      "▁lãi": 2829,
      "▁dầu": 2830,
      "▁ទើប": 2831,
      "▁sớm": 2832,
      "▁Không": 2833,
      "tan": 2834,
      "សាង": 2835,
      "▁Chúng": 2836,
      "▁សាធារណៈ": 2837,
      "▁dành": 2838,
      "▁ខ្លាំងក្លា": 2839,
      "▁ការដ": 2840,
      "▁tuổi": 2841,
      "ui": 2842,
      "▁Cùng": 2843,
      "▁quý": 2844,
      "េលា": 2845,
      "OC": 2846,
      "▁ដំណាក់កាល": 2847,
      "▁ủy": 2848,
      "▁Sở": 2849,
      "័ព": 2850,
      "▁xung": 2851,
      "▁ជូន": 2852,
      "ករា": 2853,
      "ពុក": 2854,
      "▁tuyến": 2855,
      "▁chỉnh": 2856,
      "▁2012": 2857,
      "▁សមត្ថភាព": 2858,
      "▁thượng": 2859,
      "▁chắc": 2860,
      "▁ប្រចាំ": 2861,
      "▁Sơn": 2862,
      "ama": 2863,
      "▁tối": 2864,
      "▁វេទ": 2865,
      "▁199": 2866,
      "▁ប្រការ": 2867,
      "▁thí": 2868,
      "▁thổ": 2869,
      "ារាំង": 2870,
      "▁trương": 2871,
      "▁phép": 2872,
      "▁Mặt": 2873,
      "▁ផ្ទះ": 2874,
      "▁THPT": 2875,
      "ternet": 2876,
      "ặn": 2877,
      "▁Tiế": 2878,
      "▁khóa": 2879,
      "▁xe": 2880,
      "co": 2881,
      "▁គំរ": 2882,
      "▁đón": 2883,
      "▁ភា": 2884,
      "▁cây": 2885,
      "▁ឲ្យដឹង": 2886,
      "▁Phuc": 2887,
      "▁ទេសចរណ៍": 2888,
      "▁dạy": 2889,
      "▁១២": 2890,
      "▁đẳng": 2891,
      "▁cô": 2892,
      "▁ស្ដីពី": 2893,
      "ហេតុ": 2894,
      "▁ឯកសារ": 2895,
      "្ព": 2896,
      "ឈម": 2897,
      "▁chiếm": 2898,
      "ម័ត": 2899,
      "▁ít": 2900,
      "▁...": 2901,
      "▁căng": 2902,
      "ម្រង់": 2903,
      "ាញ់": 2904,
      "▁ប្រើប្រាស់": 2905,
      "▁ដី": 2906,
      "វត្ថុ": 2907,
      "▁នៅពេល": 2908,
      "វា": 2909,
      "▁សង្កត់ធ": 2910,
      "ẵn": 2911,
      "ុច": 2912,
      "▁Nhiều": 2913,
      "▁រង": 2914,
      "▁ចង់": 2915,
      "▁សំដៅ": 2916,
      "▁សង្កត់ធ្ងន់": 2917,
      "ចន": 2918,
      "ou": 2919,
      "▁យុ": 2920,
      "ាសម្": 2921,
      "▁ឥណ្ឌ": 2922,
      "▁tạp": 2923,
      "ិសាស្ត្រ": 2924,
      "ន្យា": 2925,
      "័ណ្ឌ": 2926,
      "▁អំពើ": 2927,
      "▁Kho": 2928,
      "▁សកល": 2929,
      "▁niên": 2930,
      "▁Le": 2931,
      "▁2014": 2932,
      "▁kê": 2933,
      "ចនាសម្": 2934,
      "▁Trên": 2935,
      "្នៃ": 2936,
      "▁លេខាធិការ": 2937,
      "▁Tôi": 2938,
      "្មោះ": 2939,
      "▁សហរដ្ឋ": 2940,
      "▁Ảnh": 2941,
      "▁Van": 2942,
      "០០០": 2943,
      "▁Ob": 2944,
      "▁Tiến": 2945,
      "▁sẵn": 2946,
      "▁ទូទាំង": 2947,
      "▁ព្រមទាំង": 2948,
      "▁Quảng": 2949,
      "▁ចែក": 2950,
      "▁vay": 2951,
      "▁chẽ": 2952,
      "▁Có": 2953,
      "▁ការខ": 2954,
      "ri": 2955,
      "▁ធន": 2956,
      "▁Dân": 2957,
      "ៀម": 2958,
      "▁“C": 2959,
      "ិវត្ត": 2960,
      "ែត": 2961,
      "▁lựa": 2962,
      "▁phó": 2963,
      "▁២០១៧": 2964,
      "▁ធ្វើឱ្យ": 2965,
      "▁HCM": 2966,
      "▁Bà": 2967,
      "▁អត្រា": 2968,
      "ឡង": 2969,
      "▁Thế": 2970,
      "▁ការកសាង": 2971,
      "▁ប្រៀប": 2972,
      "▁Bên": 2973,
      "វេលា": 2974,
      "áu": 2975,
      "▁quán": 2976,
      "▁ជនជាតិ": 2977,
      "▁រំល": 2978,
      "្ឆ": 2979,
      "▁ស្ត": 2980,
      "▁ប្រមូល": 2981,
      "▁”": 2982,
      "▁ខាងជើង": 2983,
      "▁thử": 2984,
      "▁ម្ត": 2985,
      "▁ដឹកនាំ": 2986,
      "▁ពេលវេលា": 2987,
      "ខុសត្រូវ": 2988,
      "▁អ្វី": 2989,
      "ិទ": 2990,
      "▁ចល": 2991,
      "▁មានប្រ": 2992,
      "ួសារ": 2993,
      "▁UN": 2994,
      "▁ឯកភាព": 2995,
      "ស្រប": 2996,
      "ណី": 2997,
      "▁Obama": 2998,
      "ែទ": 2999,
      "▁hy": 3000,
      "▁យ៉ាងណា": 3001,
      "▁តម្រូវការ": 3002,
      "ចនាសម្ព័ន្ធ": 3003,
      "▁សាមគ្គី": 3004,
      "▁Giáo": 3005,
      "▁ប្រព": 3006,
      "ាវជ្រ": 3007,
      "▁ផលិតកម្ម": 3008,
      "ាវជ្រាវ": 3009,
      "▁មានប្រសាសន៍": 3010,
      "▁ទូល": 3011,
      "▁nghỉ": 3012,
      "▁dễ": 3013,
      "▁ផ្លូវការ": 3014,
      "េជ្ញ": 3015,
      "▁thái": 3016,
      "ore": 3017,
      "▁សម្ព័ន្ធ": 3018,
      "▁ការទូត": 3019,
      "▁IS": 3020,
      "▁trái": 3021,
      "▁Nếu": 3022,
      "▁និស្ស": 3023,
      "ិបាត": 3024,
      "▁យកចិត្តទុកដាក់": 3025,
      "▁mất": 3026,
      "▁វិធានការ": 3027,
      "រំលែក": 3028,
      "▁មធ្យម": 3029,
      "▁Is": 3030,
      "▁Diễn": 3031,
      "▁និស្សិត": 3032,
      "▁តែង": 3033,
      "▁២០១៦": 3034,
      "នីយ": 3035,
      "▁កើត": 3036,
      "▁ពេញ": 3037,
      "▁ចុះហត្ថលេខា": 3038,
      "▁Dự": 3039,
      "▁ឡាវ": 3040,
      "▁ថែមទាំង": 3041,
      "ស្ម": 3042,
      "▁សំរ": 3043,
      "ានុ": 3044,
      "▁ហិរ": 3045,
      "គ្គល": 3046,
      "▁ប្រឹងប្រែង": 3047,
      "▁cận": 3048,
      "ាតត្ប": 3049,
      "▁sung": 3050,
      "ếp": 3051,
      "▁Tập": 3052,
      "ne": 3053,
      "▁នីមួយ": 3054,
      "ាតត្បាត": 3055,
      "os": 3056,
      "▁ព្យ": 3057,
      "▁ប្រឈម": 3058,
      "▁Al": 3059,
      "▁ធនធាន": 3060,
      "▁ហិរញ្ញ": 3061,
      "តប": 3062,
      "ទាន": 3063,
      "្នាក់ងារ": 3064,
      "▁ពិភាក្សា": 3065,
      "▁បុគ្គល": 3066,
      "ដី": 3067,
      "▁ជ្រើសរើស": 3068,
      "ាយការណ៍": 3069,
      "ស្រួល": 3070,
      "▁Binh": 3071,
      "ម្មនុ": 3072,
      "▁កុ": 3073,
      "▁ចំណូល": 3074,
      "▁ស្មារ": 3075,
      "▁Người": 3076,
      "▁ស៊ីរី": 3077,
      "▁ខ្លឹម": 3078,
      "ជែង": 3079,
      "▁អនុម័ត": 3080,
      "▁XII": 3081,
      "▁អ៊ីរ៉ង់": 3082,
      "▁អ៊": 3083,
      "▁រាប់": 3084,
      "ir": 3085,
      "▁Ninh": 3086,
      "▁phức": 3087,
      "▁ស្មារតី": 3088,
      "▁សហភាព": 3089,
      "▁បម្រ": 3090,
      "▁sàng": 3091,
      "▁បដិវត្ត": 3092,
      "▁quần": 3093,
      "ាយស្រួល": 3094,
      "▁16": 3095,
      "▁ខ្លឹមសារ": 3096,
      "▁កន្លងមក": 3097,
      "▁ចំណុច": 3098,
      "▁nghìn": 3099,
      "▁buổi": 3100,
      "ួស": 3101,
      "▁Me": 3102,
      "ien": 3103,
      "ព្វផ្សាយ": 3104,
      "ពារ": 3105,
      "េអ": 3106,
      "ទៅជា": 3107,
      "▁tàu": 3108,
      "▁បរិយ": 3109,
      "▁thiếu": 3110,
      "▁câu": 3111,
      "▁Chiến": 3112,
      "▁Giang": 3113,
      "▁ឆ្លង": 3114,
      "▁Ba": 3115,
      "▁dựa": 3116,
      "ធាតុ": 3117,
      "▁កោះ": 3118,
      "▁វេទិកា": 3119,
      "ិពល": 3120,
      "▁មន្ទ": 3121,
      "▁ទិញ": 3122,
      "▁សុទ្ធ": 3123,
      "ំហាន": 3124,
      "▁?": 3125,
      "▁hiểm": 3126,
      "▁តំណាង": 3127,
      "▁វិទ្យាសាស្ត្រ": 3128,
      "ម្មនុញ្ញ": 3129,
      "▁nạn": 3130,
      "▁ការចូល": 3131,
      "▁Khi": 3132,
      "▁trừng": 3133,
      "▁Viện": 3134,
      "▁ហិរញ្ញវត្ថុ": 3135,
      "្ដែង": 3136,
      "▁រក": 3137,
      "▁ngăn": 3138,
      "▁ម្នាក់": 3139,
      "ពិនិត្យ": 3140,
      "ែនាំ": 3141,
      "▁សាធារណ": 3142,
      "▁២០១៥": 3143,
      "▁សេចក្តីសម្រេច": 3144,
      "ជំន": 3145,
      "▁Sing": 3146,
      "▁សង្គ្រ": 3147,
      "្គាល់": 3148,
      "▁ផ្តោត": 3149,
      "គាល់": 3150,
      "▁សេចក្ដី": 3151,
      "▁Quan": 3152,
      "▁ក្លាយទៅជា": 3153,
      "ប្រធាន": 3154,
      "▁198": 3155,
      "▁កន្លែង": 3156,
      "▁Sh": 3157,
      "ួតពិនិត្យ": 3158,
      "▁ពាក់": 3159,
      "▁Uỷ": 3160,
      "យុទ្ធ": 3161,
      "▁bang": 3162,
      "▁Sự": 3163,
      "▁អនុប្រធាន": 3164,
      "▁សរុប": 3165,
      "▁đồ": 3166,
      "FTA": 3167,
      "▁អច": 3168,
      "▁បរិយាកាស": 3169,
      "្វីប": 3170,
      "▁tảng": 3171,
      "▁đông": 3172,
      "▁ទស្សន": 3173,
      "ទ្ធិពល": 3174,
      "▁ពិធី": 3175,
      "▁mừng": 3176,
      "▁ទៅកាន់": 3177,
      "▁ប្រពៃ": 3178,
      "័រ": 3179,
      "▁tốc": 3180,
      "▁đu": 3181,
      "▁kiếm": 3182,
      "សា": 3183,
      "▁bào": 3184,
      "▁ព្រំដ": 3185,
      "▁ព្រំដែន": 3186,
      "▁To": 3187,
      "▁chịu": 3188,
      "▁kéo": 3189,
      "▁ជាប់": 3190,
      "ជ្ជា": 3191,
      "▁Tan": 3192,
      "▁24": 3193,
      "▁ប៉ះ": 3194,
      "▁sư": 3195,
      "▁xuống": 3196,
      "lin": 3197,
      "▁ការវិនិយោគ": 3198,
      "apore": 3199,
      "្បង": 3200,
      "ទូត": 3201,
      "▁កម្មាភិបាល": 3202,
      "គ្រប់": 3203,
      "▁Vũ": 3204,
      "▁ទិសដៅ": 3205,
      "▁២០០": 3206,
      "▁Singapore": 3207,
      "rael": 3208,
      "▁ពិត": 3209,
      "▁យល់": 3210,
      "▁Trưởng": 3211,
      "▁17": 3212,
      "ev": 3213,
      "▁ទាក់ទង": 3214,
      "▁ថ្លៃ": 3215,
      "▁យន្តការ": 3216,
      "▁ប្រពៃណី": 3217,
      "▁lúc": 3218,
      "▁khuyến": 3219,
      "▁មន្ទីរ": 3220,
      "▁40": 3221,
      "▁tệ": 3222,
      "▁ប្រព្រ": 3223,
      "▁សមស្រប": 3224,
      "▁lẫn": 3225,
      "▁Thường": 3226,
      "បន្ទ": 3227,
      "ញ្ញត្តិ": 3228,
      "មាំ": 3229,
      "្តេជ្ញ": 3230,
      "▁Báo": 3231,
      "ជ្ជមាន": 3232,
      "▁កណ្តាល": 3233,
      "▁សញ្ញា": 3234,
      "▁លើស": 3235,
      "▁ថ្លែង": 3236,
      "▁Thượng": 3237,
      "ច្ឆ": 3238,
      "▁Israel": 3239,
      "▁ចែករំលែក": 3240,
      "▁TTX": 3241,
      "ank": 3242,
      "▁21": 3243,
      "▁បារាំង": 3244,
      "▁តាំង": 3245,
      "▁គណៈប្រតិ": 3246,
      "▁ការរី": 3247,
      "▁រាតត្បាត": 3248,
      "▁TTXVN": 3249,
      "▁Và": 3250,
      "▁ឈរ": 3251,
      "▁giả": 3252,
      "▁មាស": 3253,
      "ew": 3254,
      "▁khắc": 3255,
      "▁សាសនា": 3256,
      "នកម្ម": 3257,
      "▁ប្រជាធិបតេយ្យ": 3258,
      "្ពោះ": 3259,
      "▁lan": 3260,
      "▁ឆ្លើយ": 3261,
      "▁sao": 3262,
      "▁ប្រវត្តិសាស្ត្រ": 3263,
      "ah": 3264,
      "▁26": 3265,
      "▁ជាក់ស្ដែង": 3266,
      "▁Đó": 3267,
      "▁ស្វែង": 3268,
      "ខ្": 3269,
      "▁ធ្លាក់": 3270,
      "គ្រប់គ្រង": 3271,
      "▁ឆ្ពោះ": 3272,
      "សម្រួល": 3273,
      "▁អេ": 3274,
      "OS": 3275,
      "óc": 3276,
      "▁My": 3277,
      "▁សម្ល": 3278,
      "▁សុទ្ធតែ": 3279,
      "▁căn": 3280,
      "ន្ទនា": 3281,
      "▁សារព័ត៌មាន": 3282,
      "▁ក្រៅពី": 3283,
      "▁Kế": 3284,
      "▁ការត": 3285,
      "យ៍": 3286,
      "▁មហា": 3287,
      "▁Chuyến": 3288,
      "▁trồng": 3289,
      "av": 3290,
      "▁ប្រសើរ": 3291,
      "▁thiểu": 3292,
      "ពាល់": 3293,
      "ខ័ណ្ឌ": 3294,
      "▁Cách": 3295,
      "▁phổ": 3296,
      "▁giành": 3297,
      "ចូល": 3298,
      "▁ខិតខំ": 3299,
      "▁Internet": 3300,
      "▁kim": 3301,
      "ាប់រ": 3302,
      "▁ស្នើ": 3303,
      "▁នាំមក": 3304,
      "▁កត់": 3305,
      "▁ទាក់ទាញ": 3306,
      "▁០០០": 3307,
      "▁xảy": 3308,
      "ID": 3309,
      "▁Đầu": 3310,
      "▁Kết": 3311,
      "▁គោរព": 3312,
      "▁ខុស": 3313,
      "▁រហូតដល់": 3314,
      "▁ប៉ះពាល់": 3315,
      "▁ngôn": 3316,
      "▁vòng": 3317,
      "តិក": 3318,
      "▁ផ្ដ": 3319,
      "ùi": 3320,
      "ុយន": 3321,
      "▁បេក": 3322,
      "▁ស្រប": 3323,
      "DI": 3324,
      "▁ស្ថិត": 3325,
      "▁សេរីភាព": 3326,
      "ùa": 3327,
      "ខ្ល": 3328,
      "▁Dung": 3329,
      "▁Phòng": 3330,
      "តា": 3331,
      "▁អធិបតេយ្យ": 3332,
      "▁niềm": 3333,
      "ឹងមាំ": 3334,
      "ដា": 3335,
      "TO": 3336,
      "▁nắm": 3337,
      "▁ទោះបីជា": 3338,
      "▁អភិវឌ្ឍ": 3339,
      "▁khá": 3340,
      "ប្រជែង": 3341,
      "▁បេក្ខ": 3342,
      "▁តែងតែ": 3343,
      "ិជន": 3344,
      "ashi": 3345,
      "ip": 3346,
      "សម្": 3347,
      "ứt": 3348,
      "ថិជន": 3349,
      "រណី": 3350,
      "▁អតិថិជន": 3351,
      "ីរភាព": 3352,
      "▁gỡ": 3353,
      "▁khích": 3354,
      "អារម្មណ៍": 3355,
      "▁vĩ": 3356,
      "ួតប្រជែង": 3357,
      "▁ជាមួយគ្នា": 3358,
      "▁vui": 3359,
      "▁ករណី": 3360,
      "▁ចាប់ផ្តើម": 3361,
      "ូក": 3362,
      "▁រដ្ឋធ": 3363,
      "▁mẹ": 3364,
      "▁FTA": 3365,
      "▁ដែន": 3366,
      "▁គ្រួសារ": 3367,
      "▁នុយ": 3368,
      "▁ទុន": 3369,
      "▁Ab": 3370,
      "▁ការបោះឆ្នោត": 3371,
      "▁ឥណ្ឌា": 3372,
      "បក្ស": 3373,
      "▁របៀប": 3374,
      "▁អាណ": 3375,
      "▁ខណៈ": 3376,
      "▁ពិន": 3377,
      "េសា": 3378,
      "▁៣០": 3379,
      "▁សុវត្ថ": 3380,
      "▁សាមគ្គីភាព": 3381,
      "han": 3382,
      "ភូមិ": 3383,
      "ង្រៀន": 3384,
      "▁Khu": 3385,
      "ứa": 3386,
      "▁ភ្ល": 3387,
      "▁Khoa": 3388,
      "ជំនាញ": 3389,
      "▁ចីរភាព": 3390,
      "EF": 3391,
      "ot": 3392,
      "ឌិត": 3393,
      "ារ៉": 3394,
      "PP": 3395,
      "▁យោធ": 3396,
      "▁Nguyên": 3397,
      "ផង": 3398,
      "ន័យ": 3399,
      "▁បេក្ខជន": 3400,
      "ei": 3401,
      "▁rút": 3402,
      "▁cập": 3403,
      "▁ពហ": 3404,
      "▁Phi": 3405,
      "▁សុវត្ថិភាព": 3406,
      "og": 3407,
      "▁ngạch": 3408,
      "ទ័ព": 3409,
      "▁FDI": 3410,
      "▁រដ្ឋធម្មនុញ្ញ": 3411,
      "▁អធិបតេយ្យភាព": 3412,
      "ashing": 3413,
      "▁Washing": 3414,
      "▁ខ្ស": 3415,
      "េអ៊": 3416,
      "▁Washington": 3417,
      "▁hại": 3418,
      "▁សា": 3419,
      "▁Thổ": 3420,
      "▁និយម": 3421,
      "▁xa": 3422,
      "▁ទៀតផង": 3423,
      "▁កូន": 3424,
      "▁ជម្ល": 3425,
      "▁loạt": 3426,
      "▁សង្គ្រាម": 3427,
      "rai": 3428,
      "ធ្ល": 3429,
      "▁បរិ": 3430,
      "យល់": 3431,
      "▁រី": 3432,
      "▁កងទ័ព": 3433,
      "ារ្យ": 3434,
      "▁Cấp": 3435,
      "▁ការិយ": 3436,
      "▁ផ្សព្វផ្សាយ": 3437,
      "▁ការបង្កើត": 3438,
      "▁Bar": 3439,
      "▁Jo": 3440,
      "▁ក្លាយជា": 3441,
      "▁ការទទួលខុសត្រូវ": 3442,
      "▁sông": 3443,
      "▁សមាគម": 3444,
      "ុណ្យ": 3445,
      "▁បុណ្យ": 3446,
      "▁chóng": 3447,
      "▁យោធា": 3448,
      "▁ធ្វើការ": 3449,
      "▁hôm": 3450,
      "▁ពហុ": 3451,
      "រល": 3452,
      "▁ក្រោម": 3453,
      "▁ជម្លោះ": 3454,
      "▁xếp": 3455,
      "az": 3456,
      "▁kịp": 3457,
      "▁កុម្ម": 3458,
      "mar": 3459,
      "ព្យ": 3460,
      "▁ការិយាល័យ": 3461,
      "▁cái": 3462,
      "▁ការចូលរួម": 3463,
      "▁2011": 3464,
      "▁ព្រឹត្ត": 3465,
      "រចា": 3466,
      "▁Chỉ": 3467,
      "ur": 3468,
      "▁ប្រព្រឹត្ត": 3469,
      "ថ្នាក់": 3470,
      "▁ងាយស្រួល": 3471,
      "ack": 3472,
      "▁លេខា": 3473,
      "▁គណៈប្រតិភូ": 3474,
      "▁lối": 3475,
      "▁ប្រហ": 3476,
      "▁Chương": 3477,
      "▁បរិស": 3478,
      "ាកម្ម": 3479,
      "▁ក្រុង": 3480,
      "▁ត្រៀម": 3481,
      "▁រឹងមាំ": 3482,
      "▁ការវាយ": 3483,
      "ាស៊ីន": 3484,
      "្ទុ": 3485,
      "▁មហាសន្ន": 3486,
      "▁la": 3487,
      "ែទម្រង់": 3488,
      "្អែក": 3489,
      "ានិច្ច": 3490,
      "▁ទន្ទឹមនឹង": 3491,
      "▁bật": 3492,
      "▁១៥": 3493,
      "ដាល": 3494,
      "▁đe": 3495,
      "ịnh": 3496,
      "ញ្ជើញ": 3497,
      "uôi": 3498,
      "▁vô": 3499,
      "▁ជាដ": 3500,
      "▁១៣": 3501,
      "▁ទីភ": 3502,
      "▁ធម្ម": 3503,
      "ស្ន": 3504,
      "▁suy": 3505,
      "▁Tran": 3506,
      "▁Thực": 3507,
      "▁សេវ": 3508,
      "▁ថវ": 3509,
      "▁មហាសន្និបាត": 3510,
      "▁ទីភ្នាក់ងារ": 3511,
      "▁Cơ": 3512,
      "ណ្ឌិត": 3513,
      "▁nguyện": 3514,
      "▁chặn": 3515,
      "▁EV": 3516,
      "tr": 3517,
      "▁tồn": 3518,
      "▁ngo": 3519,
      "▁Nhĩ": 3520,
      "▁Mar": 3521,
      "▁sơ": 3522,
      "▁Vinh": 3523,
      "▁ពេលនេះ": 3524,
      "▁ấn": 3525,
      "▁phi": 3526,
      "ld": 3527,
      "▁អនាគ": 3528,
      "▁១១": 3529,
      "▁Pu": 3530,
      "▁អាទ": 3531,
      "▁នុយក្ល": 3532,
      "▁ពិន្ទុ": 3533,
      "▁ជានិច្ច": 3534,
      "ប្រឌិត": 3535,
      "▁តាំងពី": 3536,
      "្នៃប្រឌិត": 3537,
      "▁ព្រឹត្តិការ": 3538,
      "▁យូរ": 3539,
      "សញ្ញា": 3540,
      "▁ការគ្រប់គ្រង": 3541,
      "▁Ngọc": 3542,
      "▁អតី": 3543,
      "▁hoa": 3544,
      "▁ការរៀបចំ": 3545,
      "▁អតីត": 3546,
      "៊ូ": 3547,
      "ាលដាល": 3548,
      "ខ្លួន": 3549,
      "▁បង្កើតឡើង": 3550,
      "▁New": 3551,
      "ីក្រ": 3552,
      "▁ក្រប": 3553,
      "▁ល្ប": 3554,
      "ុមារ": 3555,
      "▁សម្រេចបាន": 3556,
      "ឃើញ": 3557,
      "ក្រោយ": 3558,
      "▁បែប": 3559,
      "alia": 3560,
      "▁អនាគត": 3561,
      "▁chăm": 3562,
      "▁ដើរ": 3563,
      "▁កុម្មុយន": 3564,
      "ឹះ": 3565,
      "▁ទៅនឹង": 3566,
      "ស្គាល់": 3567,
      "▁របាយការណ៍": 3568,
      "ាចិត្ត": 3569,
      "▁មើល": 3570,
      "ាគ": 3571,
      "▁គណបក្ស": 3572,
      "▁អាទិភាព": 3573,
      "ិសោធ": 3574,
      "▁Truong": 3575,
      "▁chấm": 3576,
      "ំទ": 3577,
      "▁Sang": 3578,
      "io": 3579,
      "▁27": 3580,
      "òi": 3581,
      "▁អស់": 3582,
      "ថ្ល": 3583,
      "▁nuôi": 3584,
      "▁binh": 3585,
      "▁រឿង": 3586,
      "▁tận": 3587,
      "▁ភ្ញ": 3588,
      "▁28": 3589,
      "គ្រោះ": 3590,
      "▁Tài": 3591,
      "▁ព្រឹត្តិការណ៍": 3592,
      "▁Trương": 3593,
      "▁វិធី": 3594,
      "▁នុយក្លេអ៊": 3595,
      "xit": 3596,
      "អំណាច": 3597,
      "▁liệt": 3598,
      "▁ត្រូវតែ": 3599,
      "▁u": 3600,
      "▁thịnh": 3601,
      "▁sỹ": 3602,
      "▁មជ្ឈម": 3603,
      "▁បរិស្ថាន": 3604,
      "▁សេវាកម្ម": 3605,
      "▁Uk": 3606,
      "អោយ": 3607,
      "ាលី": 3608,
      "orld": 3609,
      "▁មជ្ឈមណ្ឌល": 3610,
      "័ស": 3611,
      "õi": 3612,
      "្តៅ": 3613,
      "▁សំរាប់": 3614,
      "▁viết": 3615,
      "▁Hồi": 3616,
      "▁កុមារ": 3617,
      "▁ណែនាំ": 3618,
      "▁TPP": 3619,
      "ហោះ": 3620,
      "▁អ្នកជំនាញ": 3621,
      "▁Ukrai": 3622,
      "▁Hùng": 3623,
      "▁Quân": 3624,
      "▁ក្របខ័ណ្ឌ": 3625,
      "▁មាតុ": 3626,
      "▁Huy": 3627,
      "▁dạng": 3628,
      "▁មែន": 3629,
      "▁kích": 3630,
      "▁រៀន": 3631,
      "uyết": 3632,
      "▁តិច": 3633,
      "▁វិសោធ": 3634,
      "▁ត្រី": 3635,
      "▁ធ្វើឲ្យ": 3636,
      "ំឡ": 3637,
      "▁ទាប": 3638,
      "▁គ្រោះ": 3639,
      "▁22": 3640,
      "▁នាយកដ្ឋាន": 3641,
      "▁thất": 3642,
      "▁ប្រហែល": 3643,
      "▁ប្រមាណ": 3644,
      "▁WEF": 3645,
      "▁cân": 3646,
      "▁vượng": 3647,
      "▁thác": 3648,
      "▁Bre": 3649,
      "▁lửa": 3650,
      "▁Ukraine": 3651,
      "▁ទស្សនកិច្ច": 3652,
      "▁ឈប់": 3653,
      "▁វិនិយោគិន": 3654,
      "▁Mặc": 3655,
      "▁ប្រព្រឹត្តទៅ": 3656,
      "▁nằm": 3657,
      "▁ជំនាញ": 3658,
      "ត្តម": 3659,
      "▁ធ្ងន់": 3660,
      "▁អ្នកប": 3661,
      "▁ចំណាយ": 3662,
      "▁Brexit": 3663,
      "▁trào": 3664,
      "ោន": 3665,
      "យន្ត": 3666,
      "▁Hung": 3667,
      "▁Par": 3668,
      "▁ជីវភាព": 3669,
      "▁Cục": 3670,
      "▁Chấp": 3671,
      "▁in": 3672,
      "▁hồ": 3673,
      "▁អនុវត្តន៍": 3674,
      "ដំណ": 3675,
      "ាក្យ": 3676,
      "▁Phong": 3677,
      "▁វិសោធនកម្ម": 3678,
      "▁đích": 3679,
      "▁គោលប": 3680,
      "ib": 3681,
      "សម្គាល់": 3682,
      "▁nhớ": 3683,
      "▁Putin": 3684,
      "▁គោលបំណង": 3685,
      "ប្រឹងប្រែង": 3686,
      "▁នុយក្លេអ៊ែរ": 3687,
      "▁ngưỡng": 3688,
      "▁ជាដើម": 3689,
      "▁EVFTA": 3690,
      "▁តូច": 3691,
      "▁វ៉": 3692,
      "▁Pham": 3693,
      "ុធ": 3694,
      "▁ដោយសារតែ": 3695,
      "▁ពិនិត្យ": 3696,
      "▁ណាម": 3697,
      "eu": 3698,
      "▁tải": 3699,
      "▁អចិន": 3700,
      "ខ្ញុំ": 3701,
      "▁cục": 3702,
      "▁hã": 3703,
      "ោភ": 3704,
      "▁Đà": 3705,
      "▁បរិប": 3706,
      "▁khoá": 3707,
      "▁tuân": 3708,
      "▁thật": 3709,
      "kong": 3710,
      "បល់": 3711,
      "▁Cuộc": 3712,
      "▁cậy": 3713,
      "▁ជឿ": 3714,
      "ãnh": 3715,
      "▁Vương": 3716,
      "▁ស្វែងរក": 3717,
      "រលួយ": 3718,
      "▁បរិបទ": 3719,
      "▁thẩm": 3720,
      "▁ទំនើប": 3721,
      "▁UB": 3722,
      "▁Mal": 3723,
      "▁ប្រេង": 3724,
      "▁thiệt": 3725,
      "▁ត្រឹមត្រូវ": 3726,
      "▁ប្រតិបត្តិការ": 3727,
      "នី": 3728,
      "▁Mekong": 3729,
      "30": 3730,
      "ហើយ": 3731,
      "▁ប្រើ": 3732,
      "▁ô": 3733,
      "▁គោលការណ៍": 3734,
      "▁០": 3735,
      "▁70": 3736,
      "តាំងពី": 3737,
      "▁១៤": 3738,
      "▁ជំនឿ": 3739,
      "▁Te": 3740,
      "▁ស្រាវជ្រាវ": 3741,
      "ង្ឃ": 3742,
      "▁ម៉ោង": 3743,
      "▁វិបត្តិ": 3744,
      "ៃយ៍": 3745,
      "▁sắp": 3746,
      "ករាលដាល": 3747,
      "▁chốt": 3748,
      "▁CPT": 3749,
      "▁Lao": 3750,
      "istan": 3751,
      "▁tội": 3752,
      "▁đức": 3753,
      "▁500": 3754,
      "ប្ដ": 3755,
      "▁គ្រឿង": 3756,
      "ករាជ": 3757,
      "ំឡុង": 3758,
      "▁lục": 3759,
      "▁Can": 3760,
      "▁ទាំងនេះ": 3761,
      "▁ចាប់តាំងពី": 3762,
      "CL": 3763,
      "▁Hoang": 3764,
      "▁suốt": 3765,
      "▁រដ្ឋទូត": 3766,
      "▁Đến": 3767,
      "▁កត់សម្គាល់": 3768,
      "▁tức": 3769,
      "▁ទៅក្នុង": 3770,
      "ិសោធន៍": 3771,
      "៌ា": 3772,
      "▁គុយ": 3773,
      "le": 3774,
      "▁ណា": 3775,
      "▁អាហារ": 3776,
      "ាហ៍": 3777,
      "ọt": 3778,
      "▁mời": 3779,
      "▁ngũ": 3780,
      "្នះ": 3781,
      "▁ក្តី": 3782,
      "▁ngữ": 3783,
      "▁សមិទ្ធិ": 3784,
      "▁ទុកចិត្ត": 3785,
      "▁ទ្វីប": 3786,
      "ទឹក": 3787,
      "▁ឧត្តម": 3788,
      "▁Myan": 3789,
      "▁យើងខ្ញុំ": 3790,
      "▁Myanmar": 3791,
      "▁trụ": 3792,
      "▁២០១៣": 3793,
      "ok": 3794,
      "▁Vu": 3795,
      "▁វិជ្ជមាន": 3796,
      "ឌី": 3797,
      "ហ្ស": 3798,
      "ẫu": 3799,
      "និ": 3800,
      "▁ឆ្លើយតប": 3801,
      "▁Đài": 3802,
      "ãn": 3803,
      "▁NA": 3804,
      "▁Lãnh": 3805,
      "▁បំណង": 3806,
      "eb": 3807,
      "▁ai": 3808,
      "▁kiên": 3809,
      "▁CPTPP": 3810,
      "សម្ប": 3811,
      "▁នាង": 3812,
      "ករណ៍": 3813,
      "▁197": 3814,
      "▁Hy": 3815,
      "ប្បញ្ញត្តិ": 3816,
      "មើល": 3817,
      "▁giảng": 3818,
      "▁រដ្ឋបាល": 3819,
      "▁ទំនុក": 3820,
      "▁ទទួលស្គាល់": 3821,
      "នីយកម្ម": 3822,
      "▁Nai": 3823,
      "▁រចនាសម្ព័ន្ធ": 3824,
      "▁Ha": 3825,
      "លាស់": 3826,
      "▁Z": 3827,
      "▁ទិ": 3828,
      "▁ការនាំ": 3829,
      "▁ភាសា": 3830,
      "▁បទព": 3831,
      "▁ទស្សនៈ": 3832,
      "▁វិភាគ": 3833,
      "▁ចុងក្រោយ": 3834,
      "▁ពលករ": 3835,
      "▁cấm": 3836,
      "▁Học": 3837,
      "▁ចិត្ត": 3838,
      "ប្រហារ": 3839,
      "▁cắt": 3840,
      "▁ការយក": 3841,
      "ត្តា": 3842,
      "▁huynh": 3843,
      "ពុករលួយ": 3844,
      "▁កែ": 3845,
      "▁ឯករាជ": 3846,
      "▁ឥទ្ធិពល": 3847,
      "ង្ឃឹម": 3848,
      "▁60": 3849,
      "ត្ស": 3850,
      "ựu": 3851,
      "▁រដ": 3852,
      "▁អាកាសធាតុ": 3853,
      "ធ្ង": 3854,
      "▁Af": 3855,
      "▁បូ": 3856,
      "▁Mai": 3857,
      "▁បុព្វ": 3858,
      "▁thiên": 3859,
      "▁Su": 3860,
      "ច្ឆិកា": 3861,
      "▁ជ្រុង": 3862,
      "▁lộ": 3863,
      "▁nặng": 3864,
      "▁thập": 3865,
      "▁tránh": 3866,
      "▁tiện": 3867,
      "▁តុល": 3868,
      "▁gói": 3869,
      "▁xin": 3870,
      "▁សាលារ": 3871,
      "▁1982": 3872,
      "ធ្ងរ": 3873,
      "▁hương": 3874,
      "ធ្ន": 3875,
      "េដ្ឋ": 3876,
      "▁Nông": 3877,
      "▁ទូរ": 3878,
      "ce": 3879,
      "world": 3880,
      "ញ្ចប់": 3881,
      "្តេជ្ញាចិត្ត": 3882,
      "▁giàu": 3883,
      "▁ជំហាន": 3884,
      "ផ្តុំ": 3885,
      "▁អ្នកបោះឆ្នោត": 3886,
      "▁២០២១": 3887,
      "▁ឯករាជ្យ": 3888,
      "iếc": 3889,
      "▁phúc": 3890,
      "▁La": 3891,
      "▁សាលារៀន": 3892,
      "▁phấn": 3893,
      "▁Hòa": 3894,
      "▁As": 3895,
      "▁“Ch": 3896,
      "▁thừa": 3897,
      "▁gạo": 3898,
      "▁23": 3899,
      "▁Mi": 3900,
      "▁ប្រភេទ": 3901,
      "▁ធ្ងន់ធ្ងរ": 3902,
      "▁អាណត្តិ": 3903,
      "▁បទប្បញ្ញត្តិ": 3904,
      "តិកាល": 3905,
      "▁សម្លេង": 3906,
      "▁vài": 3907,
      "▁ទប់": 3908,
      "don": 3909,
      "▁រួមទាំង": 3910,
      "▁ភ្ញៀវ": 3911,
      "សាស្រ្ត": 3912,
      "▁ជំនួប": 3913,
      "▁ថវិកា": 3914,
      "▁UBND": 3915,
      "up": 3916,
      "ón": 3917,
      "▁đòi": 3918,
      "នាវ": 3919,
      "▁ធ្លាក់ចុះ": 3920,
      "ចម្រ": 3921,
      "▁hầu": 3922,
      "▁Mục": 3923,
      "▁nghe": 3924,
      "▁Aus": 3925,
      "▁បដិវត្តន៍": 3926,
      "▁រយ": 3927,
      "រស": 3928,
      "▁ក្ម": 3929,
      "▁Cao": 3930,
      "▁dứt": 3931,
      "▁អំណាច": 3932,
      "▁UNCL": 3933,
      "▁ខ្សែ": 3934,
      "▁UNCLOS": 3935,
      "▁chơi": 3936,
      "▁dòng": 3937,
      "▁អំពើពុករលួយ": 3938,
      "▁ការគាំទ្រ": 3939,
      "ាស៊ីហ្វ": 3940,
      "▁chân": 3941,
      "▁COV": 3942,
      "ាក្រ": 3943,
      "មកដល់": 3944,
      "ឺម៉": 3945,
      "ez": 3946,
      "▁+": 3947,
      "▁បំណ": 3948,
      "▁chuyện": 3949,
      "▁COVID": 3950,
      "▁nam": 3951,
      "ជ្រោយ": 3952,
      "▁នីតិកាល": 3953,
      "▁ជ្រុងជ្រោយ": 3954,
      "hn": 3955,
      "▁nóng": 3956,
      "▁Austr": 3957,
      "▁ត្រូវការ": 3958,
      "▁ទ្រព្យ": 3959,
      "▁ទូលាយ": 3960,
      "ẵng": 3961,
      "្រ័យ": 3962,
      "ានត": 3963,
      "▁COC": 3964,
      "ela": 3965,
      "ព្រាង": 3966,
      "IP": 3967,
      "▁ការសម្រ": 3968,
      "ាស៊ីហ្វិក": 3969,
      "▁Australia": 3970,
      "▁ខាងលើ": 3971,
      "▁hu": 3972,
      "▁trưng": 3973,
      "▁mốc": 3974,
      "រចារ": 3975,
      "ានតឹង": 3976,
      "ធៀប": 3977,
      "ាគមន៍": 3978,
      "▁ឪ": 3979,
      "▁រហូតមកដល់": 3980,
      "▁សាធារណរដ្ឋ": 3981,
      "▁ផ្ក": 3982,
      "▁Lễ": 3983,
      "▁Son": 3984,
      "ិស្ត": 3985,
      "▁បណ្ឌិត": 3986,
      "▁mùa": 3987,
      "▁អញ្ជើញ": 3988,
      "▁លេច": 3989,
      "▁Nẵng": 3990,
      "▁ប្រៀបធៀប": 3991,
      "▁trải": 3992,
      "▁ថាម": 3993,
      "▁Pal": 3994,
      "▁ផ្ទៃ": 3995,
      "CS": 3996,
      "▁២៥": 3997,
      "▁ធំធ": 3998,
      "គល់": 3999,
      "▁đổ": 4000,
      "▁ភាគហ៊ុន": 4001,
      "ក្ក": 4002,
      "ំលៃ": 4003,
      "▁បទពិសោធន៍": 4004,
      "▁ថាមពល": 4005,
      "▁lạc": 4006,
      "▁nhi": 4007,
      "▁Tất": 4008,
      "▁rồi": 4009,
      "▁chiếc": 4010,
      "ាកល្បង": 4011,
      "te": 4012,
      "▁29": 4013,
      "ជម្រ": 4014,
      "▁điệp": 4015,
      "▁សាង": 4016,
      "▁ពោល": 4017,
      "ាត្រ": 4018,
      "▁ក្មេង": 4019,
      "ềm": 4020,
      "▁đương": 4021,
      "បសម្រួល": 4022,
      "សំ": 4023,
      "ីនា": 4024,
      "▁sai": 4025,
      "▁Tiếng": 4026,
      "▁ជានិច្ចកាល": 4027,
      "▁Chu": 4028,
      "▁Barack": 4029,
      "វត្ស": 4030,
      "▁មណ្ឌល": 4031,
      "▁Vụ": 4032,
      "ំពឹង": 4033,
      "▁mạc": 4034,
      "▁ការសាកល្បង": 4035,
      "▁បុគ្គលិក": 4036,
      "od": 4037,
      "▁quê": 4038,
      "▁ផ្លែ": 4039,
      "▁ពាក់ព័ន្ធ": 4040,
      "▁o": 4041,
      "▁hấp": 4042,
      "ូបនីយកម្ម": 4043,
      "សម": 4044,
      "▁សមិទ្ធិផល": 4045,
      "▁សម្ប": 4046,
      "▁ដង": 4047,
      "▁uy": 4048,
      "▁thụ": 4049,
      "▁khảo": 4050,
      "▁rà": 4051,
      "ង្ហ": 4052,
      "▁ស្នូល": 4053,
      "ធឺ": 4054,
      "ួយប": 4055,
      "▁មកពី": 4056,
      "ថ្លែង": 4057,
      "▁ការដោះស្រាយ": 4058,
      "▁Tiếp": 4059,
      "▁សិ": 4060,
      "▁អាយ": 4061,
      "th": 4062,
      "▁lạm": 4063,
      "ម្អ": 4064,
      "▁trăm": 4065,
      "▁CH": 4066,
      "▁វិជ្ជា": 4067,
      "▁បរិមាណ": 4068,
      "▁Ai": 4069,
      "▁thịt": 4070,
      "▁chúc": 4071,
      "▁១៩៩": 4072,
      "▁ត្រួតពិនិត្យ": 4073,
      "▁dưỡng": 4074,
      "▁ច្បាស់លាស់": 4075,
      "▁chuỗi": 4076,
      "▁sạch": 4077,
      "ារម្ភ": 4078,
      "▁dàng": 4079,
      "▁bạo": 4080,
      "▁ច្រ": 4081,
      "DC": 4082,
      "▁ការត្រ": 4083,
      "ផ្គ": 4084,
      "▁gấp": 4085,
      "▁អនុសញ្ញា": 4086,
      "▁45": 4087,
      "▁ដាក់ចេញ": 4088,
      "▁ទស្ស": 4089,
      "▁សហការ": 4090,
      "▁លើកឡើង": 4091,
      "▁tiểu": 4092,
      "▁ធ្វើជា": 4093,
      "ួញ": 4094,
      "▁២០១៤": 4095,
      "tine": 4096,
      "ក្កដា": 4097,
      "▁បា": 4098,
      "▁kg": 4099,
      "▁ផ្អែក": 4100,
      "▁Ar": 4101,
      "▁Phan": 4102,
      "úi": 4103,
      "▁កែល": 4104,
      "▁mặc": 4105,
      "▁រថ": 4106,
      "▁ការប្រឡង": 4107,
      "ោទ": 4108,
      "▁bức": 4109,
      "▁Tư": 4110,
      "▁đua": 4111,
      "ន្ស": 4112,
      "ỏe": 4113,
      "▁&": 4114,
      "▁ánh": 4115,
      "▁nhắc": 4116,
      "▁Thư": 4117,
      "▁ឯង": 4118,
      "▁tạm": 4119,
      "▁khỏe": 4120,
      "ាឡ": 4121,
      "▁ជិតស្ន": 4122,
      "▁ធំធេង": 4123,
      "ីហា": 4124,
      "▁túc": 4125,
      "ខាត": 4126,
      "ីល": 4127,
      "▁កត្តា": 4128,
      "▁Đình": 4129,
      "លើក": 4130,
      "▁រណ": 4131,
      "ាចារ្យ": 4132,
      "▁bắn": 4133,
      "▁២០១២": 4134,
      "▁Afg": 4135,
      "▁ព្រះ": 4136,
      "ពរ": 4137,
      "▁sóng": 4138,
      "វិច្ឆិកា": 4139,
      "▁ព្រោះ": 4140,
      "ឡប់": 4141,
      "▁សាច់": 4142,
      "20": 4143,
      "▁អត្ថន័យ": 4144,
      "▁រដូវ": 4145,
      "▁១៨": 4146,
      "▁ដូចគ្នា": 4147,
      "▁ប្រមូលផ្តុំ": 4148,
      "▁rời": 4149,
      "▁ការសិក្សា": 4150,
      "▁Như": 4151,
      "▁giống": 4152,
      "▁35": 4153,
      "▁សក្ត": 4154,
      "aw": 4155,
      "▁គ្រូ": 4156,
      "ស្មាញ": 4157,
      "▁ការយកចិត្តទុកដាក់": 4158,
      "▁nhiễ": 4159,
      "ậc": 4160,
      "ណ្ឌកម្ម": 4161,
      "▁khắp": 4162,
      "▁អាវ": 4163,
      "▁កុម្មុយនិស្ត": 4164,
      "ណ្ឋ": 4165,
      "▁quảng": 4166,
      "▁អចិន្ត្រ": 4167,
      "▁ស្ល": 4168,
      "▁“Đ": 4169,
      "ាវនាវ": 4170,
      "▁បោះ": 4171,
      "▁IP": 4172,
      "▁អេឡ": 4173,
      "▁bạch": 4174,
      "ស៊ូ": 4175,
      "▁បី": 4176,
      "iv": 4177,
      "▁ចូលក្នុង": 4178,
      "▁វិទ្យាល័យ": 4179,
      "▁Quyết": 4180,
      "▁ការរីករាលដាល": 4181,
      "▁បំណុល": 4182,
      "▁Pales": 4183,
      "ថា": 4184,
      "ិថ": 4185,
      "ọa": 4186,
      "▁bậc": 4187,
      "▁ឃុំ": 4188,
      "▁ម្តាយ": 4189,
      "▁thầy": 4190,
      "ុនា": 4191,
      "៉ាន់": 4192,
      "▁Tăng": 4193,
      "▁Tháng": 4194,
      "▁Jong": 4195,
      "ិថុនា": 4196,
      "▁sân": 4197,
      "▁ណាមួយ": 4198,
      "▁នៅឯ": 4199,
      "▁ការពិត": 4200,
      "ានុភាព": 4201,
      "ជម្រៅ": 4202,
      "▁tiễn": 4203,
      "▁អំឡុង": 4204,
      "▁ជនបទ": 4205,
      "▁គីម": 4206,
      "▁thiệu": 4207,
      "ុម្ភ": 4208,
      "▁đỡ": 4209,
      "▁គ្រាន់": 4210,
      "▁mắt": 4211,
      "▁ការប្រាក់": 4212,
      "▁thưởng": 4213,
      "▁ភាពជា": 4214,
      "▁hạng": 4215,
      "▁bè": 4216,
      "▁đãi": 4217,
      "▁សុខភាព": 4218,
      "ខណ្ឌ": 4219,
      "ឈ្មោះ": 4220,
      "ẹn": 4221,
      "▁សត": 4222,
      "ាស់ប្ដ": 4223,
      "▁បណ្តាញ": 4224,
      "▁ចលនា": 4225,
      "one": 4226,
      "▁មាតុភូមិ": 4227,
      "▁can": 4228,
      "▁តភ្ជាប់": 4229,
      "▁ធ្លាប់": 4230,
      "▁អចិន្ត្រៃយ៍": 4231,
      "▁“N": 4232,
      "▁Palestine": 4233,
      "ợt": 4234,
      "▁gìn": 4235,
      "▁អាជ្ញ": 4236,
      "▁ម្តង": 4237,
      "ênh": 4238,
      "កាត់": 4239,
      "▁គីឡ": 4240,
      "▁đai": 4241,
      "▁chắn": 4242,
      "▁ស៊ីជម្រៅ": 4243,
      "hanistan": 4244,
      "▁Afghanistan": 4245,
      "រាល់": 4246,
      "▁Doanh": 4247,
      "▁ខែមីនា": 4248,
      "▁cản": 4249,
      "▁ប្រឡង": 4250,
      "សំខាន់": 4251,
      "▁ជឿជាក់": 4252,
      "ាស់ប្ដូរ": 4253,
      "ត្រូន": 4254,
      "▁ប្រគល់": 4255,
      "▁31": 4256,
      "ត់ផ្គ": 4257,
      "▁៥០": 4258,
      "▁John": 4259,
      "ញ្ជា": 4260,
      "▁ប្រយុទ្ធ": 4261,
      "▁ជំនះ": 4262,
      "▁lượt": 4263,
      "▁យុវ": 4264,
      "▁Dong": 4265,
      "▁ទាក់ទិន": 4266,
      "ជូន": 4267,
      "▁“V": 4268,
      "▁tặng": 4269,
      "ិបាក": 4270,
      "▁kiệm": 4271,
      "ប្រាក់": 4272,
      "▁ប្រធានបទ": 4273,
      "▁ខែវិច្ឆិកា": 4274,
      "ដំណើរ": 4275,
      "ụt": 4276,
      "▁ជំនួយ": 4277,
      "ិះ": 4278,
      "▁Toàn": 4279,
      "▁may": 4280,
      "▁DOC": 4281,
      "▁ឥត": 4282,
      "▁Duc": 4283,
      "▁ឪពុក": 4284,
      "ry": 4285,
      "▁«": 4286,
      "្កាត់": 4287,
      "▁Tỉnh": 4288,
      "uyện": 4289,
      "▁ជួរ": 4290,
      "ំហរ": 4291,
      "▁chậm": 4292,
      "▁nhiệt": 4293,
      "▁រស": 4294,
      "▁ឈានដល់": 4295,
      "េស៊ី": 4296,
      "▁Xã": 4297,
      "▁ការប្រក": 4298,
      "▁ភាពជាដ": 4299,
      "▁នាម": 4300,
      "ays": 4301,
      "▁ឈ្មោះ": 4302,
      "▁លក្ខខណ្ឌ": 4303,
      "▁ឋ": 4304,
      "▁Cũng": 4305,
      "▁thủy": 4306,
      "▁VOVworld": 4307,
      "▁ngược": 4308,
      "▁បូព": 4309,
      "▁cốt": 4310,
      "▁ទំហ": 4311,
      "▁Cập": 4312,
      "▁ការស្រ": 4313,
      "▁គំរូ": 4314,
      "▁ASEM": 4315,
      "▁ខែកុម្ភ": 4316,
      "▁Dinh": 4317,
      "▁ខាងក្រ": 4318,
      "▁CHDC": 4319,
      "▁nhiễm": 4320,
      "ណ៌": 4321,
      "ឡែក": 4322,
      "▁mẫu": 4323,
      "▁អូស": 4324,
      "▁Cho": 4325,
      "្វែង": 4326,
      "ឺម៉ង់": 4327,
      "▁nửa": 4328,
      "▁Hàng": 4329,
      "▁១០០": 4330,
      "▁ផ្សារ": 4331,
      "▁រូបថ": 4332,
      "▁អាយុ": 4333,
      "បរ": 4334,
      "ỏng": 4335,
      "▁អាល": 4336,
      "▁ប៉ាស៊ីហ្វិក": 4337,
      "ួយបារម្ភ": 4338,
      "úa": 4339,
      "▁quận": 4340,
      "▁Còn": 4341,
      "▁ការផ្ត": 4342,
      "▁TS": 4343,
      "▁ចរ": 4344,
      "▁ប្ល": 4345,
      "▁បោះឆ្នោត": 4346,
      "▁ដៃ": 4347,
      "▁គ្រាន់តែ": 4348,
      "ភៅ": 4349,
      "▁វិភាគទាន": 4350,
      "▁cựu": 4351,
      "▁សប្ត": 4352,
      "ែបម្រ": 4353,
      "សិក្សា": 4354,
      "វិភាគ": 4355,
      "▁អេឡិច": 4356,
      "▁siêu": 4357,
      "▁Nhưỡng": 4358,
      "▁រំលឹក": 4359,
      "ard": 4360,
      "រៀន": 4361,
      "▁CHDCND": 4362,
      "អរ": 4363,
      "▁ơn": 4364,
      "▁dần": 4365,
      "▁ដក": 4366,
      "▁ភាពជាដៃគូ": 4367,
      "▁cầm": 4368,
      "ខែ": 4369,
      "ទៃ": 4370,
      "▁ឌី": 4371,
      "▁thù": 4372,
      "▁Cử": 4373,
      "ប្រកាស": 4374,
      "▁Giá": 4375,
      "▁អស": 4376,
      "▁xanh": 4377,
      "▁អំពាវនាវ": 4378,
      "▁NATO": 4379,
      "▁ro": 4380,
      "▁រដ្ឋអំណាច": 4381,
      "▁នាំចូល": 4382,
      "▁ការលើក": 4383,
      "▁Yên": 4384,
      "▁Hồng": 4385,
      "▁ខួប": 4386,
      "▁XI": 4387,
      "តានតឹង": 4388,
      "កចម្រ": 4389,
      "ីន": 4390,
      "▁ពិបាក": 4391,
      "▁មជ្ឈដ្ឋាន": 4392,
      "▁ឋាន": 4393,
      "ផ្ដ": 4394,
      "▁kênh": 4395,
      "▁tô": 4396,
      "▁nhờ": 4397,
      "▁គ្រប់គ្រ": 4398,
      "ត់ផ្គង់": 4399,
      "▁cương": 4400,
      "▁រូបភាព": 4401,
      "ag": 4402,
      "▁thậm": 4403,
      "▁Tuấn": 4404,
      "▁ការនាំចេញ": 4405,
      "▁បុព្វហេតុ": 4406,
      "▁សប្តាហ៍": 4407,
      "ែបម្រួល": 4408,
      "▁អេឡិចត្រូន": 4409,
      "▁តើ": 4410,
      "ៀវភៅ": 4411,
      "មតិ": 4412,
      "▁ស្ទ": 4413,
      "ណ្ដាល": 4414,
      "▁សេចក្តីព្រាង": 4415,
      "▁ការប្តេជ្ញាចិត្ត": 4416,
      "▁មេដឹកនាំ": 4417,
      "▁ទិន": 4418,
      "▁xâm": 4419,
      "ធឺណ": 4420,
      "កចម្រើន": 4421,
      "▁Ở": 4422,
      "▁gốc": 4423,
      "▁រំលោភ": 4424,
      "ីដ": 4425,
      "▁បង់": 4426,
      "▁giấy": 4427,
      "ុគ": 4428,
      "▁tháo": 4429,
      "▁Mos": 4430,
      "▁ngắn": 4431,
      "តិយ": 4432,
      "លាន": 4433,
      "ថ្លែងការណ៍": 4434,
      "▁សៀវភៅ": 4435,
      "▁đợt": 4436,
      "▁កាត": 4437,
      "▁nghi": 4438,
      "▁Di": 4439,
      "ưới": 4440,
      "▁chợ": 4441,
      "▁mắc": 4442,
      "▁អាគ": 4443,
      "ill": 4444,
      "▁lắng": 4445,
      "▁ជើង": 4446,
      "▁ផ្កា": 4447,
      "▁IPU": 4448,
      "▁នីតិ": 4449,
      "CO": 4450,
      "ាអ": 4451,
      "▁សណ្ឋ": 4452,
      "ន្លេ": 4453,
      "ber": 4454,
      "▁ការធាន": 4455,
      "▁ជ័យ": 4456,
      "▁១៦": 4457,
      "▁300": 4458,
      "ញ្ញាត": 4459,
      "▁គ្រប់គ្រាន់": 4460,
      "ុគស្មាញ": 4461,
      "▁Linh": 4462,
      "roup": 4463,
      "▁món": 4464,
      "▁xo": 4465,
      "ហ័ស": 4466,
      "▁thuê": 4467,
      "▁ភាពតានតឹង": 4468,
      "▁ប្រតិបត្តិ": 4469,
      "lad": 4470,
      "▁tù": 4471,
      "▁Lý": 4472,
      "▁មូលហេតុ": 4473,
      "▁ឆ្ពោះទៅ": 4474,
      "▁Vin": 4475,
      "▁nộ": 4476,
      "▁អាវុធ": 4477,
      "ជីវៈ": 4478,
      "▁VN": 4479,
      "▁bí": 4480,
      "▁Bởi": 4481,
      "ាក់ទណ្ឌកម្ម": 4482,
      "សម្បត្តិ": 4483,
      "▁ជិតស្និទ្ធ": 4484,
      "▁ដឹក": 4485,
      "ញ្ជូន": 4486,
      "▁បម្រែបម្រួល": 4487,
      "▁đà": 4488,
      "▁Thống": 4489,
      "▁hiến": 4490,
      "្វះ": 4491,
      "▁ទំហំ": 4492,
      "▁Br": 4493,
      "▁ថៃ": 4494,
      "▁Kiểm": 4495,
      "▁ខ្លះ": 4496,
      "▁ការប្រើប្រាស់": 4497,
      "▁យុវជន": 4498,
      "▁ក្ប": 4499,
      "▁ឆាប់រ": 4500,
      "▁អាហ្វ": 4501,
      "▁ម៉ាស៊ីន": 4502,
      "▁ទិន្ន": 4503,
      "សិរ": 4504,
      "▁Tiểu": 4505,
      "▁phú": 4506,
      "▁ប្រឈមមុខ": 4507,
      "▁៕": 4508,
      "▁đôi": 4509,
      "▁trật": 4510,
      "▁sóc": 4511,
      "▁Gia": 4512,
      "ath": 4513,
      "▁ប្រកួតប្រជែង": 4514,
      "▁ឃ្ល": 4515,
      "▁ចលករ": 4516,
      "▁រថយន្ត": 4517,
      "▁ឆាប់រហ័ស": 4518,
      "សីហា": 4519,
      "ទឹកចិត្ត": 4520,
      "លេញ": 4521,
      "្តិ": 4522,
      "▁Nha": 4523,
      "▁hãng": 4524,
      "▁វិជ្ជាជីវៈ": 4525,
      "▁អ៊ីស្រ": 4526,
      "▁រណសិរ": 4527,
      "▁អាល្ល": 4528,
      "▁đem": 4529,
      "▁đói": 4530,
      "▁2025": 4531,
      "ទុន": 4532,
      "▁luyện": 4533,
      "ញ្ចូល": 4534,
      "▁ជីវិត": 4535,
      "▁ពេញលេញ": 4536,
      "▁មន្ត្រី": 4537,
      "ារី": 4538,
      "▁ទន្លេ": 4539,
      "▁យោ": 4540,
      "ềng": 4541,
      "▁giềng": 4542,
      "▁សន្ទ": 4543,
      "▁bom": 4544,
      "▁ជះ": 4545,
      "▁dậy": 4546,
      "ilip": 4547,
      "▁Thời": 4548,
      "ឆ្នាំ": 4549,
      "▁ធម្មជាតិ": 4550,
      "▁trúc": 4551,
      "▁រួមគ្នា": 4552,
      "បុ": 4553,
      "▁un": 4554,
      "▁កាស": 4555,
      "▁chào": 4556,
      "▁និន្ន": 4557,
      "▁សម្តែង": 4558,
      "▁miễn": 4559,
      "▁អំណ": 4560,
      "▁ការចាប់": 4561,
      "▁ឌីជី": 4562,
      "ចោល": 4563,
      "▁អ្នកប្រ": 4564,
      "▁គួរឲ្យ": 4565,
      "▁chục": 4566,
      "▁tai": 4567,
      "▁Biên": 4568,
      "▁lẻ": 4569,
      "▁80": 4570,
      "▁ស្តង់": 4571,
      "ូលាយ": 4572,
      "ទាត់": 4573,
      "វិស": 4574,
      "▁thao": 4575,
      "ព្រោះ": 4576,
      "IPA": 4577,
      "ាត្រា": 4578,
      "ិក្ខ": 4579,
      "្គត់ផ្គង់": 4580,
      "de": 4581,
      "▁ការព្រ": 4582,
      "esia": 4583,
      "ភ័យ": 4584,
      "▁ហេដ្ឋ": 4585,
      "▁បញ្ញ": 4586,
      "ដារ": 4587,
      "▁ការរួម": 4588,
      "▁ពីព្រោះ": 4589,
      "▁tuệ": 4590,
      "យចុះ": 4591,
      "ủi": 4592,
      "▁បទប": 4593,
      "▁ទូលំទ": 4594,
      "▁ឆ្លងកាត់": 4595,
      "▁វេ": 4596,
      "▁Ngay": 4597,
      "ine": 4598,
      "▁ឌីជីថ": 4599,
      "▁dừng": 4600,
      "▁រំពឹង": 4601,
      "ាកដ": 4602,
      "▁cột": 4603,
      "▁láng": 4604,
      "▁bác": 4605,
      "▁xấu": 4606,
      "▁90": 4607,
      "▁bùng": 4608,
      "▁Hơn": 4609,
      "▁Sinh": 4610,
      "▁ngoái": 4611,
      "▁trích": 4612,
      "▁ស្អ": 4613,
      "▁ញ": 4614,
      "▁chờ": 4615,
      "▁ឯកជន": 4616,
      "▁សន្និសិទ": 4617,
      "▁ទូលំទូលាយ": 4618,
      "ស្ល": 4619,
      "▁sạn": 4620,
      "▁សមភាព": 4621,
      "▁ca": 4622,
      "▁Bùi": 4623,
      "▁ជារ": 4624,
      "▁khoán": 4625,
      "▁Philip": 4626,
      "itco": 4627,
      "បន្ទាប់": 4628,
      "▁ទីនេះ": 4629,
      "ាអែល": 4630,
      "▁ហេដ្ឋារ": 4631,
      "ៀងរាល់": 4632,
      "▁Indon": 4633,
      "nam": 4634,
      "▁ការអប់រំ": 4635,
      "▁តំណែង": 4636,
      "▁Indonesia": 4637,
      "▁សង្ឃឹម": 4638,
      "▁Tân": 4639,
      "▁liền": 4640,
      "▁LH": 4641,
      "▁ព្រឹក": 4642,
      "▁មុនពេល": 4643,
      "▁អ៊ីស្រាអែល": 4644,
      "▁អ៊ីន": 4645,
      "▁សរស": 4646,
      "ិដ្ឋ": 4647,
      "▁១៩៨": 4648,
      "▁Abe": 4649,
      "▁ឌីជីថល": 4650,
      "ំដាប់": 4651,
      "ិម": 4652,
      "▁gắng": 4653,
      "▁ឋានៈ": 4654,
      "▁សន្ទនា": 4655,
      "▁dọa": 4656,
      "▁គំរោង": 4657,
      "▁ទិវា": 4658,
      "ប័": 4659,
      "▁rừng": 4660,
      "▁Lạp": 4661,
      "▁ភេរ": 4662,
      "▁ខែកក្កដា": 4663,
      "ារណា": 4664,
      "▁đoán": 4665,
      "▁រួច": 4666,
      "▁និរ": 4667,
      "ឡា": 4668,
      "▁ấy": 4669,
      "▁Ki": 4670,
      "▁១៧": 4671,
      "ឹត": 4672,
      "▁ស្ប": 4673,
      "▁សព្វ": 4674,
      "ាករណ៍": 4675,
      "▁លុប": 4676,
      "▁Trang": 4677,
      "▁ខែកុម្ភៈ": 4678,
      "តុល": 4679,
      "▁ដទៃ": 4680,
      "▁ទី២": 4681,
      "▁ខែសីហា": 4682,
      "▁គួរឱ្យ": 4683,
      "ានុពល": 4684,
      "Bank": 4685,
      "▁LHQ": 4686,
      "▁phái": 4687,
      "▁ភ្លាម": 4688,
      "▁អាគ្ន": 4689,
      "▁តម្ល": 4690,
      "raq": 4691,
      "សង់": 4692,
      "ាថ": 4693,
      "▁thang": 4694,
      "មិត្ត": 4695,
      "ករាយ": 4696,
      "▁រណសិរ្ស": 4697,
      "មាស": 4698,
      "ịa": 4699,
      "▁bó": 4700,
      "▁ទូទៅ": 4701,
      "▁da": 4702,
      "▁Cụ": 4703,
      "▁បន្តបន្ទាប់": 4704,
      "េយ៍": 4705,
      "▁ភេរវ": 4706,
      "bank": 4707,
      "ពិ": 4708,
      "▁ស្ដ": 4709,
      "▁វត្ថ": 4710,
      "▁đá": 4711,
      "ស្សន៍": 4712,
      "ឡូវ": 4713,
      "▁ដែនដី": 4714,
      "▁និន្នាការ": 4715,
      "▁យោបល់": 4716,
      "▁ngờ": 4717,
      "▁ជុំ": 4718,
      "▁Là": 4719,
      "តិ្ត": 4720,
      "ញ្ញាប": 4721,
      "▁ឥឡូវ": 4722,
      "ង្វែង": 4723,
      "▁អាល្លឺម៉ង់": 4724,
      "ៀស": 4725,
      "▁ពាក្យ": 4726,
      "▁Bằng": 4727,
      "▁Philipp": 4728,
      "▁linh": 4729,
      "ឧសភា": 4730,
      "▁២៦": 4731,
      "▁មកដល់": 4732,
      "▁ពិតជា": 4733,
      "វិស័យ": 4734,
      "▁trú": 4735,
      "▁បញ្ជូន": 4736,
      "▁កាសែត": 4737,
      "តុលា": 4738,
      "▁rủi": 4739,
      "ada": 4740,
      "DA": 4741,
      "ទល់": 4742,
      "▁កាត់": 4743,
      "▁ដើមទុន": 4744,
      "▁ខែមេសា": 4745,
      "▁សេចក្តីសម្រេចចិត្ត": 4746,
      "▁vn": 4747,
      "▁Tho": 4748,
      "▁អនុញ្ញាត": 4749,
      "▁Iraq": 4750,
      "▁កំពស់": 4751,
      "▁khẩn": 4752,
      "▁អំណោយ": 4753,
      "▁ly": 4754,
      "▁Kể": 4755,
      "▁ការបណ្ត": 4756,
      "▁ទើបតែ": 4757,
      "▁Điện": 4758,
      "ូត្រ": 4759,
      "▁đợi": 4760,
      "▁មេរ": 4761,
      "▁Co": 4762,
      "▁ភូមិ": 4763,
      "ធ្លោ": 4764,
      "កំហ": 4765,
      "▁ទី១": 4766,
      "▁phận": 4767,
      "▁ការយល់": 4768,
      "xin": 4769,
      "▁២១": 4770,
      "▁អាគ្នេយ៍": 4771,
      "ươi": 4772,
      "▁ហេដ្ឋារចនាសម្ព័ន្ធ": 4773,
      "▁tờ": 4774,
      "ានិ": 4775,
      "▁Quỹ": 4776,
      "▁nộp": 4777,
      "▁សេចក្ដីសម្រេច": 4778,
      "CA": 4779,
      "វូបនីយកម្ម": 4780,
      "▁mật": 4781,
      "ាធរ": 4782,
      "អង្វែង": 4783,
      "▁ជា៖": 4784,
      "▁Fran": 4785,
      "▁Hữu": 4786,
      "ជីព": 4787,
      "▁ឧបករណ៍": 4788,
      "ារ៉ាប់រ": 4789,
      "▁khuyết": 4790,
      "▁ទៅជា": 4791,
      "▁âm": 4792,
      "▁កាយ": 4793,
      "ធ្នូ": 4794,
      "ដូច": 4795,
      "▁គ្រាប់": 4796,
      "ំណត់": 4797,
      "▁duyệt": 4798,
      "▁ឧទ": 4799,
      "ង្ហបុ": 4800,
      "ង្ហបុរី": 4801,
      "បង់": 4802,
      "លិច": 4803,
      "▁អធ": 4804,
      "▁G20": 4805,
      "ớt": 4806,
      "▁hào": 4807,
      "▁Qua": 4808,
      "▁អាជ្ញាធរ": 4809,
      "▁ច្នៃប្រឌិត": 4810,
      "▁ខាងលិច": 4811,
      "ាស្រ្ត": 4812,
      "▁លេចធ្លោ": 4813,
      "▁គីមី": 4814,
      "ឺន": 4815,
      "▁Sáng": 4816,
      "▁បញ្ជា": 4817,
      "▁hài": 4818,
      "▁សូម": 4819,
      "▁gh": 4820,
      "▁kém": 4821,
      "▁សម្ព": 4822,
      "itcoin": 4823,
      "▁Đề": 4824,
      "▁Tham": 4825,
      "▁Lai": 4826,
      "▁កម្មករ": 4827,
      "▁ép": 4828,
      "EP": 4829,
      "▁ទីតាំង": 4830,
      "ines": 4831,
      "▁៤០": 4832,
      "▁“Chúng": 4833,
      "▁cánh": 4834,
      "▁rơi": 4835,
      "▁សុខាភិបាល": 4836,
      "▁បូព៌ា": 4837,
      "▁វត្ថុ": 4838,
      "ham": 4839,
      "▁សួរ": 4840,
      "▁Cần": 4841,
      "▁St": 4842,
      "▁លំដាប់": 4843,
      "▁កើតឡើង": 4844,
      "▁កំណែទម្រង់": 4845,
      "បំព": 4846,
      "▁បាញ់": 4847,
      "ាមទ": 4848,
      "េរភាព": 4849,
      "▁quanh": 4850,
      "▁ក្រោយពី": 4851,
      "ារៈ": 4852,
      "ការពារ": 4853,
      "▁ពិច": 4854,
      "▁hứa": 4855,
      "▁ខែតុលា": 4856,
      "▁សារៈ": 4857,
      "di": 4858,
      "▁Chi": 4859,
      "▁២៤": 4860,
      "aysia": 4861,
      "▁thiệp": 4862,
      "▁Vào": 4863,
      "▁នាវា": 4864,
      "▁Malaysia": 4865,
      "រណា": 4866,
      "▁bá": 4867,
      "ែប្រ": 4868,
      "▁đắn": 4869,
      "▁ឆាប់": 4870,
      "ស្រុង": 4871,
      "▁គ្រឹះ": 4872,
      "ាថ្នា": 4873,
      "▁ពិចារណា": 4874,
      "ភ្ល": 4875,
      "▁vinh": 4876,
      "ប្រតិប": 4877,
      "▁ខែឧសភា": 4878,
      "▁nhuận": 4879,
      "▁ពលកម្ម": 4880,
      "ợn": 4881,
      "▁កំរ": 4882,
      "▁ក្រម": 4883,
      "▁យូរអង្វែង": 4884,
      "ារ៉ាប់រង": 4885,
      "▁]": 4886,
      "▁ខំ": 4887,
      "▁ប្រសិទ្ធិ": 4888,
      "▁ការតភ្ជាប់": 4889,
      "ក្រីក្រ": 4890,
      "▁កម្ច": 4891,
      "កម្លាំង": 4892,
      "ជញ្ជូន": 4893,
      "▁ទាំងស្រុង": 4894,
      "▁Tính": 4895,
      "▁ឲ្យបាន": 4896,
      "៉ា": 4897,
      "ik": 4898,
      "នភាព": 4899,
      "▁bại": 4900,
      "▁ស្ថេរភាព": 4901,
      "▁dữ": 4902,
      "▁tật": 4903,
      "▁ខែធ្នូ": 4904,
      "▁ប្រតិភូ": 4905,
      "▁dõi": 4906,
      "ង្វាន់": 4907,
      "▁lợn": 4908,
      "ូមពរ": 4909,
      "បញ្ចូល": 4910,
      "▁គួរតែ": 4911,
      "▁មេគ": 4912,
      "▁Shin": 4913,
      "▁អ៊ីនធឺណ": 4914,
      "៉ែ": 4915,
      "▁កិច្ចសន្យា": 4916,
      "line": 4917,
      "▁màu": 4918,
      "▁ខែមករា": 4919,
      "▁ប្រសិទ្ធិភាព": 4920,
      "រយ": 4921,
      "▁[": 4922,
      "▁quay": 4923,
      "▁Dù": 4924,
      "ធានី": 4925,
      "▁ខាងក្រៅ": 4926,
      "man": 4927,
      "មុន": 4928,
      "ាចរណ៍": 4929,
      "▁អ៊ុយ": 4930,
      "▁Hưng": 4931,
      "▁ខែកញ្ញា": 4932,
      "អាស": 4933,
      "ៀល": 4934,
      "▁tụ": 4935,
      "▁Bitcoin": 4936,
      "▁ជំនាន់": 4937,
      "▁សំណូមពរ": 4938,
      "▁បិទ": 4939,
      "▁ការបោះ": 4940,
      "ាហាន": 4941,
      "▁សភាព": 4942,
      "▁Bo": 4943,
      "ើនឹង": 4944,
      "zo": 4945,
      "ថ្មី": 4946,
      "▁kiều": 4947,
      "▁chết": 4948,
      "▁Air": 4949,
      "▁ស្មើនឹង": 4950,
      "▁សារៈសំខាន់": 4951,
      "ឈើ": 4952,
      "សេ": 4953,
      "ាំមើល": 4954,
      "▁Ngan": 4955,
      "▁ដោយឡែក": 4956,
      "▁ODA": 4957,
      "tina": 4958,
      "▁បម្រើ": 4959,
      "▁lúa": 4960,
      "▁សាស្ត្រ": 4961,
      "▁ស្មុគស្មាញ": 4962,
      "▁Vlad": 4963,
      "▁194": 4964,
      "ES": 4965,
      "គឺ": 4966,
      "▁របប": 4967,
      "▁ការខិតខំ": 4968,
      "▁gương": 4969,
      "▁ពណ៌": 4970,
      "▁ខែមិថុនា": 4971,
      "gen": 4972,
      "▁cà": 4973,
      "▁trữ": 4974,
      "▁leo": 4975,
      "▁AIPA": 4976,
      "▁lãm": 4977,
      "▁nét": 4978,
      "▁Thắng": 4979,
      "▁ការសម្រេច": 4980,
      "▁ខ្វះ": 4981,
      "▁Ro": 4982,
      "▁thoát": 4983,
      "▁កំរិត": 4984,
      "▁មេគង្គ": 4985,
      "land": 4986,
      "▁ដាក់ទណ្ឌកម្ម": 4987,
      "▁ឆ្ង": 4988,
      "▁“Tr": 4989,
      "▁chẳng": 4990,
      "▁ប្រជាពល": 4991,
      "▁បន្ទាប់មក": 4992,
      "តិ្តការ": 4993,
      "lo": 4994,
      "▁bé": 4995,
      "▁2030": 4996,
      "▁Gu": 4997,
      "គ្រូ": 4998,
      "▁២០១១": 4999,
      "ឡង់": 5000,
      "ើក": 5001,
      "▁សែន": 5002,
      "▁phe": 5003,
      "▁2010": 5004,
      "វិជ្ជា": 5005,
      "▁ឈើ": 5006,
      "▁tỉ": 5007,
      "▁trừ": 5008,
      "▁២៧": 5009,
      "▁Ass": 5010,
      "ឈប់": 5011,
      "លោក": 5012,
      "▁Tự": 5013,
      "▁Cửu": 5014,
      "son": 5015,
      "▁តំលៃ": 5016,
      "ិសនី": 5017,
      "ash": 5018,
      "▁chồng": 5019,
      "▁Đào": 5020,
      "ិញ្ច": 5021,
      "▁ការបណ្តុះបណ្តាល": 5022,
      "ឆ្ល": 5023,
      "▁មាត្រា": 5024,
      "▁Sen": 5025,
      "▁មាគ": 5026,
      "▁Lâm": 5027,
      "▁Quản": 5028,
      "▁“H": 5029,
      "ent": 5030,
      "▁សហព័ន្ធ": 5031,
      "▁ភេរវកម្ម": 5032,
      "▁cảng": 5033,
      "▁buôn": 5034,
      "▁ភាវូបនីយកម្ម": 5035,
      "▁ការប្រកួតប្រជែង": 5036,
      "▁Ngô": 5037,
      "▁គ្រូប": 5038,
      "▁ល្បឿន": 5039,
      "លាក់": 5040,
      "▁Phương": 5041,
      "▁hoan": 5042,
      "▁ហាង": 5043,
      "▁បណ្តាល": 5044,
      "▁កម្ចី": 5045,
      "នីយ៍": 5046,
      "▁phút": 5047,
      "▁Cường": 5048,
      "▁ចំណេះ": 5049,
      "▁ស្វាគមន៍": 5050,
      "▁រសៀល": 5051,
      "▁Ang": 5052,
      "ប្រាថ្នា": 5053,
      "▁Toán": 5054,
      "ធិ": 5055,
      "▁XIII": 5056,
      "▁thềm": 5057,
      "▁Xây": 5058,
      "▁ការជួយ": 5059,
      "▁1992": 5060,
      "▁គីឡូ": 5061,
      "ប្រតិបតិ្តការ": 5062,
      "▁thải": 5063,
      "▁ពលរដ្ឋ": 5064,
      "▁និរន្តរ": 5065,
      "អាសន្ន": 5066,
      "▁núi": 5067,
      "▁Mer": 5068,
      "▁ការកំណត់": 5069,
      "រង": 5070,
      "▁ភាពក្រីក្រ": 5071,
      "▁បច្ចេកទេស": 5072,
      "▁lâm": 5073,
      "▁ការដឹកនាំ": 5074,
      "▁Vladim": 5075,
      "▁ម្": 5076,
      "▁rẻ": 5077,
      "▁WTO": 5078,
      "▁ប្ត": 5079,
      "▁កញ្ចប់": 5080,
      "▁nổ": 5081,
      "▁Thiên": 5082,
      "ែប្រួល": 5083,
      "▁និរន្តរភាព": 5084,
      "▁២៨": 5085,
      "▁ក្រីក្រ": 5086,
      "ប្បី": 5087,
      "▁ទួរ": 5088,
      "▁ការថ": 5089,
      "▁Ngoc": 5090,
      "▁So": 5091,
      "▁Canada": 5092,
      "▁ជារៀងរាល់": 5093,
      "ói": 5094,
      "▁hạnh": 5095,
      "▁Sam": 5096,
      "▁ចំណែក": 5097,
      "▁អគ្គិសនី": 5098,
      "▁វិទ្យាស្ថាន": 5099,
      "uro": 5100,
      "▁chạy": 5101,
      "ម្ងឺ": 5102,
      "▁Trắng": 5103,
      "▁សម្របសម្រួល": 5104,
      "▁ការវាយប្រហារ": 5105,
      "តោន": 5106,
      "▁ដាំ": 5107,
      "▁ជម្ងឺ": 5108,
      "េទ្យ": 5109,
      "▁ទោះជា": 5110,
      "▁បំរ": 5111,
      "▁ស៊": 5112,
      "▁quỹ": 5113,
      "▁គប្បី": 5114,
      "▁làng": 5115,
      "ំព័រ": 5116,
      "ក្រាម": 5117,
      "▁សក្តានុពល": 5118,
      "▁ចំណេះដឹង": 5119,
      "▁tán": 5120,
      "▁non": 5121,
      "ធ្លី": 5122,
      "▁ការត្រួតពិនិត្យ": 5123,
      "▁លើកទឹកចិត្ត": 5124,
      "▁ដាច់": 5125,
      "▁ផ្ញ": 5126,
      "▁ដីធ្លី": 5127,
      "ach": 5128,
      "ich": 5129,
      "▁vẹn": 5130,
      "▁hẹp": 5131,
      "▁ដំណើ": 5132,
      "▁លទ្ធភាព": 5133,
      "▁ដុល្លា": 5134,
      "ាមកំហ": 5135,
      "▁ការធានា": 5136,
      "ាមកំហែង": 5137,
      "▁lõi": 5138,
      "ក្រែន": 5139,
      "rab": 5140,
      "▁Paris": 5141,
      "▁រយះ": 5142,
      "ជំហាន": 5143,
      "▁Vietnam": 5144,
      "▁អ៊ុយក្រែន": 5145,
      "សូត្រ": 5146,
      "▁ព្រៃ": 5147,
      "▁tươi": 5148,
      "▁chứ": 5149,
      "▁khôi": 5150,
      "▁រកឃើញ": 5151,
      "ùm": 5152,
      "▁cha": 5153,
      "▁rào": 5154,
      "▁RC": 5155,
      "▁២២": 5156,
      "▁ឆ្លៀត": 5157,
      "▁Philippines": 5158,
      "▁សិក្ខ": 5159,
      "▁Teh": 5160,
      "▁Con": 5161,
      "▁May": 5162,
      "▁ហានិ": 5163,
      "▁Giải": 5164,
      "▁Vladimir": 5165,
      "▁ហានិភ័យ": 5166,
      "ut": 5167,
      "▁កងកម្លាំង": 5168,
      "▁kiềm": 5169,
      "▁ការការពារ": 5170,
      "▁Mỗi": 5171,
      "▁ការវាយតម្លៃ": 5172,
      "▁ដេញ": 5173,
      "▁doạ": 5174,
      "ary": 5175,
      "▁គីឡូក្រាម": 5176,
      "▁បង្ការ": 5177,
      "▁មូលនិ": 5178,
      "▁ប្លុក": 5179,
      "▁ខំប្រឹងប្រែង": 5180,
      "៣០": 5181,
      "▁ឥណ": 5182,
      "▁អ៊ិន": 5183,
      "ly": 5184,
      "▁giản": 5185,
      "▁ជាធ": 5186,
      "▁ធ្វើឡើង": 5187,
      "ខា": 5188,
      "▁dương": 5189,
      "▁Hạ": 5190,
      "▁xóa": 5191,
      "▁កសិករ": 5192,
      "▁មូលនិធិ": 5193,
      "▁chỗ": 5194,
      "▁RCEP": 5195,
      "kel": 5196,
      "op": 5197,
      "សហ": 5198,
      "ខំប្រឹងប្រែង": 5199,
      "ាលា": 5200,
      "ត្រង់": 5201,
      "ស្កាត់": 5202,
      "▁trúng": 5203,
      "▁Điểm": 5204,
      "▁lưới": 5205,
      "▁xứng": 5206,
      "▁ឥណទាន": 5207,
      "▁mưu": 5208,
      "▁យុត្តិ": 5209,
      "▁Assad": 5210,
      "▁ថយចុះ": 5211,
      "▁36": 5212,
      "▁55": 5213,
      "▁Tehran": 5214,
      "▁Ven": 5215,
      "▁វគ្គ": 5216,
      "▁Hành": 5217,
      "▁ចូលរៀន": 5218,
      "▁tuyệt": 5219,
      "▁អាកាសច": 5220,
      "▁ស្តង់ដារ": 5221,
      "ge": 5222,
      "▁សន្យា": 5223,
      "▁វ័យ": 5224,
      "ườn": 5225,
      "ដូចជា": 5226,
      "▁បង្រៀន": 5227,
      "▁Tòa": 5228,
      "▁លឿន": 5229,
      "▁Đáng": 5230,
      "▁អ្នកវិភាគ": 5231,
      "▁ចំណង": 5232,
      "▁Tàu": 5233,
      "▁Chuyên": 5234,
      "▁ជំនួស": 5235,
      "ist": 5236,
      "▁nghênh": 5237,
      "ាមទារ": 5238,
      "ហ្គ": 5239,
      "▁ចាប់អារម្មណ៍": 5240,
      "▁đuổi": 5241,
      "បន្ទុក": 5242,
      "▁សម្បូរ": 5243,
      "▁mệnh": 5244,
      "▁ឧស្ម": 5245,
      "▁តុលាការ": 5246,
      "ha": 5247,
      "ដូរ": 5248,
      "ោសនា": 5249,
      "▁UNES": 5250,
      "▁ការជ្រ": 5251,
      "▁សាខា": 5252,
      "▁ឧត្តមសេ": 5253,
      "▁ការព្រួយបារម្ភ": 5254,
      "▁ប្រជាពលរដ្ឋ": 5255,
      "▁Bán": 5256,
      "▁ចំណេញ": 5257,
      "▁សេចក្តីប្រកាស": 5258,
      "▁កាំ": 5259,
      "▁វត្ត": 5260,
      "▁រដ្ឋធានី": 5261,
      "ង្វាក់": 5262,
      "▁អាកាសចរណ៍": 5263,
      "▁ការចុះ": 5264,
      "▁ទ្រព្យសម្បត្តិ": 5265,
      "▁Tien": 5266,
      "▁Truyền": 5267,
      "▁ឧបស": 5268,
      "▁ជាក់លាក់": 5269,
      "AS": 5270,
      "ច្នៃ": 5271,
      "លង": 5272,
      "▁សាកល្បង": 5273,
      "▁Merkel": 5274,
      "▁UNESCO": 5275,
      "▁nề": 5276,
      "▁khung": 5277,
      "▁rẽ": 5278,
      "ស្រេច": 5279,
      "▁ផ្សាយ": 5280,
      "ook": 5281,
      "▁al": 5282,
      "▁cai": 5283,
      "▁bồi": 5284,
      "▁Pet": 5285,
      "▁chủng": 5286,
      "ឡាយ": 5287,
      "▁chữa": 5288,
      "វិល": 5289,
      "▁អាស្រ័យ": 5290,
      "▁៖": 5291,
      "▁Duy": 5292,
      "▁ហ្វ": 5293,
      "ើនឡើង": 5294,
      "▁ការប្រយុទ្ធ": 5295,
      "▁សេចក្តីថ្លែងការណ៍": 5296,
      "▁យុទ្ធជន": 5297,
      "▁ទំនុកចិត្ត": 5298,
      "▁đắp": 5299,
      "ញ្ជី": 5300,
      "▁195": 5301,
      "ង្កេត": 5302,
      "▁១៩៧": 5303,
      "▁កី": 5304,
      "▁CP": 5305,
      "▁ពិការ": 5306,
      "▁ប៉ូល": 5307,
      "▁មិត្តភ": 5308,
      "▁ឥឡូវនេះ": 5309,
      "ិញ្ចឹម": 5310,
      "akh": 5311,
      "▁ក្បាល": 5312,
      "▁ជាស្រេច": 5313,
      "▁កាលៈ": 5314,
      "ហូប": 5315,
      "▁ស្ត្រ": 5316,
      "▁Mau": 5317,
      "▁Mac": 5318,
      "▁THCS": 5319,
      "▁អ្នកប្រើប្រាស់": 5320,
      "▁đêm": 5321,
      "▁ខ្ច": 5322,
      "▁វ៉ាស៊ីន": 5323,
      "▁Vịnh": 5324,
      "▁តឹង": 5325,
      "▁ទទួលយក": 5326,
      "▁សម្ពាធ": 5327,
      "ex": 5328,
      "នាការ": 5329,
      "▁chặng": 5330,
      "▁វេជ្ជ": 5331,
      "ម្នះ": 5332,
      "▁ការខំប្រឹងប្រែង": 5333,
      "▁អនុស្ស": 5334,
      "▁soạn": 5335,
      "ំលាំង": 5336,
      "▁ទេសចរ": 5337,
      "ាក្រូ": 5338,
      "▁លំបាក": 5339,
      "ែរក្សា": 5340,
      "▁ម៉ាក្រូ": 5341,
      "▁សំណួរ": 5342,
      "សល់": 5343,
      "▁Chiều": 5344,
      "▁ទទួលបន្ទុក": 5345,
      "▁ន័យ": 5346,
      "um": 5347,
      "ast": 5348,
      "▁Argen": 5349,
      "ko": 5350,
      "▁HĐ": 5351,
      "▁Da": 5352,
      "▁Khánh": 5353,
      "▁កាលៈទេស": 5354,
      "▁tấm": 5355,
      "▁Tình": 5356,
      "▁ម្ហូប": 5357,
      "▁Argentina": 5358,
      "ep": 5359,
      "ឡើយ": 5360,
      "▁Duong": 5361,
      "▁ការបង្កើន": 5362,
      "▁on": 5363,
      "▁thắt": 5364,
      "▁trời": 5365,
      "▁អន្ត": 5366,
      "▁រល": 5367,
      "▁ការឆ្ល": 5368,
      "▁សាងសង់": 5369,
      "▁បញ្ញា": 5370,
      "▁កាលៈទេសៈ": 5371,
      "▁ប៊": 5372,
      "▁ធ្វើអោយ": 5373,
      "▁Dav": 5374,
      "▁ឧបទ": 5375,
      "▁ឧត្តមសេនីយ៍": 5376,
      "AE": 5377,
      "▁តេត": 5378,
      "▁Hong": 5379,
      "▁Rõ": 5380,
      "តាម": 5381,
      "▁កំលាំង": 5382,
      "▁bổng": 5383,
      "unce": 5384,
      "▁Vũng": 5385,
      "▁ជាថ្មី": 5386,
      "▁ធាន": 5387,
      "▁ទៅរក": 5388,
      "èn": 5389,
      "▁súng": 5390,
      "▁បញ្ឈប់": 5391,
      "▁ounce": 5392,
      "▁ជុំវិញ": 5393,
      "▁គ្រូបង្រៀន": 5394,
      "▁អន": 5395,
      "ខាង": 5396,
      "ឈរ": 5397,
      "▁bế": 5398,
      "ាត់ថ្នាក់": 5399,
      "ុះបញ្ជី": 5400,
      "▁ការជំរុញ": 5401,
      "▁ឧស្ម័ន": 5402,
      "▁Cai": 5403,
      "▁Hiệu": 5404,
      "ម៉ា": 5405,
      "▁សិក្ខាស": 5406,
      "ាជ": 5407,
      "ắk": 5408,
      "▁Mu": 5409,
      "▁ឧបសគ្គ": 5410,
      "▁វ៉ាស៊ីនតោន": 5411,
      "ទូ": 5412,
      "▁មន្រ្តី": 5413,
      "▁ពន្ល": 5414,
      "▁Đặng": 5415,
      "▁Ky": 5416,
      "▁ឆ្នោត": 5417,
      "cow": 5418,
      "▁Võ": 5419,
      "▁Am": 5420,
      "▁400": 5421,
      "▁ការចរចា": 5422,
      "▁ពោលគឺ": 5423,
      "▁Moscow": 5424,
      "▁សិក្ខាសាលា": 5425,
      "ឥទ្ធិពល": 5426,
      "▁Quyền": 5427,
      "▁196": 5428,
      "▁Nghiên": 5429,
      "▁ការកើនឡើង": 5430,
      "▁Shinzo": 5431,
      "▁đọc": 5432,
      "▁វែង": 5433,
      "▁Triển": 5434,
      "ប្រាកដ": 5435,
      "▁ប្រជាមាន": 5436,
      "ស្លាម": 5437,
      "▁ប្តូរ": 5438,
      "▁Venez": 5439,
      "▁អារម្មណ៍": 5440,
      "▁Quoc": 5441,
      "▁រូបិយ": 5442,
      "▁បដិស": 5443,
      "ab": 5444,
      "ដោល": 5445,
      "▁lá": 5446,
      "▁Giao": 5447,
      "▁ធម្មតា": 5448,
      "ក្តិ": 5449,
      "▁ពុះ": 5450,
      "▁ត៖": 5451,
      "▁ខ្ម": 5452,
      "▁Mor": 5453,
      "▁ទាំងឡាយ": 5454,
      "▁មជ្ឈិម": 5455,
      "uela": 5456,
      "▁2009": 5457,
      "▁ទប់ស្កាត់": 5458,
      "ky": 5459,
      "▁ven": 5460,
      "▁bãi": 5461,
      "▁Nhóm": 5462,
      "aceb": 5463,
      "ីស្ត": 5464,
      "▁កែលម្អ": 5465,
      "▁Venezuela": 5466,
      "acebook": 5467,
      "ីយ៉ាន់": 5468,
      "▁ស្វ័យ": 5469,
      "▁Tam": 5470,
      "▁gỗ": 5471,
      "▁Đỗ": 5472,
      "▁នៅឡើយ": 5473,
      "▁ហៅ": 5474,
      "▁ប្រាក់ខែ": 5475,
      "នោះ": 5476,
      "any": 5477,
      "▁Bel": 5478,
      "ង្ករ": 5479,
      "▁Group": 5480,
      "▁ច្រក": 5481,
      "▁ការយល់ដឹង": 5482,
      "ស្ត": 5483,
      "▁២៣": 5484,
      "▁បញ្ជី": 5485,
      "▁75": 5486,
      "▁vọt": 5487,
      "▁សង": 5488,
      "▁ngôi": 5489,
      "▁អារ៉": 5490,
      "▁ផ្ដល់": 5491,
      "ខិត": 5492,
      "▁Ram": 5493,
      "▁ទប់ទល់": 5494,
      "▁ស្ត្រី": 5495,
      "▁online": 5496,
      "ាកចេញ": 5497,
      "▁សត្វ": 5498,
      "▁hiếm": 5499,
      "▁ត្រឡប់": 5500,
      "▁dio": 5501,
      "ីយ៉ាន់ម៉ា": 5502,
      "រគ": 5503,
      "▁សូ": 5504,
      "▁សាស្ត្រាចារ្យ": 5505,
      "▁ដេញដោល": 5506,
      "▁Car": 5507,
      "េសាទ": 5508,
      "គន់": 5509,
      "▁Tầm": 5510,
      "▁អង្ករ": 5511,
      "▁Lịch": 5512,
      "▁Moon": 5513,
      "▁dioxin": 5514,
      "▁DN": 5515,
      "▁Nhận": 5516,
      "▁thoái": 5517,
      "▁យន្តហោះ": 5518,
      "est": 5519,
      "▁សរសេរ": 5520,
      "▁បង": 5521,
      "▁ខ្ន": 5522,
      "្អូន": 5523,
      "ចែក": 5524,
      "▁w": 5525,
      "▁đâu": 5526,
      "▁ngừa": 5527,
      "▁quà": 5528,
      "▁ចម្រ": 5529,
      "▁The": 5530,
      "▁ឆាក": 5531,
      "រឿង": 5532,
      "▁Đánh": 5533,
      "▁ការកាត់បន្ថយ": 5534,
      "▁អេឡិចត្រូនិក": 5535,
      "▁đỏ": 5536,
      "▁nhật": 5537,
      "▁លុយ": 5538,
      "ាត់បង់": 5539,
      "▁khứ": 5540,
      "▁G7": 5541,
      "ni": 5542,
      "▁thuyết": 5543,
      "▁làn": 5544,
      "▁It": 5545,
      "▁ភាគរយ": 5546,
      "ពាក្យ": 5547,
      "▁thuẫn": 5548,
      "▁សកលលោក": 5549,
      "ហោ": 5550,
      "▁giác": 5551,
      "▁CL": 5552,
      "្ទង់": 5553,
      "▁ការចំណ": 5554,
      "▁ប្រសើរឡើង": 5555,
      "ន្សំ": 5556,
      "▁vẻ": 5557,
      "▁máu": 5558,
      "arus": 5559,
      "▁ស្អាត": 5560,
      "▁lỗ": 5561,
      "▁lùi": 5562,
      "▁Song": 5563,
      "▁សាស្រ្ត": 5564,
      "ួចផ្តើម": 5565,
      "▁cũ": 5566,
      "▁ទម្រង់": 5567,
      "▁Mạnh": 5568,
      "▁Rập": 5569,
      "▁ផ្ទៃក្នុង": 5570,
      "សវត្ស": 5571,
      "ụp": 5572,
      "▁ngàn": 5573,
      "▁Li": 5574,
      "▁អ្នកស្រី": 5575,
      "▁ជ្រាល": 5576,
      "▁៧០": 5577,
      "▁ផ្លាស់ប្ដូរ": 5578,
      "ee": 5579,
      "▁TW": 5580,
      "▁២៩": 5581,
      "▁មុខវិជ្ជា": 5582,
      "ជ្រៅ": 5583,
      "▁គ្រោះថ្នាក់": 5584,
      "▁ជ្រាលជ្រៅ": 5585,
      "▁ចុះបញ្ជី": 5586,
      "▁EC": 5587,
      "ើសុំ": 5588,
      "▁អត្ថបទ": 5589,
      "▁ពុះពារ": 5590,
      "បអរ": 5591,
      "លែង": 5592,
      "▁kịch": 5593,
      "▁ចុះឈ្មោះ": 5594,
      "▁hủy": 5595,
      "▁PCA": 5596,
      "▁ផ្ទុយ": 5597,
      "▁ទឹកប្រាក់": 5598,
      "បាក": 5599,
      "▁ទាហាន": 5600,
      "ươn": 5601,
      "▁Phật": 5602,
      "▁ការបង្": 5603,
      "rus": 5604,
      "▁bánh": 5605,
      "▁ចម្ប": 5606,
      "▁ការផ្ទ": 5607,
      "▁មហាវិទ្យាល័យ": 5608,
      "▁thẻ": 5609,
      "▁lũ": 5610,
      "▁សណ្ត": 5611,
      "▁ក្តៅ": 5612,
      "▁gà": 5613,
      "▁ផ្គត់ផ្គង់": 5614,
      "ind": 5615,
      "▁ទៅតាម": 5616,
      "▁ភ្ន": 5617,
      "▁ប្រជាមានិត": 5618,
      "គំនិត": 5619,
      "ដែល": 5620,
      "យ៉ាង": 5621,
      "▁ដូច្នេះហើយ": 5622,
      "▁ពាក់ក": 5623,
      "▁សម្តៅ": 5624,
      "▁ការទាក់ទ": 5625,
      "▁បទដ្ឋាន": 5626,
      "▁ការស្រាវជ្រាវ": 5627,
      "▁លុបចោល": 5628,
      "▁ឧបទ្វីប": 5629,
      "uel": 5630,
      "ទរ": 5631,
      "ុរ": 5632,
      "▁vương": 5633,
      "ែងចែក": 5634,
      "▁ការច្នៃប្រឌិត": 5635,
      "▁Ham": 5636,
      "ម្បីតែ": 5637,
      "្តេជ្ញា": 5638,
      "តិយុ": 5639,
      "ាស្រ័យ": 5640,
      "ិខិត": 5641,
      "▁សុំ": 5642,
      "▁khiếu": 5643,
      "▁Lo": 5644,
      "MM": 5645,
      "ូឡ": 5646,
      "▁yên": 5647,
      "▁ភ្ជាប់": 5648,
      "▁បន្ទប់": 5649,
      "▁សំណង់": 5650,
      "▁hưu": 5651,
      "▁ការប្រែប្រួល": 5652,
      "▁ការចរចារ": 5653,
      "▁យុទ្ធសាស្រ្ត": 5654,
      "▁internet": 5655,
      "▁១៩៨២": 5656,
      "រិយ": 5657,
      "▁rau": 5658,
      "្ត្រាលី": 5659,
      "▁dỡ": 5660,
      "▁chín": 5661,
      "eal": 5662,
      "ya": 5663,
      "វេស": 5664,
      "ាបាល": 5665,
      "▁មីយ៉ាន់ម៉ា": 5666,
      "▁Phiên": 5667,
      "▁ចំណាត់ថ្នាក់": 5668,
      "▁ស្រី": 5669,
      "▁កំណើត": 5670,
      "▁អនុញ្ញាតឱ្យ": 5671,
      "▁យុត្តិធម៌": 5672,
      "CP": 5673,
      "▁»": 5674,
      "▁32": 5675,
      "▁អូស្ត្រាលី": 5676,
      "▁ប៉ូលីស": 5677,
      "▁ចរចា": 5678,
      "▁ផលវិ": 5679,
      "▁sàn": 5680,
      "▁ស្មោះ": 5681,
      "▁ការរីកចម្រើន": 5682,
      "▁សិល": 5683,
      "ិះគន់": 5684,
      "▁ការចំណាយ": 5685,
      "ាភាព": 5686,
      "▁mã": 5687,
      "▁Định": 5688,
      "▁thuốc": 5689,
      "▁ផលវិបាក": 5690,
      "▁đáo": 5691,
      "▁vướng": 5692,
      "នាគមន៍": 5693,
      "ara": 5694,
      "▁មិត្តភក្តិ": 5695,
      "▁បំប": 5696,
      "▁ស៊ីវិល": 5697,
      "័ព្ទ": 5698,
      "▁uỷ": 5699,
      "▁កែច្នៃ": 5700,
      "សមុទ្រ": 5701,
      "▁អាហ្វ្រ": 5702,
      "▁cháu": 5703,
      "▁អបអរ": 5704,
      "▁Man": 5705,
      "▁គ្រោង": 5706,
      "▁សភាពការណ៍": 5707,
      "ck": 5708,
      "ót": 5709,
      "ពេទ្យ": 5710,
      "ស្ថាន": 5711,
      "▁nhảy": 5712,
      "▁Belarus": 5713,
      "ũi": 5714,
      "▁អាក្រ": 5715,
      "▁37": 5716,
      "▁2008": 5717,
      "▁ផ្ទាល់ខ្លួន": 5718,
      "▁ព្យាករណ៍": 5719,
      "▁Số": 5720,
      "▁៦០": 5721,
      "សរ": 5722,
      "អាហ": 5723,
      "ុវិស័យ": 5724,
      "▁អត្ថប្រយោជន៍": 5725,
      "▁ត្រីមាស": 5726,
      "▁ដឹកជញ្ជូន": 5727,
      "▁ha": 5728,
      "▁Ma": 5729,
      "dan": 5730,
      "▁ការសន្យា": 5731,
      "▁ធានារ៉ាប់រង": 5732,
      "▁vợ": 5733,
      "▁Rịa": 5734,
      "▁រយះពេល": 5735,
      "េី": 5736,
      "▁គតិយុ": 5737,
      "▁PG": 5738,
      "▁GS": 5739,
      "▁យល់ព្រម": 5740,
      "CI": 5741,
      "▁kính": 5742,
      "▁Angela": 5743,
      "▁thuỷ": 5744,
      "▁IM": 5745,
      "▁ខណៈពេល": 5746,
      "▁អាហ្វ្រិក": 5747,
      "ទោស": 5748,
      "▁ví": 5749,
      "▁giỏi": 5750,
      "▁វិល": 5751,
      "▁virus": 5752,
      "▁sữa": 5753,
      "▁ចក្ខ": 5754,
      "▁ទី៤": 5755,
      "ombank": 5756,
      "...": 5757,
      "▁តម្លាភាព": 5758,
      "េធ": 5759,
      "▁lẽ": 5760,
      "▁mầm": 5761,
      "▁Bang": 5762,
      "▁សន្និបាត": 5763,
      "សហប្រតិបត្តិការ": 5764,
      "អាហារ": 5765,
      "▁អត្ត": 5766,
      "▁រោង": 5767,
      "▁ការវិ": 5768,
      "▁ពូ": 5769,
      "▁Thay": 5770,
      "▁កសិ": 5771,
      "▁Nghệ": 5772,
      "▁“Tôi": 5773,
      "▁សម្ព័ន្ធមិត្ត": 5774,
      "▁mực": 5775,
      "▁រង្វាន់": 5776,
      "▁មន": 5777,
      "▁Bac": 5778,
      "▁Arab": 5779,
      "▁“M": 5780,
      "ុតាង": 5781,
      "▁រៀបចំឡើង": 5782,
      "▁ទស្សនា": 5783,
      "ីលធម៌": 5784,
      "▁សូម្បីតែ": 5785,
      "▁ចក្ខុវិស័យ": 5786,
      "▁បន្ល": 5787,
      "ell": 5788,
      "រ៍": 5789,
      "▁កាហ": 5790,
      "្មត់": 5791,
      "▁ប៉ាឡ": 5792,
      "▁ទ្រង់": 5793,
      "▁វត្តមាន": 5794,
      "▁អាក្រក់": 5795,
      "kh": 5796,
      "ta": 5797,
      "▁xăng": 5798,
      "ោទប្រ": 5799,
      "ow": 5800,
      "ão": 5801,
      "ụy": 5802,
      "▁trại": 5803,
      "▁ស្រស់": 5804,
      "▁vươn": 5805,
      "▁Nhìn": 5806,
      "វិជ្ជមាន": 5807,
      "▁ខ្លី": 5808,
      "ៀសវាង": 5809,
      "▁អំណោយផល": 5810,
      "ចត់": 5811,
      "ỳnh": 5812,
      "▁dệt": 5813,
      "ញ្ញាណ": 5814,
      "▁យុទ្ធនាការ": 5815,
      "▁បេស": 5816,
      "▁ព្រមាន": 5817,
      "▁មកហើយ": 5818,
      "ង្វៀន": 5819,
      "ោទប្រកាន់": 5820,
      "▁triệt": 5821,
      "▁ចោល": 5822,
      "▁ចិញ្ចឹម": 5823,
      "▁៣១": 5824,
      "▁មាគ៌ា": 5825,
      "eng": 5826,
      "▁Cat": 5827,
      "▁ចាកចេញ": 5828,
      "ិន័យ": 5829,
      "យោជិក": 5830,
      "សាទរ": 5831,
      "▁កែលំ": 5832,
      "▁សម្ភ": 5833,
      "▁Hol": 5834,
      "▁ផ្ញើ": 5835,
      "ឋម": 5836,
      "▁បឋម": 5837,
      "▁lây": 5838,
      "▁khám": 5839,
      "▁Bash": 5840,
      "erry": 5841,
      "ics": 5842,
      "▁អតិផ": 5843,
      "▁ត្រៀមខ្លួន": 5844,
      "▁ទូរស": 5845,
      "▁ការផ្តល់": 5846,
      "▁cờ": 5847,
      "▁សន្ធ": 5848,
      "▁ទាមទារ": 5849,
      "▁Họ": 5850,
      "ែទាំ": 5851,
      "▁Tech": 5852,
      "▁huấn": 5853,
      "▁ស្លាប់": 5854,
      "stan": 5855,
      "▁Nhờ": 5856,
      "ចក្រ": 5857,
      "▁កូវ": 5858,
      "▁kẻ": 5859,
      "▁សវ": 5860,
      "ុងរឿង": 5861,
      "▁Thúc": 5862,
      "▁Facebook": 5863,
      "▁ការពង្រឹង": 5864,
      "▁ពិតប្រាកដ": 5865,
      "▁មេរៀន": 5866,
      "▁ចក្រ": 5867,
      "ass": 5868,
      "្វែងគំនិត": 5869,
      "▁ấm": 5870,
      "▁Vấn": 5871,
      "▁ភូម": 5872,
      "▁បណ្ដាល": 5873,
      "▁ផ្ទេរ": 5874,
      "▁ព្យុង": 5875,
      "បំពាន": 5876,
      "▁ការជ្រើសរើស": 5877,
      "▁PGS": 5878,
      "អភិវឌ្ឍន៍": 5879,
      "▁vườn": 5880,
      "▁quen": 5881,
      "▁និយោជិក": 5882,
      "▁xuân": 5883,
      "ទ្រាយ": 5884,
      "ork": 5885,
      "▁Yen": 5886,
      "▁ហេតុផល": 5887,
      "▁សណ្ឋាន": 5888,
      "▁ទ្រង់ទ្រាយ": 5889,
      "បន្ល": 5890,
      "▁sáu": 5891,
      "▁gái": 5892,
      "▁ប៉េក": 5893,
      "▁សង្គមកិច្ច": 5894,
      "▁អេហ្ស": 5895,
      "▁កីឡា": 5896,
      "▁vu": 5897,
      "▁សំប": 5898,
      "▁dò": 5899,
      "▁ចាស់": 5900,
      "▁Phước": 5901,
      "▁ឈប់ឈរ": 5902,
      "ណះ": 5903,
      "ិតិ": 5904,
      "▁ចរចារ": 5905,
      "▁សន្តិ": 5906,
      "ជំទ": 5907,
      "▁Ý": 5908,
      "▁នារី": 5909,
      "▁bờ": 5910,
      "▁kháng": 5911,
      "▁Gen": 5912,
      "▁ជនរង": 5913,
      "ian": 5914,
      "ពន្ធ": 5915,
      "ឺត": 5916,
      "▁bóng": 5917,
      "▁ចែង": 5918,
      "▁BH": 5919,
      "uk": 5920,
      "▁truy": 5921,
      "▁អក្ស": 5922,
      "▁Thỏa": 5923,
      "gh": 5924,
      "▁trấn": 5925,
      "▁សង្វាក់": 5926,
      "▁bớt": 5927,
      "▁ដំបន់": 5928,
      "▁តស៊ូ": 5929,
      "▁ទៅដល់": 5930,
      "ីស្ថាន": 5931,
      "▁ទើបនឹង": 5932,
      "▁uống": 5933,
      "រគុណ": 5934,
      "▁អតិផរណា": 5935,
      "ាភ្ជាប់": 5936,
      "ụng": 5937,
      "▁thơ": 5938,
      "▁សិប": 5939,
      "▁ការផ្ស": 5940,
      "▁បង្រ": 5941,
      "▁chữ": 5942,
      "▁៤៥": 5943,
      "▁ការគោរព": 5944,
      "▁ព្យុងយ៉ាង": 5945,
      "តំណ": 5946,
      "▁lạnh": 5947,
      "▁Tám": 5948,
      "▁địch": 5949,
      "ុះបណ្ដាល": 5950,
      "▁ការខ្វែងគំនិត": 5951,
      "▁មធ្យមសិក្សា": 5952,
      "▁ឃ្លាំមើល": 5953,
      "▁ជនរងគ្រោះ": 5954,
      "ៀក": 5955,
      "▁thâm": 5956,
      "▁kiêm": 5957,
      "▁Lực": 5958,
      "▁សម្រាក": 5959,
      "▁ចំណុះ": 5960,
      "▁៣៥": 5961,
      "▁លទ្ធិ": 5962,
      "▁thú": 5963,
      "▁sôi": 5964,
      "▁ngoặt": 5965,
      "▁មើលឃើញ": 5966,
      "▁សិង្ហបុរី": 5967,
      "▁ប៉េកាំង": 5968,
      "សាន": 5969,
      "▁áo": 5970,
      "▁sắm": 5971,
      "▁Tiền": 5972,
      "▁លិខិត": 5973,
      "▁lành": 5974,
      "ួញដូរ": 5975,
      "▁thảm": 5976,
      "Nam": 5977,
      "▁viễn": 5978,
      "▁ngư": 5979,
      "▁Thai": 5980,
      "iden": 5981,
      "▁ឧទាហ": 5982,
      "XH": 5983,
      "ស្អ": 5984,
      "▁Tal": 5985,
      "▁ប្រាស្រ័យ": 5986,
      "ន្ទៈ": 5987,
      "uss": 5988,
      "▁ស្នើសុំ": 5989,
      "▁បំណងប្រាថ្នា": 5990,
      "▁ការលើកកម្ពស់": 5991,
      "▁សាស្រ្តាចារ្យ": 5992,
      "▁phỏng": 5993,
      "▁អភិ": 5994,
      "▁Cận": 5995,
      "▁ជល": 5996,
      "▁“Th": 5997,
      "▁ឆ្ងាយ": 5998,
      "▁បដិសេធ": 5999,
      "▁អបអរសាទរ": 6000,
      "ff": 6001,
      "▁ទិន្នន័យ": 6002,
      "ealand": 6003,
      "▁đen": 6004,
      "▁dây": 6005,
      "▁Chị": 6006,
      "ិសាស្រ្ត": 6007,
      "▁អាជីព": 6008,
      "▁ភ្នាក់ងារ": 6009,
      "▁ឃោសនា": 6010,
      "ល្យ": 6011,
      "▁hùng": 6012,
      "▁then": 6013,
      "▁ឆ្នេរ": 6014,
      "▁65": 6015,
      "▁អធិការ": 6016,
      "▁ghế": 6017,
      "ka": 6018,
      "▁សន្សំ": 6019,
      "▁ទទួលខុសត្រូវ": 6020,
      "ផ្ដើម": 6021,
      "▁xoá": 6022,
      "▁bốn": 6023,
      "▁mỏ": 6024,
      "▁Bất": 6025,
      "▁Pr": 6026,
      "▁អចល": 6027,
      "ទិញ": 6028,
      "▁Môi": 6029,
      "▁600": 6030,
      "▁ការសន្ទនា": 6031,
      "▁Tuan": 6032,
      "▁VietNam": 6033,
      "▁Park": 6034,
      "▁បេសក": 6035,
      "ណែនាំ": 6036,
      "▁giày": 6037,
      "▁Dang": 6038,
      "▁Zealand": 6039,
      "ស្ទ": 6040,
      "▁ង្វៀន": 6041,
      "▁ការពិ": 6042,
      "រីករាយ": 6043,
      "▁ចេញផ្សាយ": 6044,
      "▁រាយការណ៍": 6045,
      "▁Dai": 6046,
      "▁tổn": 6047,
      "ើបអ": 6048,
      "ke": 6049,
      "▁ឧទាហរណ៍": 6050,
      "ទ្ឋ": 6051,
      "mer": 6052,
      "▁cãi": 6053,
      "▁khâu": 6054,
      "▁Lam": 6055,
      "▁ការរក្សា": 6056,
      "▁ការបោះជំហាន": 6057,
      "▁Holland": 6058,
      "▁អចលន": 6059,
      "▁CO": 6060,
      "▁Chung": 6061,
      "▁Lợi": 6062,
      "ទូទៅ": 6063,
      "▁កាណ": 6064,
      "▁bạc": 6065,
      "▁Bài": 6066,
      "ាលភាព": 6067,
      "▁ទូរស័ព្ទ": 6068,
      "Net": 6069,
      "si": 6070,
      "▁Lộc": 6071,
      "ុក្រ": 6072,
      "▁49": 6073,
      "▁គ្រឹះស្ថាន": 6074,
      "ើបអង្កេត": 6075,
      "▁រំដ": 6076,
      "▁Ben": 6077,
      "▁98": 6078,
      "ទា": 6079,
      "រឹង": 6080,
      "▁tôm": 6081,
      "▁hứng": 6082,
      "▁Bu": 6083,
      "្ចារ្យ": 6084,
      "▁ធ្វើដំណើរ": 6085,
      "▁Thuận": 6086,
      "▁កូវីដ": 6087,
      "▁សន្តិវិធី": 6088,
      "▁រំដោះ": 6089,
      "▁ដើម្បីឱ្យ": 6090,
      "ត្រឡប់": 6091,
      "ith": 6092,
      "▁ស្មោះត្រង់": 6093,
      "▁VietNamNet": 6094,
      "▁ប្រមុខ": 6095,
      "▁ការដាក់": 6096,
      "▁Bui": 6097,
      "▁Kerry": 6098,
      "▁ទៅមក": 6099,
      "▁ជ្រូក": 6100,
      "▁ដដែល": 6101,
      "▁Uy": 6102,
      "ោសល្យ": 6103,
      "▁នីតិវិធី": 6104,
      "▁ពូជ": 6105,
      "ae": 6106,
      "▁chăn": 6107,
      "▁Thơ": 6108,
      "▁01": 6109,
      "▁ការតស៊ូ": 6110,
      "▁តឹងរឹង": 6111,
      "▁វិន័យ": 6112,
      "▁SA": 6113,
      "ប្បាយ": 6114,
      "▁IMF": 6115,
      "▁រោងចក្រ": 6116,
      "sk": 6117,
      "ដាន": 6118,
      "បែប": 6119,
      "▁ngồi": 6120,
      "▁Mới": 6121,
      "ាប់ធ្ន": 6122,
      "▁អ្នកន": 6123,
      "▁Brun": 6124,
      "▁Bashar": 6125,
      "ាប់ធ្នាប់": 6126,
      "▁tả": 6127,
      "▁រាំង": 6128,
      "▁ទសវត្ស": 6129,
      "▁Hollande": 6130,
      "if": 6131,
      "ộn": 6132,
      "▁លោត": 6133,
      "▁Em": 6134,
      "គ្រឹះ": 6135,
      "▁lỗi": 6136,
      "ម្ង": 6137,
      "▁34": 6138,
      "ោរពេញ": 6139,
      "▁“Trong": 6140,
      "▁អារ៉ាប់": 6141,
      "▁អក្សរ": 6142,
      "▁thận": 6143,
      "▁បៃ": 6144,
      "▁Cổ": 6145,
      "▁វឌ្ឍ": 6146,
      "ượu": 6147,
      "▁Thọ": 6148,
      "គ្រោះយោ": 6149,
      "ចនា": 6150,
      "ស្វ": 6151,
      "▁Tay": 6152,
      "▁ចំ": 6153,
      "▁Hóa": 6154,
      "▁Talib": 6155,
      "ធ្វើ": 6156,
      "▁eu": 6157,
      "▁nhượng": 6158,
      "▁TN": 6159,
      "▁diệt": 6160,
      "▁rãi": 6161,
      "▁Kaz": 6162,
      "▁៥០០": 6163,
      "▁អស្ចារ្យ": 6164,
      "និយ": 6165,
      "▁ngon": 6166,
      "▁ពោរពេញ": 6167,
      "▁Tri": 6168,
      "▁Seo": 6169,
      "▁Ser": 6170,
      "aul": 6171,
      "▁ក្រុមគ្រ": 6172,
      "▁ទឹកដី": 6173,
      "តិកម្ម": 6174,
      "គ្រោះយោបល់": 6175,
      "សង្គ": 6176,
      "▁រាយ": 6177,
      "▁ហួស": 6178,
      "ាគារ": 6179,
      "▁ក្រុមគ្រួសារ": 6180,
      "▁chối": 6181,
      "▁Clin": 6182,
      "▁Biden": 6183,
      "ិសញ្ញា": 6184,
      "ធម៍": 6185,
      "▁ការផ្លាស់ប្ដូរ": 6186,
      "▁កាយវ": 6187,
      "▁cởi": 6188,
      "amb": 6189,
      "៊ីប": 6190,
      "▁ចូលរួមចំណែក": 6191,
      "▁គណិត": 6192,
      "ប័ណ្ណ": 6193,
      "▁រារាំង": 6194,
      "▁Gần": 6195,
      "ទ្វ": 6196,
      "▁bảng": 6197,
      "▁Hệ": 6198,
      "ាក្ស": 6199,
      "ង់ចាំ": 6200,
      "▁48": 6201,
      "ico": 6202,
      "▁euro": 6203,
      "▁Lương": 6204,
      "▁ស្ថិតិ": 6205,
      "ំលោះ": 6206,
      "▁តុល្យ": 6207,
      "▁សណ្ឋាគារ": 6208,
      "▁Clinton": 6209,
      "▁Lat": 6210,
      "▁ការបើក": 6211,
      "▁ឈ្នះ": 6212,
      "▁Je": 6213,
      "▁Franc": 6214,
      "▁khen": 6215,
      "្លាញ": 6216,
      "▁Dam": 6217,
      "ូចខាត": 6218,
      "▁សិល្ប": 6219,
      "ឹស": 6220,
      "▁បូរ": 6221,
      "▁គយ": 6222,
      "▁Ber": 6223,
      "▁បង្ខំ": 6224,
      "▁សម្រេចចិត្ត": 6225,
      "▁ជម្រើស": 6226,
      "▁132": 6227,
      "▁សន្ធិសញ្ញា": 6228,
      "ជំទាស់": 6229,
      "សំណ": 6230,
      "▁ស្ព": 6231,
      "▁mềm": 6232,
      "▁លេង": 6233,
      "▁41": 6234,
      "▁ដើមឈើ": 6235,
      "▁រៀនសូត្រ": 6236,
      "▁អន្តោ": 6237,
      "▁អេហ្ស៊ីប": 6238,
      "ដៃ": 6239,
      "▁hề": 6240,
      "▁lường": 6241,
      "▁២០២៥": 6242,
      "▁150": 6243,
      "រកថា": 6244,
      "▁ទិន្នផល": 6245,
      "▁ចម្បង": 6246,
      "▁vun": 6247,
      "▁thờ": 6248,
      "▁km": 6249,
      "▁Hằng": 6250,
      "▁33": 6251,
      "▁Euro": 6252,
      "បែក": 6253,
      "▁ទាញ": 6254,
      "▁ជំលោះ": 6255,
      "▁បង្អស់": 6256,
      "▁ភ្នំ": 6257,
      "អំណ": 6258,
      "▁vé": 6259,
      "▁បាតុ": 6260,
      "▁Hoài": 6261,
      "▁Bỉ": 6262,
      "▁Bra": 6263,
      "▁xứ": 6264,
      "▁ត្រជាក់": 6265,
      "▁“K": 6266,
      "▁ការព្យ": 6267,
      "ីយដ្ឋាន": 6268,
      "▁ផ្ទៃដី": 6269,
      "▁ចរិត": 6270,
      "ion": 6271,
      "▁bò": 6272,
      "▁Vĩnh": 6273,
      "▁xong": 6274,
      "▁សន្ទស្សន៍": 6275,
      "េន": 6276,
      "▁លី": 6277,
      "▁Hun": 6278,
      "▁Nhất": 6279,
      "▁tùy": 6280,
      "▁ការរំល": 6281,
      "▁នាទី": 6282,
      "▁ខ្ព": 6283,
      "▁ផ្តួចផ្តើម": 6284,
      "▁វិទ្យុស": 6285,
      "▁1975": 6286,
      "▁គណិតវិទ្យា": 6287,
      "ឹទ្ធ": 6288,
      "▁បាត់បង់": 6289,
      "▁Nang": 6290,
      "▁លំហ": 6291,
      "ូវៀត": 6292,
      "▁AEC": 6293,
      "▁យប់": 6294,
      "▁អន្តោប្រ": 6295,
      "តាលី": 6296,
      "▁ប្តេជ្ញា": 6297,
      "▁chụp": 6298,
      "▁ពង្រ": 6299,
      "▁rượu": 6300,
      "▁Mah": 6301,
      "aly": 6302,
      "▁បណ្ដាការ": 6303,
      "▁អ៊ីតាលី": 6304,
      "▁សេចក្ដីសម្រេចចិត្ត": 6305,
      "▁Taliban": 6306,
      "▁ពុល": 6307,
      "▁Med": 6308,
      "▁ការប្រមូល": 6309,
      "ញ្ចាំង": 6310,
      "▁ការលក់": 6311,
      "ហើរ": 6312,
      "▁mìn": 6313,
      "▁ខ្ពង់": 6314,
      "យ័ត": 6315,
      "ឺង": 6316,
      "▁đắt": 6317,
      "▁II": 6318,
      "បំប": 6319,
      "ហភាព": 6320,
      "▁បាត": 6321,
      "▁trùm": 6322,
      "▁គូស": 6323,
      "▁Gaz": 6324,
      "eland": 6325,
      "▁កម្មស": 6326,
      "ព្វកិច្ច": 6327,
      "log": 6328,
      "▁hơi": 6329,
      "▁nhẹ": 6330,
      "▁ចម្ល": 6331,
      "▁ក្រិក": 6332,
      "▁ការធ្ល": 6333,
      "▁hãy": 6334,
      "ig": 6335,
      "▁dị": 6336,
      "ាក់ចុះ": 6337,
      "▁សមរ": 6338,
      "ាវុធ": 6339,
      "ចរចា": 6340,
      "ដាប់": 6341,
      "ិល": 6342,
      "▁trắng": 6343,
      "▁lái": 6344,
      "▁កំហ": 6345,
      "▁ធុរ": 6346,
      "▁38": 6347,
      "▁Jer": 6348,
      "▁ការជួប": 6349,
      "▁សតវត្ស": 6350,
      "▁ការទាក់ទាញ": 6351,
      "▁វិលត្រឡប់": 6352,
      "េស្ត": 6353,
      "▁បែបបទ": 6354,
      "▁សម្ភារៈ": 6355,
      "▁បៃត": 6356,
      "ទ្វារ": 6357,
      "éc": 6358,
      "លី": 6359,
      "លឿន": 6360,
      "▁រំ": 6361,
      "▁ជាទូទៅ": 6362,
      "ម្លេង": 6363,
      "ផលិត": 6364,
      "▁បន្ទាន់": 6365,
      "ឿនលឿន": 6366,
      "▁ផែនទី": 6367,
      "ផ្ទ": 6368,
      "▁ក្ត": 6369,
      "▁mãi": 6370,
      "▁ហាម": 6371,
      "បដ": 6372,
      "ាទ": 6373,
      "▁Tôn": 6374,
      "iếng": 6375,
      "▁Ther": 6376,
      "▁ផ្អ": 6377,
      "ois": 6378,
      "▁gió": 6379,
      "▁ការឃ": 6380,
      "▁ជួល": 6381,
      "▁ទីក": 6382,
      "▁700": 6383,
      "▁ឆ្លុះប": 6384,
      "ពាន់": 6385,
      "▁nại": 6386,
      "▁គត់": 6387,
      "▁អ្នកយក": 6388,
      "art": 6389,
      "វិទ្យាស": 6390,
      "វេសន៍": 6391,
      "តំលៃ": 6392,
      "ឡាញ់": 6393,
      "▁សីលធម៌": 6394,
      "▁ngang": 6395,
      "▁khát": 6396,
      "ាយាម": 6397,
      "▁ផុត": 6398,
      "▁Chánh": 6399,
      "▁បទបញ្ញត្តិ": 6400,
      "CB": 6401,
      "កាប់": 6402,
      "្តេច": 6403,
      "▁ទុ": 6404,
      "▁Đăng": 6405,
      "▁កំពង់": 6406,
      "បង្រ": 6407,
      "▁ẩn": 6408,
      "▁Net": 6409,
      "ការងារ": 6410,
      "▁ទាំងនោះ": 6411,
      "▁Hoạt": 6412,
      "ort": 6413,
      "▁York": 6414,
      "▁លក្ខណះ": 6415,
      "▁សំណើរ": 6416,
      "រសើរ": 6417,
      "▁ស្បែក": 6418,
      "▁cứng": 6419,
      "▁វិប": 6420,
      "▁ស្រូប": 6421,
      "ាវរី": 6422,
      "ីយ៍": 6423,
      "▁“Việt": 6424,
      "▁XIV": 6425,
      "ភ្លើង": 6426,
      "ĩa": 6427,
      "▁hối": 6428,
      "▁lọc": 6429,
      "▁សឹ": 6430,
      "▁ដណ្ដ": 6431,
      "▁រុក": 6432,
      "▁វិមាន": 6433,
      "ិទ្ធផល": 6434,
      "▁ផ្សាភ្ជាប់": 6435,
      "▁កិច្ចសហប្រតិបតិ្តការ": 6436,
      "▁កុម្មុយនីស្ត": 6437,
      "▁វាល": 6438,
      "▁Kỷ": 6439,
      "▁គោលជ": 6440,
      "▁ម៉ឺន": 6441,
      "▁Tuần": 6442,
      "▁រីកចម្រើន": 6443,
      "▁VI": 6444,
      "▁ផ្លោះ": 6445,
      "▁គេហ": 6446,
      "▁អំពើហ": 6447,
      "eva": 6448,
      "▁រូបថត": 6449,
      "▁ជះឥទ្ធិពល": 6450,
      "TT": 6451,
      "ie": 6452,
      "័ន្ត": 6453,
      "▁ប្រតិកម្ម": 6454,
      "▁CS": 6455,
      "▁មន្ទីរពេទ្យ": 6456,
      "▁វិទ្យុសម្លេង": 6457,
      "▁បៃតង": 6458,
      "ban": 6459,
      "sen": 6460,
      "éo": 6461,
      "ាជ័យ": 6462,
      "▁tỏa": 6463,
      "▁dường": 6464,
      "▁Hã": 6465,
      "▁ព្រឹទ្ធ": 6466,
      "▁ចាប់ផ្ដើម": 6467,
      "ិត្យានុភាព": 6468,
      "▁Toky": 6469,
      "▁កាតព្វកិច្ច": 6470,
      "▁ជាធរ": 6471,
      "akhstan": 6472,
      "▁អន្តោប្រវេសន៍": 6473,
      "▁Tokyo": 6474,
      "tel": 6475,
      "ងាយស្រួល": 6476,
      "ពង្រ": 6477,
      "▁hoãn": 6478,
      "ភព": 6479,
      "▁tàn": 6480,
      "▁CN": 6481,
      "▁Se": 6482,
      "▁Si": 6483,
      "▁កាន់អំណាច": 6484,
      "ile": 6485,
      "▁ស្វែងយល់": 6486,
      "▁ការចុះហត្ថលេខា": 6487,
      "▁Kazakhstan": 6488,
      "▁ជាធរមាន": 6489,
      "សង្ឃឹម": 6490,
      "▁vỡ": 6491,
      "▁Vàng": 6492,
      "▁ជំហរ": 6493,
      "▁khoẻ": 6494,
      "▁មូលដ្ឋានគ្រឹះ": 6495,
      "▁ដណ្ដើម": 6496,
      "▁tốn": 6497,
      "▁lang": 6498,
      "ានីស្ថាន": 6499,
      "▁mấy": 6500,
      "▁អវិជ្ជមាន": 6501,
      "▁និទា": 6502,
      "▁សមិទ្ធផល": 6503,
      "ក្រិដ្ឋ": 6504,
      "ិនិច្ឆ": 6505,
      "ull": 6506,
      "▁ស្បៀង": 6507,
      "▁ខ្នាត": 6508,
      "ិនិច្ឆ័យ": 6509,
      "ía": 6510,
      "ណាំង": 6511,
      "▁កែទម្រង់": 6512,
      "▁រម": 6513,
      "▁San": 6514,
      "▁នាវ": 6515,
      "▁800": 6516,
      "▁ការប្រឆាំង": 6517,
      "▁គ្រាប់បែក": 6518,
      "▁1945": 6519,
      "▁băng": 6520,
      "▁គម្រោងការណ៍": 6521,
      "▁ការធ្លាក់ចុះ": 6522,
      "ស៊ី": 6523,
      "▁Vân": 6524,
      "▁ម៉ាឡ": 6525,
      "▁អ៊ីរ៉ាក់": 6526,
      "▁កំពង់ផ": 6527,
      "▁កិត្យានុភាព": 6528,
      "▁សញ្ញាប": 6529,
      "▁តោន": 6530,
      "▁៨០": 6531,
      "▁ទិដ្ឋ": 6532,
      "▁43": 6533,
      "▁góc": 6534,
      "▁ជិតខាង": 6535,
      "▁huống": 6536,
      "▁បទបញ្ជា": 6537,
      "បង្រួម": 6538,
      "▁ប្រយោជន៍": 6539,
      "ស្រុក": 6540,
      "ុះឡើង": 6541,
      "ន្លែង": 6542,
      "▁ភាពជ": 6543,
      "តិយភូមិ": 6544,
      "▁តុល្យភាព": 6545,
      "▁ទុតិយភូមិ": 6546,
      "▁និទាឃ": 6547,
      "▁Tim": 6548,
      "▁ហ្វី": 6549,
      "៊ីល": 6550,
      "▁52": 6551,
      "▁អ្នកដឹកនាំ": 6552,
      "▁Khmer": 6553,
      "▁And": 6554,
      "▁ព្យាយាម": 6555,
      "ាវរីយ៍": 6556,
      "RI": 6557,
      "mit": 6558,
      "▁Được": 6559,
      "▁Kr": 6560,
      "▁ប្រវត្តិសាស្រ្ត": 6561,
      "▁ផ្ដោត": 6562,
      "▁ពាក់កណ្តាល": 6563,
      "▁Brunei": 6564,
      "▁កាយវិការ": 6565,
      "អំណរគុណ": 6566,
      "▁Dư": 6567,
      "esa": 6568,
      "▁ការកែល": 6569,
      "ួបបង្រួម": 6570,
      "▁ឥណ្ឌូន": 6571,
      "berg": 6572,
      "▁ចម្រុះ": 6573,
      "tt": 6574,
      "ឃាត់": 6575,
      "▁khơi": 6576,
      "▁ស្រូវ": 6577,
      "▁អេឡិចត្រូនិច": 6578,
      "▁ខ្ចី": 6579,
      "▁ឥណ្ឌូនេស៊ី": 6580,
      "la": 6581,
      "res": 6582,
      "▁Ú": 6583,
      "▁hè": 6584,
      "▁Lưu": 6585,
      "▁សម្គាល់": 6586,
      "our": 6587,
      "▁Mich": 6588,
      "▁បណ្តាលឱ្យ": 6589,
      "▁វឌ្ឍនភាព": 6590,
      "▁ស្រូបយក": 6591,
      "ទស្សន៍": 6592,
      "​​": 6593,
      "▁trai": 6594,
      "▁rèn": 6595,
      "▁ការជឿ": 6596,
      "▁មហាសាមគ្គី": 6597,
      "▁សាធារណះ": 6598,
      "▁គោលជំហរ": 6599,
      "▁ម៉ាឡេស៊ី": 6600,
      "▁f": 6601,
      "▁Thể": 6602,
      "▁Ngo": 6603,
      "▁lệch": 6604,
      "BC": 6605,
      "DP": 6606,
      "▁vong": 6607,
      "▁lắp": 6608,
      "▁Hương": 6609,
      "▁Kon": 6610,
      "ាចរ": 6611,
      "ផ្អែក": 6612,
      "▁Mad": 6613,
      "ឹងផ្អែក": 6614,
      "▁ហ្ស": 6615,
      "OA": 6616,
      "zil": 6617,
      "ទំព័រ": 6618,
      "▁tàng": 6619,
      "▁tòa": 6620,
      "▁បន្ស": 6621,
      "ោះអាសន្ន": 6622,
      "▁Mức": 6623,
      "▁ទីស": 6624,
      "▁អ្នកនាំ": 6625,
      "▁web": 6626,
      "▁ចក្រភព": 6627,
      "ពង្រាយ": 6628,
      "AI": 6629,
      "សរសើរ": 6630,
      "ោបាយ": 6631,
      "▁đài": 6632,
      "▁ស្គាល់": 6633,
      "▁លឿង": 6634,
      "ឹង្សា": 6635,
      "▁Sch": 6636,
      "▁Sài": 6637,
      "▁សេចក្តីស": 6638,
      "▁Cuối": 6639,
      "▁ថ្លែងអំណរគុណ": 6640,
      "▁បេសកកម្ម": 6641,
      "▁កម្មសិទ្ធិ": 6642,
      "កស": 6643,
      "▁Brazil": 6644,
      "▁ធុរកិច្ច": 6645,
      "▁សតិ": 6646,
      "▁Phủ": 6647,
      "▁ក៏ដូចជា": 6648,
      "▁វិបុល": 6649,
      "▁កំពង់ផែ": 6650,
      "▁đứa": 6651,
      "▁ប្ដ": 6652,
      "▁chở": 6653,
      "▁ការណ៍": 6654,
      "▁ពន្យ": 6655,
      "▁Đinh": 6656,
      "▁AD": 6657,
      "▁AMM": 6658,
      "▁ហុង": 6659,
      "▁đoan": 6660,
      "ite": 6661,
      "▁ភូមិសាស្ត្រ": 6662,
      "មហ": 6663,
      "▁ពេក": 6664,
      "ាតបង់": 6665,
      "ilk": 6666,
      "▁ងាយ": 6667,
      "▁គេហទំព័រ": 6668,
      "រាប": 6669,
      "▁mơ": 6670,
      "▁mặn": 6671,
      "▁dắt": 6672,
      "▁Séc": 6673,
      "▁Kiên": 6674,
      "▁Kov": 6675,
      "្ថិរភាព": 6676,
      "▁ហ៊ុន": 6677,
      "▁គណៈកម្មការ": 6678,
      "▁វិធីសាស្រ្ត": 6679,
      "សញ្ញាណ": 6680,
      "▁hụt": 6681,
      "▁អាន": 6682,
      "onia": 6683,
      "▁សំណើ": 6684,
      "▁ទ្វារ": 6685,
      "▁Catal": 6686,
      "▁ការរំលោភ": 6687,
      "combank": 6688,
      "▁trầm": 6689,
      "▁កក់": 6690,
      "▁មីស": 6691,
      "ain": 6692,
      "▁Quý": 6693,
      "▁tách": 6694,
      "▁lãng": 6695,
      "▁ចំពោះមុខ": 6696,
      "▁ចាត់តាំង": 6697,
      "▁មធ្យោបាយ": 6698,
      "▁ទូរទស្សន៍": 6699,
      "èm": 6700,
      "ផ្អ": 6701,
      "▁ngợi": 6702,
      "្យូ": 6703,
      "កម្មាធិការ": 6704,
      "▁Sun": 6705,
      "▁ធេង": 6706,
      "▁៩០": 6707,
      "▁អនុស្សាវរីយ៍": 6708,
      "▁ឆ្លុះបញ្ចាំង": 6709,
      "▁អ្នកយកព័ត៌មាន": 6710,
      "▁កុំ": 6711,
      "▁Tin": 6712,
      "▁ម្ដ": 6713,
      "▁Ví": 6714,
      "▁ពុំ": 6715,
      "▁Lần": 6716,
      "▁១៩៤": 6717,
      "▁ខុសត្រូវ": 6718,
      "▁អត្តសញ្ញាណ": 6719,
      "▁វិបុលភាព": 6720,
      "▁នេសាទ": 6721,
      "▁ក្ដី": 6722,
      "▁Cả": 6723,
      "▁Mở": 6724,
      "▁ស្តាប់": 6725,
      "▁Trị": 6726,
      "ាក់ផ្អ": 6727,
      "▁ទំនួល": 6728,
      "▁02": 6729,
      "▁បុរ": 6730,
      "▁David": 6731,
      "▁ស្ពាន": 6732,
      "បំបាត់": 6733,
      "▁Gaza": 6734,
      "រា": 6735,
      "▁thùng": 6736,
      "▁កិត្ត": 6737,
      "▁អ្នកគ្រូ": 6738,
      "orn": 6739,
      "▁ឯកទេស": 6740,
      "▁ហ្វីលី": 6741,
      "ric": 6742,
      "មា": 6743,
      "▁សុក្រ": 6744,
      "▁Làm": 6745,
      "▁Saudi": 6746,
      "▁ឧត្តមភាព": 6747,
      "▁កសិផល": 6748,
      "សាន្ត": 6749,
      "ជម្នះ": 6750,
      "▁lật": 6751,
      "▁Tối": 6752,
      "▁រុងរឿង": 6753,
      "▁ថែរក្សា": 6754,
      "្វេ": 6755,
      "▁Gòn": 6756,
      "ពីន": 6757,
      "▁2006": 6758,
      "▁ការជម្រ": 6759,
      "▁គណះ": 6760,
      "▁Mark": 6761,
      "និយម": 6762,
      "▁Theresa": 6763,
      "ាក់ផ្អើល": 6764,
      "▁ន៏": 6765,
      "▁រាជ": 6766,
      "▁Thụy": 6767,
      "▁ស្ថានទូត": 6768,
      "▁ការសម្របសម្រួល": 6769,
      "▁ការរួមចំណែក": 6770,
      "TN": 6771,
      "of": 6772,
      "▁!": 6773,
      "▁Tinh": 6774,
      "វត្តន៍": 6775,
      "ទុកចិត្ត": 6776,
      "▁ជ័យជម្នះ": 6777,
      "▁សវនកម្ម": 6778,
      "ស្មាន": 6779,
      "▁p": 6780,
      "▁đạn": 6781,
      "▁hàm": 6782,
      "▁Cảnh": 6783,
      "្ស័យ": 6784,
      "▁Moham": 6785,
      "▁លំដាប់ថ្នាក់": 6786,
      "▁កាហ្វេ": 6787,
      "▁BHXH": 6788,
      "▁ពង្រាង": 6789,
      "▁ហ្វីលីពីន": 6790,
      "▁ការជម្រុញ": 6791,
      "▁ជៀសវាង": 6792,
      "▁លោកគ្រូ": 6793,
      "▁ពីមុន": 6794,
      "▁Seoul": 6795,
      "▁ទាញយក": 6796,
      "▁Kovind": 6797,
      "▁មីស៊ីល": 6798,
      "Ph": 6799,
      "ved": 6800,
      "ពើ": 6801,
      "▁សេស": 6802,
      "▁Tỷ": 6803,
      "▁ថែទាំ": 6804,
      "▁Chau": 6805,
      "▁Lib": 6806,
      "ers": 6807,
      "▁សមាជ": 6808,
      "េតនា": 6809,
      "▁ការទិញ": 6810,
      "▁អូសបន្ល": 6811,
      "យ័ត្ន": 6812,
      "gar": 6813,
      "▁mâu": 6814,
      "▁Đổi": 6815,
      "▁ហ្គ": 6816,
      "▁ការបំព": 6817,
      "▁សង្កាត់": 6818,
      "▁បុរាណ": 6819,
      "▁អូសបន្លាយ": 6820,
      "▁លែង": 6821,
      "▁Bul": 6822,
      "▁Mọi": 6823,
      "▁47": 6824,
      "▁ការបញ្ច": 6825,
      "▁មុខងារ": 6826,
      "▁ទីកន្លែង": 6827,
      "▁châm": 6828,
      "▁Tương": 6829,
      "ៃគូរ": 6830,
      "▁Abd": 6831,
      "▁lưỡng": 6832,
      "▁dao": 6833,
      "▁phim": 6834,
      "▁រឺ": 6835,
      "▁Bus": 6836,
      "ព័រណ៍": 6837,
      "▁១៩៩២": 6838,
      "ប័ត្រ": 6839,
      "▁Medved": 6840,
      "eg": 6841,
      "បង្": 6842,
      "រូប": 6843,
      "ស៊": 6844,
      "▁lừa": 6845,
      "▁Riêng": 6846,
      "▁៣០០": 6847,
      "▁តម្រង់": 6848,
      "▁đau": 6849,
      "▁chiếu": 6850,
      "▁Trí": 6851,
      "ona": 6852,
      "វិមាន": 6853,
      "▁អនុវិទ្យាល័យ": 6854,
      "▁44": 6855,
      "▁Rom": 6856,
      "ោតសរសើរ": 6857,
      "▁ជ្រើស": 6858,
      "▁Huế": 6859,
      "▁សាជីវកម្ម": 6860,
      "ពិភាក្សា": 6861,
      "ដោះ": 6862,
      "័ណ្ណ": 6863,
      "▁Nath": 6864,
      "▁គូ": 6865,
      "▁rắn": 6866,
      "▁បង្គ": 6867,
      "▁តាមដាន": 6868,
      "▁ភាពងាយស្រួល": 6869,
      "▁វាយប្រហារ": 6870,
      "▁កែសម្រួល": 6871,
      "▁នាវាចរណ៍": 6872,
      "ub": 6873,
      "▁tồi": 6874,
      "▁đậm": 6875,
      "▁lạ": 6876,
      "▁សន្ល": 6877,
      "▁ស្កាត់": 6878,
      "▁54": 6879,
      "▁ការបង្រៀន": 6880,
      "▁85": 6881,
      "▁2007": 6882,
      "▁Huỳnh": 6883,
      "▁ការសម្រេចចិត្ត": 6884,
      "វិទ្យាសាស្ត្រ": 6885,
      "▁Medvedev": 6886,
      "▁trân": 6887,
      "▁bia": 6888,
      "▁Kur": 6889,
      "▁២០៣០": 6890,
      "▁Ir": 6891,
      "▁El": 6892,
      "▁កិច្ចសន្ទនា": 6893,
      "▁hoàng": 6894,
      "usal": 6895,
      "▁Cuu": 6896,
      "▁COP": 6897,
      "▁đắc": 6898,
      "▁lề": 6899,
      "▁Tạo": 6900,
      "▁mê": 6901,
      "▁CE": 6902,
      "▁Đắk": 6903,
      "▁Oly": 6904,
      "▁CLM": 6905,
      "ច្រ": 6906,
      "ាដា": 6907,
      "▁Cô": 6908,
      "▁BRI": 6909,
      "▁Go": 6910,
      "▁អាហារូប": 6911,
      "▁Sudan": 6912,
      "▁សប្បាយ": 6913,
      "▁sụt": 6914,
      "▁Hi": 6915,
      "▁Az": 6916,
      "▁យឺត": 6917,
      "ទីន": 6918,
      "▁ឥស្លាម": 6919,
      "▁Wal": 6920,
      "▁Cuong": 6921,
      "▁Joe": 6922,
      "▁Olymp": 6923,
      "រក្ស": 6924,
      "▁រ៉ែ": 6925,
      "▁រង់ចាំ": 6926,
      "ាកស្រុក": 6927,
      "▁ជឿនលឿន": 6928,
      "▁Dịch": 6929,
      "▁ការបញ្ជា": 6930,
      "▁ព្រួយបារម្ភ": 6931,
      "▁បណ្ដុះបណ្ដាល": 6932,
      "PF": 6933,
      "តវិមាន": 6934,
      "▁bách": 6935,
      "▁វីរ": 6936,
      "▁ក្រហ": 6937,
      "▁សេតវិមាន": 6938,
      "▁Thủy": 6939,
      "▁ឆ្នេរសមុទ្រ": 6940,
      "ឯក": 6941,
      "▁បក្ខ": 6942,
      "▁Tùng": 6943,
      "▁Hang": 6944,
      "▁សមត្ថកិច្ច": 6945,
      "▁ភ្លឺ": 6946,
      "▁កាណាដា": 6947,
      "▁Na": 6948,
      "▁ដាណ": 6949,
      "▁មោទ": 6950,
      "▁ថ្ម": 6951,
      "▁Nguồn": 6952,
      "▁Phùng": 6953,
      "▁Xô": 6954,
      "▁ម៉ឺង": 6955,
      "▁ការស្រុះ": 6956,
      "ផ្ដុំ": 6957,
      "▁bám": 6958,
      "▁báu": 6959,
      "▁គម": 6960,
      "▁គម្ល": 6961,
      "▁gián": 6962,
      "▁ចំណាកស្រុក": 6963,
      "▁Jae": 6964,
      "▁កាន់កាប់": 6965,
      "▁រូបិយប័ណ្ណ": 6966,
      "usalem": 6967,
      "៉ូ": 6968,
      "▁Nó": 6969,
      "▁ទម្ល": 6970,
      "▁Cl": 6971,
      "ina": 6972,
      "ondon": 6973,
      "▁51": 6974,
      "▁២០១០": 6975,
      "▁ការប្រលង": 6976,
      "atar": 6977,
      "▁Bank": 6978,
      "▁ក្លែង": 6979,
      "▁ឈានចូល": 6980,
      "▁រលក": 6981,
      "បត្រ": 6982,
      "▁đế": 6983,
      "▁បែងចែក": 6984,
      "▁ស្នាក់": 6985,
      "▁dày": 6986,
      "▁Cr": 6987,
      "▁ថោក": 6988,
      "ំនៅ": 6989,
      "▁Khanh": 6990,
      "▁ការពិនិត្យ": 6991,
      "▁សុខុម": 6992,
      "▁“Nh": 6993,
      "▁អ៊ិនធ": 6994,
      "▁ក្រហម": 6995,
      "▁គម្លាត": 6996,
      "▁phường": 6997,
      "▁ចង": 6998,
      "▁Bệnh": 6999,
      "▁បន្តិច": 7000,
      "▁Nghĩa": 7001,
      "▁ការផ្សព្វផ្សាយ": 7002,
      "▁Jerusalem": 7003,
      "ud": 7004,
      "▁“đ": 7005,
      "▁ការផ្គត់ផ្គង់": 7006,
      "▁ក្រុមប្រឹក្ស": 7007,
      "▁ការខូចខាត": 7008,
      "dech": 7009,
      "▁Geneva": 7010,
      "អាវុធ": 7011,
      "▁kèm": 7012,
      "▁niêm": 7013,
      "▁quên": 7014,
      "▁63": 7015,
      "▁ប្រកាន់": 7016,
      "▁Xuất": 7017,
      "▁ស្តារ": 7018,
      "ក៏": 7019,
      "ដែង": 7020,
      "សាំង": 7021,
      "ិកតា": 7022,
      "▁វិញ្ញាប": 7023,
      "▁ស្នេ": 7024,
      "▁ការរៀន": 7025,
      "▁សក្ដ": 7026,
      "▁ការចាប់ផ្តើម": 7027,
      "▁វេជ្ជសាស្ត្រ": 7028,
      "▁ការឆ្លើយ": 7029,
      "▁កិត្តិយ": 7030,
      "▁Bulgar": 7031,
      "▁thôi": 7032,
      "▁ស្ង": 7033,
      "▁Đường": 7034,
      "▁បានជា": 7035,
      "▁ជំព": 7036,
      "▁គួរអោយ": 7037,
      "ahu": 7038,
      "▁អ៊ីនធឺណិត": 7039,
      "▁Samdech": 7040,
      "▁ស្បៀងអាហារ": 7041,
      "ចាយ": 7042,
      "▁សហជីព": 7043,
      "▁វាយតំលៃ": 7044,
      "▁សណ្តាប់ធ្នាប់": 7045,
      "▁វិញ្ញាបន": 7046,
      "▁Bulgaria": 7047,
      "to": 7048,
      "▁Col": 7049,
      "▁Cast": 7050,
      "▁របត់": 7051,
      "▁រីករាយ": 7052,
      "▁ប្រហែលជា": 7053,
      "ũa": 7054,
      "▁sắt": 7055,
      "▁រឹ": 7056,
      "▁Mối": 7057,
      "▁Chia": 7058,
      "▁Sĩ": 7059,
      "▁សំរេច": 7060,
      "▁Catalonia": 7061,
      "▁សេសសល់": 7062,
      "ma": 7063,
      "rov": 7064,
      "ដៀង": 7065,
      "▁Động": 7066,
      "▁APPF": 7067,
      "▁loạn": 7068,
      "▁Ali": 7069,
      "▁ផ្សារភ្ជាប់": 7070,
      "▁ការពិភាក្សា": 7071,
      "▁ខ្ពង់រាប": 7072,
      "▁សុខុមាលភាព": 7073,
      "▁កិត្តិយស": 7074,
      "ឡារ": 7075,
      "▁Hình": 7076,
      "▁Qatar": 7077,
      "▁khoan": 7078,
      "▁មកវិញ": 7079,
      "▁រំលោភបំពាន": 7080,
      "ដាប់អាវុធ": 7081,
      "▁đốt": 7082,
      "្រោះ": 7083,
      "▁thô": 7084,
      "▁bây": 7085,
      "▁bão": 7086,
      "▁Bor": 7087,
      "▁2000": 7088,
      "▁“S": 7089,
      "▁លើកលែង": 7090,
      "▁ស្រដៀង": 7091,
      "▁Fed": 7092,
      "▁Phuong": 7093,
      "ម៉ាត់": 7094,
      "▁ផ្ទុយទៅ": 7095,
      "▁សន្លឹក": 7096,
      "▁Trinh": 7097,
      "ម្មតា": 7098,
      "▁ហិកតា": 7099,
      "▁ឧក្រិដ្ឋ": 7100,
      "▁ការចែក": 7101,
      "▁ប្រឆាំងជំទាស់": 7102,
      "▁ពន្លឿន": 7103,
      "នៈ": 7104,
      "ផ្ល": 7105,
      "▁Ư": 7106,
      "▁thắn": 7107,
      "▁បំ": 7108,
      "▁bữa": 7109,
      "▁mạo": 7110,
      "▁giam": 7111,
      "▁ថត": 7112,
      "▁Thiện": 7113,
      "▁ខ្យ": 7114,
      "▁“B": 7115,
      "▁បញ្ចេញ": 7116,
      "ហ្សង់": 7117,
      "▁Loan": 7118,
      "▁សតិអារម្មណ៍": 7119,
      "▁hẹn": 7120,
      "▁bắc": 7121,
      "▁ជាប្រ": 7122,
      "▁BID": 7123,
      "▁London": 7124,
      "▁ស្រាប់": 7125,
      "▁ការស្ទង់": 7126,
      "▁log": 7127,
      "OSAI": 7128,
      "▁Johnson": 7129,
      "iz": 7130,
      "pp": 7131,
      "ទះ": 7132,
      "▁dâng": 7133,
      "▁ទុំ": 7134,
      "▁ទំព័រ": 7135,
      "ម្ព": 7136,
      "▁Trịnh": 7137,
      "▁Thang": 7138,
      "▁39": 7139,
      "▁53": 7140,
      "▁ឧសភា": 7141,
      "▁ពិគ្រោះយោបល់": 7142,
      "▁ភស្ត": 7143,
      "▁បុរស": 7144,
      "▁សង្កេត": 7145,
      "▁វេទិការ": 7146,
      "istics": 7147,
      "▁បាតុកម្ម": 7148,
      "▁អំពើហឹង្សា": 7149,
      "▁ម៉ឺងម៉ាត់": 7150,
      "iel": 7151,
      "ណេ": 7152,
      "និក": 7153,
      "័ន្ទ": 7154,
      "័គ្រ": 7155,
      "▁ប្អូន": 7156,
      "▁trục": 7157,
      "▁chứa": 7158,
      "▁Lạng": 7159,
      "▁សារាចរ": 7160,
      "▁១៩៥": 7161,
      "▁Castro": 7162,
      "យ៉": 7163,
      "▁gay": 7164,
      "▁rao": 7165,
      "▁Ly": 7166,
      "ក្រម": 7167,
      "តបន្ត": 7168,
      "▁đũa": 7169,
      "▁សុន": 7170,
      "▁mái": 7171,
      "▁ភាពខុស": 7172,
      "▁1995": 7173,
      "▁ពិនិត្យមើល": 7174,
      "តបន្តឹង": 7175,
      "ea": 7176,
      "ៀរ": 7177,
      "▁loài": 7178,
      "▁chảy": 7179,
      "▁sợ": 7180,
      "▁mai": 7181,
      "▁gắt": 7182,
      "▁វិនិច្ឆ័យ": 7183,
      "▁AR": 7184,
      "▁យ៉ាងម៉": 7185,
      "▁ឈាម": 7186,
      "▁៣៦": 7187,
      "▁ទូទាត់": 7188,
      "ហោះហើរ": 7189,
      "▁ចរាចរណ៍": 7190,
      "▁Netany": 7191,
      "▁សឹង្ហបុរី": 7192,
      "▁យ៉ាងម៉េច": 7193,
      "▁ការណែនាំ": 7194,
      "▁ASOSAI": 7195,
      "▁ហាមឃាត់": 7196,
      "ព្ធ": 7197,
      "ỡi": 7198,
      "▁trà": 7199,
      "្លាយ": 7200,
      "▁Shi": 7201,
      "▁họa": 7202,
      "▁42": 7203,
      "▁ភោ": 7204,
      "▁នាំមុខ": 7205,
      "▁អចិន្រ្ត": 7206,
      "▁មោទនភាព": 7207,
      "▁tràn": 7208,
      "▁Tau": 7209,
      "▁ដៃគូរ": 7210,
      "▁Vung": 7211,
      "▁Bạn": 7212,
      "▁បង្ហោះ": 7213,
      "▁56": 7214,
      "▁បឋមសិក្សា": 7215,
      "▁Francois": 7216,
      "▁điển": 7217,
      "▁kiểu": 7218,
      "▁អត់": 7219,
      "▁khánh": 7220,
      "▁ប្រារ": 7221,
      "▁Đa": 7222,
      "▁Er": 7223,
      "▁yết": 7224,
      "▁ហូឡង់": 7225,
      "▁Hue": 7226,
      "រប": 7227,
      "▁cậu": 7228,
      "▁ជាមុន": 7229,
      "▁05": 7230,
      "▁ការអនុវត្តន៍": 7231,
      "▁បោះពុ": 7232,
      "ier": 7233,
      "តេស្ត": 7234,
      "▁bù": 7235,
      "▁khô": 7236,
      "▁ប្រណាំង": 7237,
      "▁Địa": 7238,
      "▁ធម្មនុញ្ញ": 7239,
      "end": 7240,
      "▁UP": 7241,
      "▁ឡាន": 7242,
      "▁toả": 7243,
      "▁ថវិការ": 7244,
      "▁ភោជន": 7245,
      "IC": 7246,
      "▁នគ": 7247,
      "▁ចម្ង": 7248,
      "▁ru": 7249,
      "▁Thảo": 7250,
      "▁Dien": 7251,
      "▁ទាំង២": 7252,
      "▁រួមបញ្ចូល": 7253,
      "▁អស្ថិរភាព": 7254,
      "សង្គ្រោះ": 7255,
      "▁BRICS": 7256,
      "guel": 7257,
      "ron": 7258,
      "ưỡi": 7259,
      "តួច": 7260,
      "ូណ": 7261,
      "▁nhãn": 7262,
      "▁អូ": 7263,
      "ាំពារ": 7264,
      "▁ជួញដូរ": 7265,
      "▁Ngữ": 7266,
      "ាចក្រ": 7267,
      "▁បញ្ចូល": 7268,
      "▁សង្គ្រោះ": 7269,
      "▁Miguel": 7270,
      "្មត់ចត់": 7271,
      "▁dịu": 7272,
      "ខ្ស": 7273,
      "ជែក": 7274,
      "ទៀត": 7275,
      "យាន": 7276,
      "▁com": 7277,
      "▁nhậm": 7278,
      "▁Nền": 7279,
      "▁ដែក": 7280,
      "▁រៀប": 7281,
      "▁ពឹងផ្អែក": 7282,
      "▁Bước": 7283,
      "▁Thuy": 7284,
      "▁Kỹ": 7285,
      "▁ទី៣": 7286,
      "▁បណ្ដាញ": 7287,
      "▁ពាណិជ្ជសញ្ញា": 7288,
      "▁Hungary": 7289,
      "▁ជ្រើសតាំង": 7290,
      "▁បក្ខជន": 7291,
      "▁ភោជនីយដ្ឋាន": 7292,
      "▁សាម": 7293,
      "▁ជាស": 7294,
      "▁Thậm": 7295,
      "រណេត": 7296,
      "▁សម័យកាល": 7297,
      "▁សេចក្ដីថ្លែងការណ៍": 7298,
      "FP": 7299,
      "រវ": 7300,
      "▁trùng": 7301,
      "▁lỏng": 7302,
      "▁cháy": 7303,
      "▁សី": 7304,
      "▁MB": 7305,
      "▁អ្នកល": 7306,
      "ប្រតិបត្តិ": 7307,
      "▁ការស្វែង": 7308,
      "▁៥៥": 7309,
      "ូស្គ": 7310,
      "្តិ៍": 7311,
      "▁Thoả": 7312,
      "▁Ireland": 7313,
      "ន៌": 7314,
      "ពិត": 7315,
      "▁hằng": 7316,
      "▁ស្នា": 7317,
      "▁Năng": 7318,
      "▁គន្ល": 7319,
      "▁SG": 7320,
      "▁អាហ្សង់": 7321,
      "▁ចំណាប់": 7322,
      "▁95": 7323,
      "▁តំណាងរ": 7324,
      "▁សិល្បៈ": 7325,
      "▁ការព្យាករណ៍": 7326,
      "ey": 7327,
      "ពក": 7328,
      "▁dám": 7329,
      "▁Nâng": 7330,
      "▁Vo": 7331,
      "▁Nghi": 7332,
      "▁យី": 7333,
      "▁ធៀប": 7334,
      "▁កិច្ចពិភាក្សា": 7335,
      "▁ស្ថានីយ៍": 7336,
      "úy": 7337,
      "▁tân": 7338,
      "▁Chile": 7339,
      "▁មុននឹង": 7340,
      "ិច្ឆ": 7341,
      "▁Mike": 7342,
      "▁Libya": 7343,
      "▁Netanyahu": 7344,
      "▁នគរ": 7345,
      "▁ស្នាដៃ": 7346,
      "▁Toà": 7347,
      "▁khổng": 7348,
      "▁ចំហ": 7349,
      "ុងប្រ": 7350,
      "▁នៅសល់": 7351,
      "▁Ku": 7352,
      "▁ហ្មត់ចត់": 7353,
      "ក្រតី": 7354,
      "▁ចូលមក": 7355,
      "orona": 7356,
      "▁ដំណើការ": 7357,
      "▁ស្បែកជើង": 7358,
      "័គ្រចិត្ត": 7359,
      "▁សុន្ទ": 7360,
      "▁អចិន្រ្តៃយ៍": 7361,
      "▁ចម្ងាយ": 7362,
      "▁កំ": 7363,
      "▁មត្ត": 7364,
      "▁Phần": 7365,
      "▁ហាក់": 7366,
      "▁46": 7367,
      "▁ហើយក៏": 7368,
      "▁ការកែទម្រង់": 7369,
      "▁ទីស្នាក់": 7370,
      "oon": 7371,
      "ដាយ": 7372,
      "▁lồ": 7373,
      "▁nhạc": 7374,
      "▁Pa": 7375,
      "▁ស្ថាបនា": 7376,
      "▁ប្រមូលផ្ដុំ": 7377,
      "▁Úc": 7378,
      "រាជា": 7379,
      "▁CLMV": 7380,
      "▁ការឆ្លើយតប": 7381,
      "ណាចក្រ": 7382,
      "ំឡើង": 7383,
      "▁ôn": 7384,
      "▁lầm": 7385,
      "▁blog": 7386,
      "▁NQ": 7387,
      "▁ទង្វ": 7388,
      "▁មាន់": 7389,
      "▁ភាពរ": 7390,
      "▁99": 7391,
      "▁គ្រោះអាសន្ន": 7392,
      "▁ការវិវឌ្ឍ": 7393,
      "▁សុន្ទរកថា": 7394,
      "eh": 7395,
      "tor": 7396,
      "អាត": 7397,
      "▁tắt": 7398,
      "▁ប្តេជ្ញាចិត្ត": 7399,
      "▁gũi": 7400,
      "▁ទោស": 7401,
      "▁ថ្ន": 7402,
      "ិតៀន": 7403,
      "▁គំរាមកំហែង": 7404,
      "▁Canel": 7405,
      "▁ព្រះរាជា": 7406,
      "បរមា": 7407,
      "ស្អាត": 7408,
      "▁Latinh": 7409,
      "▁អាហ្សង់ទីន": 7410,
      "ុងប្រយ័ត្ន": 7411,
      "AD": 7412,
      "▁vời": 7413,
      "▁សួន": 7414,
      "▁mưa": 7415,
      "ania": 7416,
      "▁Hậu": 7417,
      "▁Giới": 7418,
      "▁អាកាសយាន": 7419,
      "▁Thien": 7420,
      "▁តិចតួច": 7421,
      "សម័យ": 7422,
      "▁Arabia": 7423,
      "▁Jean": 7424,
      "▁មត្តេយ្យ": 7425,
      "do": 7426,
      "▁ដណ្ត": 7427,
      "▁១៩៦": 7428,
      "▁ការបង្ការ": 7429,
      "▁ការជឿទុកចិត្ត": 7430,
      "បណ្ឌិត": 7431,
      "▁i": 7432,
      "▁Be": 7433,
      "▁Mat": 7434,
      "ំរេច": 7435,
      "▁បំផ្លាញ": 7436,
      "lines": 7437,
      "▁២០០៩": 7438,
      "▁ស្ដារ": 7439,
      "▁Kurd": 7440,
      "▁ក្ដ": 7441,
      "▁ឆមាស": 7442,
      "្បាយ": 7443,
      "▁Huệ": 7444,
      "ហ្គានីស្ថាន": 7445,
      "▁កែលំអរ": 7446,
      "▁ARF": 7447,
      "▁ទីស្នាក់ការ": 7448,
      "xico": 7449,
      "▁បូក": 7450,
      "▁nỗi": 7451,
      "▁mỹ": 7452,
      "▁Hỗ": 7453,
      "▁Đội": 7454,
      "▁ឆន្ទៈ": 7455,
      "▁IE": 7456,
      "▁៧៥": 7457,
      "▁អ៊ឺរ៉": 7458,
      "▁Mexico": 7459,
      "▁របៀបវ": 7460,
      "▁សន្ទុះ": 7461,
      "▁ជាប្រចាំ": 7462,
      "ូស្គូ": 7463,
      "TS": 7464,
      "ji": 7465,
      "▁Nor": 7466,
      "▁Danh": 7467,
      "▁Dmit": 7468,
      "▁៣២": 7469,
      "▁សារធាតុ": 7470,
      "▁អ៊ិនធរណេត": 7471,
      "▁កំឡុង": 7472,
      "▁កោតសរសើរ": 7473,
      "▁Tâm": 7474,
      "▁dược": 7475,
      "▁Nước": 7476,
      "▁មិញ": 7477,
      "emen": 7478,
      "▁Nghe": 7479,
      "ity": 7480,
      "▁ឆ្លាត": 7481,
      "▁មេដាយ": 7482,
      "▁សម្ព័ន្ធភាព": 7483,
      "ហោច": 7484,
      "ស្ទួយ": 7485,
      "▁អាកាសយានដ្ឋាន": 7486,
      "▁bảy": 7487,
      "▁dồi": 7488,
      "▁រិះគន់": 7489,
      "▁Trụ": 7490,
      "ប្រទះ": 7491,
      "▁Sal": 7492,
      "▁ធុន": 7493,
      "▁“t": 7494,
      "▁សេវា": 7495,
      "▁អ្នកជ": 7496,
      "ូម៉ែ": 7497,
      "▁ទស្សនវិស័យ": 7498,
      "▁រុក្ខ": 7499,
      "▁យីហោ": 7500,
      "▁ទង្វើ": 7501,
      "តែង": 7502,
      "ាជ្ញ": 7503,
      "▁ảo": 7504,
      "▁កង្វ": 7505,
      "▁សណ្ដ": 7506,
      "▁Loc": 7507,
      "▁Phụ": 7508,
      "▁cuốn": 7509,
      "▁ស្រទ": 7510,
      "▁JCP": 7511,
      "ិយា": 7512,
      "▁Huynh": 7513,
      "▁មេរោគ": 7514,
      "▁ព្រះរាជាណាចក្រ": 7515,
      "▁JCPOA": 7516,
      "CCI": 7517,
      "ផុត": 7518,
      "▁móc": 7519,
      "▁Hiển": 7520,
      "▁Đất": 7521,
      "▁Đẩy": 7522,
      "▁Ngành": 7523,
      "▁មាន៖": 7524,
      "▁Sai": 7525,
      "▁chuộng": 7526,
      "asc": 7527,
      "▁ការកែ": 7528,
      "▁គណនី": 7529,
      "▁ជួបប្រទះ": 7530,
      "▁សម្លាប់": 7531,
      "៊ុយ": 7532,
      "▁អភិបាល": 7533,
      "▁Han": 7534,
      "▁58": 7535,
      "▁Shang": 7536,
      "▁Italy": 7537,
      "▁ផ្អាក": 7538,
      "▁អាហារូបករណ៍": 7539,
      "TV": 7540,
      "jan": 7541,
      "ទាក់ទ": 7542,
      "▁ប្រលង": 7543,
      "▁Vov": 7544,
      "▁ការផលិត": 7545,
      "▁Bách": 7546,
      "▁អាជីវ": 7547,
      "▁top": 7548,
      "▁គតិយុត្តិ": 7549,
      "▁Olympic": 7550,
      "ខ្សោយ": 7551,
      "▁រោគ": 7552,
      "▁rác": 7553,
      "▁Mạch": 7554,
      "ែលហ្ស": 7555,
      "▁អ្នកវិទ្យាសាស្ត្រ": 7556,
      "▁ដំណឹង": 7557,
      "ត្បិត": 7558,
      "▁សុពល": 7559,
      "▁យល់ដឹង": 7560,
      "▁រីឯ": 7561,
      "ដំណឹង": 7562,
      "ឹត្យ": 7563,
      "▁Airlines": 7564,
      "▁អ្នកនាំពាក្យ": 7565,
      "ូម៉ែត្រ": 7566,
      "ណាស់": 7567,
      "▁ẩm": 7568,
      "▁canh": 7569,
      "▁ngọt": 7570,
      "▁ប្រាកដ": 7571,
      "▁គរ": 7572,
      "ិករ": 7573,
      "▁cua": 7574,
      "▁សម្រួល": 7575,
      "ង្គល": 7576,
      "▁យ៉ាងហោច": 7577,
      "▁73": 7578,
      "▁សម្ដៅ": 7579,
      "▁វប្បធម៍": 7580,
      "▁ទ្រឹស": 7581,
      "▁ព្យាបាល": 7582,
      "▁យន្តការសហប្រតិបត្តិការ": 7583,
      "▁វិធីសាស្ត្រ": 7584,
      "▁Kiev": 7585,
      "▁BIDV": 7586,
      "▁Dmitry": 7587,
      "▁ស្រទាប់": 7588,
      "ីភាព": 7589,
      "▁nhánh": 7590,
      "▁Ts": 7591,
      "▁ngầm": 7592,
      "្នូ": 7593,
      "▁Sư": 7594,
      "▁Khách": 7595,
      "▁67": 7596,
      "▁120": 7597,
      "▁កិច្ចការពារ": 7598,
      "▁ប្រារព្ធ": 7599,
      "ON": 7600,
      "បញ្ចប់": 7601,
      "▁tạc": 7602,
      "▁បេត": 7603,
      "▁sáp": 7604,
      "▁Manh": 7605,
      "▁ប៉ាន់": 7606,
      "▁សំល": 7607,
      "▁ឱ្យដឹង": 7608,
      "▁សុភ": 7609,
      "▁ទូរគម": 7610,
      "▁SGK": 7611,
      "▁សុពលភាព": 7612,
      "MS": 7613,
      "ណភាព": 7614,
      "▁vang": 7615,
      "▁នរណា": 7616,
      "▁gánh": 7617,
      "▁Câu": 7618,
      "▁ការឈ": 7619,
      "▁ចោទប្រកាន់": 7620,
      "▁Đan": 7621,
      "▁Pl": 7622,
      "▁Dan": 7623,
      "ens": 7624,
      "▁ទំនង": 7625,
      "▁Ria": 7626,
      "▁នាំឱ្យ": 7627,
      "▁ម៉ាក": 7628,
      "▁ដូច្នោះ": 7629,
      "▁កត់ត្រា": 7630,
      "ogan": 7631,
      "ប្ដាហ៍": 7632,
      "▁Italia": 7633,
      "▁ដណ្តើម": 7634,
      "ẫm": 7635,
      "▁gọn": 7636,
      "▁NH": 7637,
      "▁រចនា": 7638,
      "▁Hầu": 7639,
      "▁Thong": 7640,
      "▁សមូ": 7641,
      "ម្រូវ": 7642,
      "ក្រោម": 7643,
      "▁Khắc": 7644,
      "▁Vietin": 7645,
      "▁កក់ក": 7646,
      "▁គមនាគមន៍": 7647,
      "▁ស្នេហា": 7648,
      "▁ហាក់ដូចជា": 7649,
      "▁អ៊ឺរ៉ុប": 7650,
      "▁đốn": 7651,
      "▁តួរ": 7652,
      "ាតត្រ": 7653,
      "▁សហប្រតិបតិ្តការ": 7654,
      "▁Alex": 7655,
      "▁ការចាប់អារម្មណ៍": 7656,
      "ដាង": 7657,
      "▁Tĩnh": 7658,
      "que": 7659,
      "▁អេក": 7660,
      "▁មិថុនា": 7661,
      "▁ឆែក": 7662,
      "▁ចូលចិត្ត": 7663,
      "▁បណ្តោះអាសន្ន": 7664,
      "▁ភាពស": 7665,
      "ideo": 7666,
      "▁Viettel": 7667,
      "▁ស្ទើរ": 7668,
      "▁វត្ថុធាតុ": 7669,
      "▁របៀបវារៈ": 7670,
      "▁សុភម": 7671,
      "ញាប់": 7672,
      "▁ការតាំង": 7673,
      "▁Trà": 7674,
      "▁“Q": 7675,
      "▁ផ្ទុះឡើង": 7676,
      "▁Yemen": 7677,
      "▁ទិដ្ឋភាព": 7678,
      "▁យ៉ាងហោចណាស់": 7679,
      "▁សមូហភាព": 7680,
      "st": 7681,
      "▁Trao": 7682,
      "▁ទេពក": 7683,
      "▁ដាក់ពង្រាយ": 7684,
      "▁ងើប": 7685,
      "▁រីករាលដាល": 7686,
      "▁ល្បី": 7687,
      "▁ញ៉": 7688,
      "▁ចំណាប់អារម្មណ៍": 7689,
      "ìa": 7690,
      "▁sổ": 7691,
      "▁សម្តេច": 7692,
      "▁ការបញ្ចប់": 7693,
      "▁គីឡូម៉ែត្រ": 7694,
      "▁បន្លែ": 7695,
      "kara": 7696,
      "ែត្រ": 7697,
      "▁nhạy": 7698,
      "▁nhựa": 7699,
      "▁Dao": 7700,
      "▁បង្ហ": 7701,
      "▁អនុគ្រោះ": 7702,
      "▁Xi": 7703,
      "erb": 7704,
      "▁ការពង្រីក": 7705,
      "▁Phóng": 7706,
      "▁huỷ": 7707,
      "▁ជាធម្មតា": 7708,
      "▁ច្រកទ្វារ": 7709,
      "▁ព្រឹទ្ធសភា": 7710,
      "▁thép": 7711,
      "▁Tô": 7712,
      "▁ចេះ": 7713,
      "ក្លាយ": 7714,
      "▁គុណសម្បត្តិ": 7715,
      "▁ការប្រកួត": 7716,
      "▁ការថែរក្សា": 7717,
      "▁កាំភ្លើង": 7718,
      "▁រឹតបន្តឹង": 7719,
      "ាតត្រដាង": 7720,
      "▁ទេពកោសល្យ": 7721,
      "LĐ": 7722,
      "kg": 7723,
      "▁trông": 7724,
      "▁tròn": 7725,
      "▁ការហ": 7726,
      "▁Đúng": 7727,
      "▁Po": 7728,
      "▁62": 7729,
      "▁72": 7730,
      "▁ការរំពឹង": 7731,
      "▁បំភ្ល": 7732,
      "▁សុភមង្គល": 7733,
      "ប្អូន": 7734,
      "▁សច្ច": 7735,
      "▁គំន": 7736,
      "▁Hill": 7737,
      "▁Quá": 7738,
      "▁Dưới": 7739,
      "▁ឆ្នើម": 7740,
      "▁57": 7741,
      "eron": 7742,
      "▁ឡុង": 7743,
      "▁Ankara": 7744,
      "▁thoáng": 7745,
      "azon": 7746,
      "▁បងប្អូន": 7747,
      "▁thơm": 7748,
      "▁អភិរក្ស": 7749,
      "កាយ": 7750,
      "ិដ្ឋាន": 7751,
      "▁tị": 7752,
      "▁កេរ": 7753,
      "▁អាក": 7754,
      "ភាស": 7755,
      "▁Trái": 7756,
      "▁Lang": 7757,
      "▁តាមពិត": 7758,
      "▁2005": 7759,
      "▁ទឹកដោះ": 7760,
      "▁Amazon": 7761,
      "តោ": 7762,
      "▁cắm": 7763,
      "▁nhắn": 7764,
      "▁Tín": 7765,
      "▁khái": 7766,
      "▁ជាសារ": 7767,
      "ិកភ": 7768,
      "▁Ad": 7769,
      "▁ប្រជាមតិ": 7770,
      "▁hỗn": 7771,
      "▁សហគ្រិន": 7772,
      "▁Mario": 7773,
      "▁ខ្មៅ": 7774,
      "▁ម្ដង": 7775,
      "CN": 7776,
      "ដុះ": 7777,
      "ប៊ី": 7778,
      "▁បាត់": 7779,
      "▁Lav": 7780,
      "▁ភ័ស": 7781,
      "▁ផ្តាច់": 7782,
      "▁អ៊ីស្លាម": 7783,
      "▁ឱស": 7784,
      "▁ពលំ": 7785,
      "▁ស្អិត": 7786,
      "▁ស៊ើបអង្កេត": 7787,
      "▁បំបែក": 7788,
      "▁ការស្វែងរក": 7789,
      "▁បេតិកភ": 7790,
      "▁ទូរគមនាគមន៍": 7791,
      "▁ស្ទើរតែ": 7792,
      "▁ភ័ស្ត": 7793,
      "AP": 7794,
      "sh": 7795,
      "zamb": 7796,
      "ភូវៀត": 7797,
      "ូដ": 7798,
      "▁tan": 7799,
      "▁đam": 7800,
      "▁បេ": 7801,
      "▁ស៊ូ": 7802,
      "▁ចាក់": 7803,
      "្លាន": 7804,
      "ណ្ណៈ": 7805,
      "▁លើកស្ទួយ": 7806,
      "▁Ed": 7807,
      "▁ការបន្ត": 7808,
      "▁03": 7809,
      "▁Mozamb": 7810,
      "▁ស្ទីន": 7811,
      "▁ឧក្រិដ្ឋកម្ម": 7812,
      "▁តំណាងរាស្ត្រ": 7813,
      "ris": 7814,
      "ុត្រ": 7815,
      "▁nới": 7816,
      "▁វណ្ណៈ": 7817,
      "▁Hoàn": 7818,
      "▁rửa": 7819,
      "▁Tre": 7820,
      "▁Chan": 7821,
      "ង្អ": 7822,
      "▁“D": 7823,
      "ន្តរាយ": 7824,
      "▁មនុស្សធម៌": 7825,
      "▁អឺរ៉ូ": 7826,
      "▁ខុសគ្នា": 7827,
      "▁សម្បូរបែប": 7828,
      "▁Macri": 7829,
      "▁គន្លឹះ": 7830,
      "▁lậu": 7831,
      "ានុស": 7832,
      "▁nấu": 7833,
      "▁sa": 7834,
      "▁អ័រ": 7835,
      "▁រុញ": 7836,
      "▁xá": 7837,
      "▁Mc": 7838,
      "▁AL": 7839,
      "ែតម្រូវ": 7840,
      "ា៍": 7841,
      "▁nồng": 7842,
      "▁st": 7843,
      "▁Nic": 7844,
      "▁giàn": 7845,
      "▁Hướng": 7846,
      "▁Điển": 7847,
      "▁Đạt": 7848,
      "chi": 7849,
      "េស្ទ": 7850,
      "ិនា": 7851,
      "▁Del": 7852,
      "▁ប្រជាកស": 7853,
      "▁EAS": 7854,
      "esh": 7855,
      "ិរិយា": 7856,
      "▁រូបិយវត្ថុ": 7857,
      "▁ភាពជោគជ័យ": 7858,
      "▁ភស្តុតាង": 7859,
      "▁ជាសាធារ": 7860,
      "រវើក": 7861,
      "▁អាជីវករ": 7862,
      "ភូវៀតណាម": 7863,
      "ẫy": 7864,
      "▁Căng": 7865,
      "▁Hôm": 7866,
      "▁Thiếu": 7867,
      "្លាំមើល": 7868,
      "▁“L": 7869,
      "▁Ri": 7870,
      "ation": 7871,
      "▁សិស្សានុស": 7872,
      "▁លុបបំបាត់": 7873,
      "▁ប៉ាឡេ": 7874,
      "▁ភាពខុសគ្នា": 7875,
      "LTS": 7876,
      "វៃ": 7877,
      "ឹន": 7878,
      "▁tung": 7879,
      "▁trội": 7880,
      "▁xưng": 7881,
      "ែក្លាយ": 7882,
      "▁EVN": 7883,
      "▁បរាជ័យ": 7884,
      "▁88": 7885,
      "▁បំផុស": 7886,
      "▁មហាជន": 7887,
      "▁សំបុត្រ": 7888,
      "▁រមួត": 7889,
      "▁ប្ដូរ": 7890,
      "▁ក្រុមប្រឹក្សាភិបាល": 7891,
      "▁IELTS": 7892,
      "▁សិស្សានុសិស្ស": 7893,
      "គីដ": 7894,
      "▁túi": 7895,
      "▁ការរំ": 7896,
      "▁Lắk": 7897,
      "▁hoạ": 7898,
      "▁giáp": 7899,
      "oud": 7900,
      "▁Petro": 7901,
      "សរុប": 7902,
      "▁vua": 7903,
      "▁ខ្យល់": 7904,
      "េស្ទីន": 7905,
      "▁đán": 7906,
      "▁កញ្ញា": 7907,
      "▁កណ្ដាល": 7908,
      "▁quát": 7909,
      "▁អេស": 7910,
      "▁ពូក": 7911,
      "▁ផ្ទុក": 7912,
      "▁Mosul": 7913,
      "▁ការរំពឹងទុក": 7914,
      "▁អ័រគីដ": 7915,
      "ចរ": 7916,
      "▁giết": 7917,
      "▁ម្យ": 7918,
      "▁ប្រក្រតី": 7919,
      "▁cơm": 7920,
      "▁UAE": 7921,
      "ន្លោះ": 7922,
      "▁Yong": 7923,
      "▁Cameron": 7924,
      "▁ខាងក្រោម": 7925,
      "▁ជើងហោះហើរ": 7926,
      "▁Morsi": 7927,
      "▁Erd": 7928,
      "TX": 7929,
      "▁đập": 7930,
      "▁បន្ធ": 7931,
      "▁bếp": 7932,
      "▁Mon": 7933,
      "ផ្សំ": 7934,
      "ord": 7935,
      "▁ការប្រកាស": 7936,
      "▁ដាក់ពាក្យ": 7937,
      "▁ការអនុម័ត": 7938,
      "▁“Các": 7939,
      "▁ការត្រៀម": 7940,
      "▁ព្រោះថា": 7941,
      "▁“Đây": 7942,
      "▁អ៊ីនធឺណែត": 7943,
      "▁អធិការកិច្ច": 7944,
      "▁ក្លែងក្លាយ": 7945,
      "▁ប្រជាកសិករ": 7946,
      "ឹត្តិ": 7947,
      "១០": 7948,
      "▁sót": 7949,
      "▁giãn": 7950,
      "▁Hiếu": 7951,
      "▁ពិភព": 7952,
      "▁ស្នើរ": 7953,
      "▁រហ័ស": 7954,
      "▁បង្រួបបង្រួម": 7955,
      "▁UPR": 7956,
      "▁Lavrov": 7957,
      "▁ម្យ៉ាង": 7958,
      "▁tám": 7959,
      "▁Cảng": 7960,
      "▁Cái": 7961,
      "▁ត្ប": 7962,
      "▁Tháp": 7963,
      "▁ជំរ": 7964,
      "▁ជម្នះ": 7965,
      "▁គ្រី": 7966,
      "ាធិប": 7967,
      "▁WB": 7968,
      "▁Haiy": 7969,
      "▁ឧស្សាហូបនីយកម្ម": 7970,
      "▁វិធានការណ៍": 7971,
      "▁២០០៨": 7972,
      "▁រំពឹងទុក": 7973,
      "▁បំរួល": 7974,
      "▁គតិយុត្ត": 7975,
      "assan": 7976,
      "តំណែង": 7977,
      "▁Maduro": 7978,
      "▁'": 7979,
      "▁ប្រៃ": 7980,
      "▁MS": 7981,
      "ព័ន": 7982,
      "els": 7983,
      "▁ផ្ទៀង": 7984,
      "▁huyết": 7985,
      "▁វិទ្យុ": 7986,
      "និពន្ធ": 7987,
      "▁ប៉ាឡេស្ទីន": 7988,
      "▁ឱសថ": 7989,
      "na": 7990,
      "គោ": 7991,
      "▁trứng": 7992,
      "▁គ្របដ": 7993,
      "▁đoạt": 7994,
      "▁Phuoc": 7995,
      "▁សារសំខាន់": 7996,
      "▁Modi": 7997,
      "បន្ទាន់": 7998,
      "▁ការផ្ទេរ": 7999,
      "▁Hamas": 8000,
      "▁ស្រស់ស្អាត": 8001,
      "▁Serg": 8002,
      "▁ចម្លើយ": 8003,
      "▁ឌ": 8004,
      "▁cẩn": 8005,
      "▁vắc": 8006,
      "ារីស": 8007,
      "▁គោ": 8008,
      "▁III": 8009,
      "▁ក្រុមការងារ": 8010,
      "▁Anton": 8011,
      "▁2001": 8012,
      "▁ការគំរ": 8013,
      "▁សញ្ញាបត្រ": 8014,
      "▁ថ្នាំ": 8015,
      "▁កក់ក្តៅ": 8016,
      "▁Erdogan": 8017,
      "RS": 8018,
      "ek": 8019,
      "▁÷": 8020,
      "▁cúng": 8021,
      "▁រាង": 8022,
      "▁Bol": 8023,
      "ាក់សាំង": 8024,
      "▁Chinh": 8025,
      "ប្រហ": 8026,
      "▁hoại": 8027,
      "ញ្ជាក់": 8028,
      "▁Un": 8029,
      "▁ការអញ្ជើញ": 8030,
      "▁សម្ដែង": 8031,
      "▁ជូនពរ": 8032,
      "▁អាណិក": 8033,
      "▁lận": 8034,
      "▁Ving": 8035,
      "amin": 8036,
      "▁Ak": 8037,
      "▁អ្នកណា": 8038,
      "▁ការទូ": 8039,
      "▁វ៉ាក់សាំង": 8040,
      "▁Guter": 8041,
      "▁បូរណភាព": 8042,
      "▁logistics": 8043,
      "▁ជាសាធារណៈ": 8044,
      "AC": 8045,
      "uan": 8046,
      "▁ទៀង": 8047,
      "▁ប្រែក្លាយ": 8048,
      "▁Vai": 8049,
      "ម្យ": 8050,
      "▁អ្នកតំណ": 8051,
      "▁ការទប់": 8052,
      "▁ស្ម័គ្រចិត្ត": 8053,
      "▁ការរិះគន់": 8054,
      "▁សាអ": 8055,
      "▁Macron": 8056,
      "▁សិប្ប": 8057,
      "▁ការរៀនសូត្រ": 8058,
      "▁អ្នកតំណាង": 8059,
      "NN": 8060,
      "ốp": 8061,
      "▁NN": 8062,
      "▁ចន្លោះ": 8063,
      "▁Phía": 8064,
      "▁thua": 8065,
      "▁ប៉ារីស": 8066,
      "▁68": 8067,
      "▁បណ្តឹង": 8068,
      "▁86": 8069,
      "▁ការធ្វើដំណើរ": 8070,
      "▁250": 8071,
      "▁ស្នើឲ្យ": 8072,
      "▁ផ្ដើម": 8073,
      "បំពាក់": 8074,
      "ៀកបំពាក់": 8075,
      "▁វិលត្រឡប់មក": 8076,
      "▁Shangri": 8077,
      "▁Vingroup": 8078,
      "OM": 8079,
      "wit": 8080,
      "ឡាញ": 8081,
      "▁thăng": 8082,
      "▁dào": 8083,
      "▁ngập": 8084,
      "▁គោក": 8085,
      "▁HD": 8086,
      "▁Ge": 8087,
      "▁khoáng": 8088,
      "▁បង្កឡើង": 8089,
      "▁Reu": 8090,
      "▁អាចនឹង": 8091,
      "▁ភាពច": 8092,
      "ិនិយ": 8093,
      "▁យកមក": 8094,
      "▁លេខាធិការដ្ឋាន": 8095,
      "▁ខ្វះខាត": 8096,
      "▁ការចែករំលែក": 8097,
      "▁ទឹកដោះគោ": 8098,
      "▁ការទូទាត់": 8099,
      "ique": 8100,
      "វេ": 8101,
      "វ៉ាន់": 8102,
      "▁tá": 8103,
      "▁សប្ដាហ៍": 8104,
      "▁nhiêu": 8105,
      "▁sâm": 8106,
      "▁VCCI": 8107,
      "▁CT": 8108,
      "▁ពាន": 8109,
      "▁ចៅ": 8110,
      "▁Chưa": 8111,
      "▁ការបាញ់": 8112,
      "▁ចំណី": 8113,
      "ima": 8114,
      "▁ស្មើ": 8115,
      "▁អេស្ប": 8116,
      "ជុល": 8117,
      "▁នំ": 8118,
      "▁ព្រះអ": 8119,
      "▁2022": 8120,
      "▁ផលិតភាព": 8121,
      "កាសែត": 8122,
      "▁មុខតំណែង": 8123,
      "▁ចែកចាយ": 8124,
      "▁កំហុស": 8125,
      "▁ស្នេហាជាតិ": 8126,
      "វឌ្": 8127,
      "Ứng": 8128,
      "▁long": 8129,
      "▁Viễn": 8130,
      "▁Hassan": 8131,
      "aijan": 8132,
      "▁Re": 8133,
      "ica": 8134,
      "▁សុឆ": 8135,
      "ឌីត": 8136,
      "▁ទស្សន៍": 8137,
      "▁“Ng": 8138,
      "▁ពន្យល់": 8139,
      "▁Azerb": 8140,
      "▁Azerbaijan": 8141,
      "បាក់": 8142,
      "៍មាន": 8143,
      "▁moon": 8144,
      "▁ទង់": 8145,
      "▁Độc": 8146,
      "▁ស្រឡាញ់": 8147,
      "យោគយល់": 8148,
      "ួសជុល": 8149,
      "េអូ": 8150,
      "▁ផ្កាយ": 8151,
      "lus": 8152,
      "▁buồn": 8153,
      "▁mắn": 8154,
      "▁គាំពារ": 8155,
      "▁វីដ": 8156,
      "▁Ah": 8157,
      "▁Pen": 8158,
      "▁ធ្នូ": 8159,
      "▁ក្រឡ": 8160,
      "▁97": 8161,
      "▁ការធានារ៉ាប់រង": 8162,
      "▁អនឡាញ": 8163,
      "▁អ័រគីដេ": 8164,
      "IS": 8165,
      "ĐT": 8166,
      "របរ": 8167,
      "រង្វាន់": 8168,
      "▁vấp": 8169,
      "▁than": 8170,
      "▁ngõ": 8171,
      "▁Cựu": 8172,
      "▁ចង្អ": 8173,
      "ាករ": 8174,
      "▁thuần": 8175,
      "▁អនុសាសន៍": 8176,
      "▁Id": 8177,
      "ឹកជញ្ជូន": 8178,
      "▁ដំណែង": 8179,
      "ova": 8180,
      "▁You": 8181,
      "▁Vovworld": 8182,
      "▁ពូកែ": 8183,
      "ិនិយម": 8184,
      "per": 8185,
      "▁Ứng": 8186,
      "▁chênh": 8187,
      "▁nắng": 8188,
      "▁Tờ": 8189,
      "▁mỏi": 8190,
      "▁ការយោគយល់": 8191,
      "▁xích": 8192,
      "▁Kovid": 8193,
      "ិសម": 8194,
      "▁tiếc": 8195,
      "ែកបាក់": 8196,
      "▁សំឡ": 8197,
      "▁ឈូង": 8198,
      "▁ស្វាយ": 8199,
      "▁សាច់ប្រាក់": 8200,
      "▁ព្រៃឈើ": 8201,
      "iet": 8202,
      "ត្យ": 8203,
      "សាយ": 8204,
      "▁vẽ": 8205,
      "▁trần": 8206,
      "▁សសរ": 8207,
      "▁ma": 8208,
      "▁phồn": 8209,
      "▁Vận": 8210,
      "▁“c": 8211,
      "▁វិស្វ": 8212,
      "▁ការលុប": 8213,
      "▁ការគិត": 8214,
      "▁នគរបាល": 8215,
      "▁វីដេអូ": 8216,
      "ទ័រ": 8217,
      "▁video": 8218,
      "▁ប្រាប់": 8219,
      "▁hoang": 8220,
      "▁២០០០": 8221,
      "▁ការចោទប្រកាន់": 8222,
      "▁យុគ": 8223,
      "bot": 8224,
      "lu": 8225,
      "▁cú": 8226,
      "▁đền": 8227,
      "▁ប្រជែង": 8228,
      "▁សមាស": 8229,
      "▁ភាពអ": 8230,
      "▁ជួយសង្គ្រោះ": 8231,
      "▁ខែមិនា": 8232,
      "hani": 8233,
      "▁សមរម្យ": 8234,
      "▁ជាសារវ": 8235,
      "▁Guterres": 8236,
      "វ៉ា": 8237,
      "▁kín": 8238,
      "▁chút": 8239,
      "▁móng": 8240,
      "▁ដ៍": 8241,
      "▁Cải": 8242,
      "▁គ្រា": 8243,
      "ភាគី": 8244,
      "▁កំណាត់": 8245,
      "▁thiêng": 8246,
      "▁900": 8247,
      "▁៥ឆ្នាំ": 8248,
      "▁08": 8249,
      "eda": 8250,
      "▁សេចក្ដីព្រាង": 8251,
      "▁Vuong": 8252,
      "▁Berm": 8253,
      "▁យុគសម័យ": 8254,
      "LO": 8255,
      "▁តារ": 8256,
      "▁Per": 8257,
      "▁Sis": 8258,
      "▁៣៧": 8259,
      "ess": 8260,
      "ូស៊ី": 8261,
      "▁តែងតាំង": 8262,
      "mad": 8263,
      "ស្ង": 8264,
      "▁corona": 8265,
      "▁lưng": 8266,
      "▁អើ": 8267,
      "▁khúc": 8268,
      "▁ពុទ្ធ": 8269,
      "arl": 8270,
      "េជ្ញាចិត្ត": 8271,
      "▁Boe": 8272,
      "▁HĐND": 8273,
      "▁ការកែលម្អ": 8274,
      "▁ការគំរាមកំហែង": 8275,
      "ទិដ្ឋ": 8276,
      "័ក": 8277,
      "▁Sản": 8278,
      "▁Phung": 8279,
      "▁Geo": 8280,
      "▁ព្រមព្រៀង": 8281,
      "▁កាត់ដ": 8282,
      "កិរិយា": 8283,
      "ធន": 8284,
      "▁htt": 8285,
      "▁trốn": 8286,
      "▁Tác": 8287,
      "ម្មិត": 8288,
      "▁ត្រាំ": 8289,
      "▁74": 8290,
      "▁ឯកតោ": 8291,
      "▁Jun": 8292,
      "▁ជ្រួច": 8293,
      "ប្បកិរិយា": 8294,
      "▁កើតមាន": 8295,
      "▁ត្រឡប់មក": 8296,
      "▁Damasc": 8297,
      "▁Andre": 8298,
      "▁ទៀងទាត់": 8299,
      "▁http": 8300,
      "▁Damascus": 8301,
      "▁សាក": 8302,
      "▁សង្": 8303,
      "▁mũi": 8304,
      "▁PV": 8305,
      "▁PTN": 8306,
      "▁អ្នកនិពន្ធ": 8307,
      "▁81": 8308,
      "▁ការប្រឈម": 8309,
      "▁៦៥": 8310,
      "▁130": 8311,
      "ិទ្ឋ": 8312,
      "▁បោះបង់": 8313,
      "bert": 8314,
      "▁ពន្លឺ": 8315,
      "▁ការតាំងពិ": 8316,
      "QT": 8317,
      "▁បាយ": 8318,
      "▁Nỗ": 8319,
      "▁ចារ": 8320,
      "▁Min": 8321,
      "▁Khoảng": 8322,
      "▁Lee": 8323,
      "▁គណៈប្រតិភូវៀតណាម": 8324,
      "និង": 8325,
      "age": 8326,
      "▁sánh": 8327,
      "▁dọc": 8328,
      "▁រត់": 8329,
      "▁ទិតៀន": 8330,
      "▁VA": 8331,
      "▁Sri": 8332,
      "ាប័ន": 8333,
      "▁សាលក្រម": 8334,
      "▁ការជះ": 8335,
      "ថ្លៃ": 8336,
      "▁Vinam": 8337,
      "▁Mauric": 8338,
      "▁PTNT": 8339,
      "▁Mauricio": 8340,
      "lib": 8341,
      "▁ân": 8342,
      "▁già": 8343,
      "▁VII": 8344,
      "▁Cát": 8345,
      "▁តប": 8346,
      "▁Har": 8347,
      "▁Đã": 8348,
      "▁ខិត": 8349,
      "▁អាណា": 8350,
      "▁khiêu": 8351,
      "▁Huân": 8352,
      "ogle": 8353,
      "▁កេរ្តិ៍": 8354,
      "▁Mozambique": 8355,
      "▁hát": 8356,
      "▁ថយ": 8357,
      "▁Pak": 8358,
      "ការៈ": 8359,
      "▁ស្រាល": 8360,
      "▁ការស៊": 8361,
      "▁ការទទួលបាន": 8362,
      "▁ក្តីសង្ឃឹម": 8363,
      "oo": 8364,
      "▁tim": 8365,
      "▁cơn": 8366,
      "▁đẫm": 8367,
      "▁តេ": 8368,
      "▁Bác": 8369,
      "▁Thêm": 8370,
      "▁នៅក្រោម": 8371,
      "▁Dio": 8372,
      "▁អ្នកកាសែត": 8373,
      "▁៣៤": 8374,
      "▁89": 8375,
      "▁កម្ពស់": 8376,
      "េដ្ឋី": 8377,
      "▁អធិបតី": 8378,
      "▁SARS": 8379,
      "▁សេចក្តីសំរេច": 8380,
      "▁Hillary": 8381,
      "▁Sergei": 8382,
      "អន្តរ": 8383,
      "▁toà": 8384,
      "▁chấn": 8385,
      "▁chùa": 8386,
      "▁Cà": 8387,
      "▁Cầu": 8388,
      "▁rối": 8389,
      "▁App": 8390,
      "ប្រែ": 8391,
      "▁Nhiệm": 8392,
      "▁គឺ៖": 8393,
      "▁ខ្មែរ": 8394,
      "▁បេឡារ": 8395,
      "▁សំឡេង": 8396,
      "45": 8397,
      "ech": 8398,
      "▁hái": 8399,
      "▁trôi": 8400,
      "ames": 8401,
      "▁ចំន": 8402,
      "▁តានតឹង": 8403,
      "▁Hạnh": 8404,
      "▁Av": 8405,
      "▁ACM": 8406,
      "▁P5": 8407,
      "▁khuẩn": 8408,
      "▁ការរាតត្បាត": 8409,
      "▁ភ្លើង": 8410,
      "▁ឃ្លាំង": 8411,
      "▁កែលំអ": 8412,
      "▁លំហូរ": 8413,
      "▁start": 8414,
      "▁Geun": 8415,
      "ru": 8416,
      "គាំង": 8417,
      "ភោគ": 8418,
      "មុទ្រ": 8419,
      "▁សិទ្ធ": 8420,
      "▁né": 8421,
      "▁nô": 8422,
      "▁រ៉": 8423,
      "▁CPP": 8424,
      "▁BĐ": 8425,
      "្លែង": 8426,
      "▁កិច្ចចរចា": 8427,
      "▁អ្នកដំណើរ": 8428,
      "▁៤១": 8429,
      "usk": 8430,
      "▁ចុះផ្សាយ": 8431,
      "▁បញ្ចុះ": 8432,
      "▁ការធ្វើឱ្យ": 8433,
      "▁មហាសេដ្ឋី": 8434,
      "▁កង្វះ": 8435,
      "▁ទ្រឹស្តី": 8436,
      "▁អេកូឡ": 8437,
      "▁Idlib": 8438,
      "HH": 8439,
      "▁thầu": 8440,
      "▁ប័ណ្ណ": 8441,
      "▁chạm": 8442,
      "▁Tel": 8443,
      "▁អោន": 8444,
      "▁Cap": 8445,
      "▁វិញ្ញ": 8446,
      "▁ពេលណា": 8447,
      "▁ផែនការអភិវឌ្ឍន៍": 8448,
      "▁បន្ថយ": 8449,
      "▁Tum": 8450,
      "▁មហាសមុទ្រ": 8451,
      "▁ប្រព្រឹត្តិ": 8452,
      "ស្នាល": 8453,
      "▁TNHH": 8454,
      "▁វីរុស": 8455,
      "▁វិញ្ញាបនប័ត្រ": 8456,
      "▁ភ័ស្តុតាង": 8457,
      "▁ក្រឡេក": 8458,
      "▁កាត់ដេរ": 8459,
      "bia": 8460,
      "នៅ": 8461,
      "្ទេស": 8462,
      "▁Ð": 8463,
      "▁vải": 8464,
      "▁trưa": 8465,
      "▁mảnh": 8466,
      "▁Cong": 8467,
      "▁Thí": 8468,
      "▁Mas": 8469,
      "▁Kong": 8470,
      "ECS": 8471,
      "▁Lanka": 8472,
      "▁Thuỵ": 8473,
      "▁ការដឹកជញ្ជូន": 8474,
      "▁សេចក្ដីប្រកាស": 8475,
      "▁អតីតកាល": 8476,
      "▁បូជា": 8477,
      "▁ការលើកទឹកចិត្ត": 8478,
      "▁xoa": 8479,
      "រិយា": 8480,
      "▁CEO": 8481,
      "▁អាកប្បកិរិយា": 8482,
      "▁ពានរង្វាន់": 8483,
      "ទិដ្ឋិនិយម": 8484,
      "ium": 8485,
      "rin": 8486,
      "zone": 8487,
      "▁សំន": 8488,
      "▁miếng": 8489,
      "▁ការភ": 8490,
      "▁SN": 8491,
      "▁GMS": 8492,
      "ស្រ្ត": 8493,
      "▁ភរិយា": 8494,
      "▁ក្រោយមក": 8495,
      "▁Zh": 8496,
      "▁ឆ្ងាញ់": 8497,
      "▁Hãy": 8498,
      "▁Vinamilk": 8499,
      "enh": 8500,
      "jet": 8501,
      "ែស": 8502,
      "▁សក្ខ": 8503,
      "▁Bien": 8504,
      "▁Vietjet": 8505,
      "▁១៩៧៥": 8506,
      "▁ការឃ្លាំមើល": 8507,
      "▁អេកូឡូស៊ី": 8508,
      "da": 8509,
      "ood": 8510,
      "▁ngủ": 8511,
      "▁អម": 8512,
      "▁Bill": 8513,
      "▁59": 8514,
      "▁69": 8515,
      "ទុក្ខ": 8516,
      "▁ប្រពន្ធ": 8517,
      "▁Google": 8518,
      "▁Geor": 8519,
      "ger": 8520,
      "គុក": 8521,
      "វែង": 8522,
      "▁lít": 8523,
      "▁mòn": 8524,
      "▁dấy": 8525,
      "▁IAE": 8526,
      "▁EP": 8527,
      "▁វិទ្យាសាស្រ្ត": 8528,
      "ney": 8529,
      "▁ការថយចុះ": 8530,
      "▁បន្សល់": 8531,
      "យ៉ាវ": 8532,
      "ាធិប្បាយ": 8533,
      "▁ACMECS": 8534,
      "▁IAEA": 8535,
      "▁kia": 8536,
      "▁Tú": 8537,
      "▁Ton": 8538,
      "▁mát": 8539,
      "▁dốc": 8540,
      "▁Hiền": 8541,
      "ប្រុស": 8542,
      "▁Phải": 8543,
      "▁បរិក្ខ": 8544,
      "▁77": 8545,
      "▁Huaw": 8546,
      "▁កុម្ភ": 8547,
      "▁បម្រុង": 8548,
      "▁បោះជំហាន": 8549,
      "▁រសជាតិ": 8550,
      "▁HĐQT": 8551,
      "▁អ្នកលក់": 8552,
      "▁Huawei": 8553,
      "ដ៍": 8554,
      "ំអ": 8555,
      "័ត្រ": 8556,
      "▁កក្កដា": 8557,
      "▁siết": 8558,
      "▁dinh": 8559,
      "▁ចំហរ": 8560,
      "▁ជាបន្ទាន់": 8561,
      "▁Đam": 8562,
      "▁Bạc": 8563,
      "▁Ngãi": 8564,
      "▁សមាម": 8565,
      "▁Nhạ": 8566,
      "▁អន្តរប៉": 8567,
      "សារព័ត៌មាន": 8568,
      "▁FPT": 8569,
      "▁ម៉ែត្រ": 8570,
      "▁មហិច្ឆ": 8571,
      "▁Nicol": 8572,
      "▁អេស្ប៉": 8573,
      "ras": 8574,
      "wai": 8575,
      "▁kì": 8576,
      "▁bơ": 8577,
      "▁nhở": 8578,
      "▁Nói": 8579,
      "▁Cương": 8580,
      "▁ការប្រតិបត្តិ": 8581,
      "▁និមួយ": 8582,
      "▁គគុក": 8583,
      "▁Bao": 8584,
      "▁Bến": 8585,
      "▁Trả": 8586,
      "▁អាឡ": 8587,
      "▁អ្នកស្រ": 8588,
      "▁Hoai": 8589,
      "▁Jor": 8590,
      "▁៤០០": 8591,
      "▁ស្ថាបត្យ": 8592,
      "▁ការខាតបង់": 8593,
      "▁Barak": 8594,
      "▁“Việc": 8595,
      "▁Crim": 8596,
      "▁ការស៊ើបអង្កេត": 8597,
      "▁វិញ្ញាស": 8598,
      "jamin": 8599,
      "ចៃ": 8600,
      "ẳn": 8601,
      "▁ក្វ": 8602,
      "▁khống": 8603,
      "▁LDP": 8604,
      "▁ហ៊": 8605,
      "▁៣៣": 8606,
      "▁កម្មុយន": 8607,
      "▁មូលធន": 8608,
      "ters": 8609,
      "▁ចុងបញ្ចប់": 8610,
      "▁បុព្វបទ": 8611,
      "▁Boeing": 8612,
      "▁ការជះឥទ្ធិពល": 8613,
      "▁សមាមាត្រ": 8614,
      "កក": 8615,
      "ហ្ម": 8616,
      "▁ái": 8617,
      "▁bụng": 8618,
      "▁No": 8619,
      "▁លា": 8620,
      "▁Bá": 8621,
      "▁rệt": 8622,
      "▁Lúc": 8623,
      "▁ទី៦": 8624,
      "enko": 8625,
      "▁អនុគ": 8626,
      "▁ម៉ូស្គូ": 8627,
      "▁ផ្ដាច់": 8628,
      "▁Bruss": 8629,
      "▁ការឆ្លង": 8630,
      "▁អូស្រ្ត": 8631,
      "▁អូស្រ្តាលី": 8632,
      "DG": 8633,
      "LC": 8634,
      "go": 8635,
      "នាម": 8636,
      "បំផ": 8637,
      "▁Pra": 8638,
      "▁បង្កឱ្យ": 8639,
      "▁ការបែងចែក": 8640,
      "▁ជំនន់": 8641,
      "▁សំណុំ": 8642,
      "ប្រឹក្សា": 8643,
      "ស្មុគស្មាញ": 8644,
      "▁ទម្លាក់": 8645,
      "▁បោះពុម្ព": 8646,
      "ED": 8647,
      "rid": 8648,
      "កល": 8649,
      "ខាន": 8650,
      "បា": 8651,
      "បែន": 8652,
      "ុទ": 8653,
      "▁e": 8654,
      "▁đeo": 8655,
      "▁bề": 8656,
      "▁ST": 8657,
      "ត់បែន": 8658,
      "▁82": 8659,
      "▁វិទ្យា": 8660,
      "▁2003": 8661,
      "▁Thuan": 8662,
      "▁Huong": 8663,
      "▁ការទទួលស្គាល់": 8664,
      "▁ខ្សោយ": 8665,
      "▁ប៊ិញ": 8666,
      "ឯកភាព": 8667,
      "▁អើពើ": 8668,
      "▁thuyền": 8669,
      "▁trắc": 8670,
      "▁dã": 8671,
      "▁Hien": 8672,
      "▁xướng": 8673,
      "▁ជុង": 8674,
      "▁ទំនៀម": 8675,
      "ត់ចត់": 8676,
      "▁64": 8677,
      "▁ការប្រជុំ": 8678,
      "▁ងាក": 8679,
      "▁1994": 8680,
      "▁CoV": 8681,
      "▁ghép": 8682,
      "▁១៩៤៥": 8683,
      "▁សាមញ្ញ": 8684,
      "gi": 8685,
      "nan": 8686,
      "និវត្ត": 8687,
      "ấc": 8688,
      "▁ong": 8689,
      "▁Căn": 8690,
      "▁Chứng": 8691,
      "▁SOM": 8692,
      "▁៣៨": 8693,
      "▁ការសួរ": 8694,
      "▁2004": 8695,
      "▁ពេញចិត្ត": 8696,
      "ប៊": 8697,
      "▁hẳn": 8698,
      "▁lính": 8699,
      "▁lưỡi": 8700,
      "▁ngạc": 8701,
      "▁Bầu": 8702,
      "▁យថា": 8703,
      "▁Dầu": 8704,
      "▁Fin": 8705,
      "▁07": 8706,
      "▁សំណាង": 8707,
      "ត់ធ្មត់": 8708,
      "▁កោះសមុទ្រ": 8709,
      "▁Robert": 8710,
      "▁បង្គោល": 8711,
      "▁គំនូរ": 8712,
      "▁Haiyang": 8713,
      "▁សំនួរ": 8714,
      "ti": 8715,
      "បញ្ជា": 8716,
      "ល្អ": 8717,
      "ំង": 8718,
      "▁đồn": 8719,
      "▁hô": 8720,
      "▁hoài": 8721,
      "▁chiêu": 8722,
      "▁Ta": 8723,
      "▁ទទ": 8724,
      "▁ការង": 8725,
      "▁លម្អ": 8726,
      "▁លំនៅ": 8727,
      "▁Thiết": 8728,
      "▁Sco": 8729,
      "▁បញ្ជ": 8730,
      "▁Raul": 8731,
      "▁៤៩": 8732,
      "▁គណនា": 8733,
      "▁Hãng": 8734,
      "▁ការវិវឌ្ឍន៍": 8735,
      "▁គរុក": 8736,
      "▁បន្សល់ទុក": 8737,
      "▁Crimea": 8738,
      "▁ទំនៀមទ": 8739,
      "bas": 8740,
      "▁ga": 8741,
      "▁Bog": 8742,
      "▁Blo": 8743,
      "▁Chuy": 8744,
      "▁Pany": 8745,
      "▁ក្រឹត្យ": 8746,
      "era": 8747,
      "▁Khai": 8748,
      "▁61": 8749,
      "▁Jin": 8750,
      "▁Doan": 8751,
      "ican": 8752,
      "▁៩៨": 8753,
      "▁សុទិដ្ឋិនិយម": 8754,
      "▁ការដាក់ទណ្ឌកម្ម": 8755,
      "▁ការនាំចូល": 8756,
      "▁Benjamin": 8757,
      "ាទិត្យ": 8758,
      "▁សប្បាយរីករាយ": 8759,
      "▁សច្ចាប័ន": 8760,
      "▁Delhi": 8761,
      "▁Antonio": 8762,
      "ឈ្នះ": 8763,
      "▁cổng": 8764,
      "▁đám": 8765,
      "▁Cán": 8766,
      "▁ជួសជុល": 8767,
      "▁Mông": 8768,
      "▁ត្រង់": 8769,
      "▁សេណ": 8770,
      "▁ដំណាំ": 8771,
      "▁Ra": 8772,
      "▁Thịnh": 8773,
      "ream": 8774,
      "▁ភ្ញាក់ផ្អើល": 8775,
      "▁គ្រោះមហ": 8776,
      "▁Vua": 8777,
      "▁ការផ្តើម": 8778,
      "▁ឧទ្ទេស": 8779,
      "cker": 8780,
      "▁សមរភូមិ": 8781,
      "▁ADB": 8782,
      "▁ចំណីអាហារ": 8783,
      "▁សក្ខីភាព": 8784,
      "TM": 8785,
      "▁thánh": 8786,
      "▁che": 8787,
      "▁chìa": 8788,
      "▁Twit": 8789,
      "▁Vượng": 8790,
      "▁ក្រដ": 8791,
      "▁ការអភិ": 8792,
      "▁អង្គុយ": 8793,
      "▁៤៣": 8794,
      "▁Luong": 8795,
      "▁សេចក្តីប្រាថ្នា": 8796,
      "omberg": 8797,
      "▁១០ឆ្នាំ": 8798,
      "▁1973": 8799,
      "សំណាក់": 8800,
      "▁ផ្ទុយទៅវិញ": 8801,
      "ភាសន៍": 8802,
      "▁អន្តរប៉ាស៊ីហ្វិក": 8803,
      "▁Bloomberg": 8804,
      "▁គ្រោះមហន្តរាយ": 8805,
      "aeda": 8806,
      "wa": 8807,
      "▁trệ": 8808,
      "▁Tp": 8809,
      "▁និមិត្ត": 8810,
      "▁Thưởng": 8811,
      "▁យេន": 8812,
      "▁Nhu": 8813,
      "▁ផ្ទាំង": 8814,
      "▁hộp": 8815,
      "▁ជ្រុល": 8816,
      "ប្បត្តិ": 8817,
      "▁ការផ្ដ": 8818,
      "្កោល": 8819,
      "baba": 8820,
      "▁រស់រវើក": 8821,
      "▁NAFTA": 8822,
      "▁Guine": 8823,
      "▁Peter": 8824,
      "▁អ្នកនេសាទ": 8825,
      "▁Pakistan": 8826,
      "▁ក្វាង": 8827,
      "▁អនុគណៈ": 8828,
      "Plus": 8829,
      "យើង": 8830,
      "េប": 8831,
      "▁vỏ": 8832,
      "▁màn": 8833,
      "▁ធាតុ": 8834,
      "▁luân": 8835,
      "▁ការប៉ាន់": 8836,
      "ark": 8837,
      "▁ពួកយើង": 8838,
      "▁គុយបា": 8839,
      "▁អ្នកនយោបាយ": 8840,
      "▁Boris": 8841,
      "ael": 8842,
      "នាក់": 8843,
      "▁cống": 8844,
      "▁vắng": 8845,
      "▁hồng": 8846,
      "▁ថ្វី": 8847,
      "▁Ste": 8848,
      "▁ផលប្រ": 8849,
      "▁Ros": 8850,
      "ដោយឡែក": 8851,
      "atu": 8852,
      "▁សតវត្សរ៍": 8853,
      "ផ្ទាត់": 8854,
      "▁Reuters": 8855,
      "▁មហិច្ឆតា": 8856,
      "និវត្តន៍": 8857,
      "▁Bogor": 8858,
      "PD": 8859,
      "ga": 8860,
      "▁nòng": 8861,
      "▁nảy": 8862,
      "▁nhịp": 8863,
      "▁ដុំ": 8864,
      "▁គ្ល": 8865,
      "▁Thầy": 8866,
      "▁Mười": 8867,
      "▁Phái": 8868,
      "▁Dia": 8869,
      "▁ទីប្រឹក្សា": 8870,
      "▁78": 8871,
      "▁Jack": 8872,
      "▁ការរស់": 8873,
      "▁ការដក": 8874,
      "ចូលរួម": 8875,
      "▁ផ្ញើរ": 8876,
      "▁អក្សរសាស្ត្រ": 8877,
      "▁Pomp": 8878,
      "▁ការប្រឈមមុខ": 8879,
      "lip": 8880,
      "ខ្ជាប់": 8881,
      "▁cười": 8882,
      "▁đáy": 8883,
      "▁liêng": 8884,
      "▁Hay": 8885,
      "▁xưa": 8886,
      "▁Thừa": 8887,
      "▁AU": 8888,
      "▁Sách": 8889,
      "▁Dak": 8890,
      "▁សមាជិកាស": 8891,
      "▁សាសនិក": 8892,
      "▁180": 8893,
      "វាទ": 8894,
      "ley": 8895,
      "▁អ្នកស្រាវជ្រាវ": 8896,
      "CC": 8897,
      "រាង": 8898,
      "▁dồn": 8899,
      "▁ដោះ": 8900,
      "▁ប្រុស": 8901,
      "▁ប្រុងប្រយ័ត្ន": 8902,
      "▁Cro": 8903,
      "▁Her": 8904,
      "▁Đáp": 8905,
      "▁Kan": 8906,
      "▁សម្រប": 8907,
      "ន់ខ្សោយ": 8908,
      "▁ILO": 8909,
      "▁អ្នកសារព័ត៌មាន": 8910,
      "▁ព្រហ្ម": 8911,
      "▁៤៨": 8912,
      "ish": 8913,
      "▁ការជជែក": 8914,
      "ព្យាបាល": 8915,
      "▁លំនៅដ្ឋាន": 8916,
      "▁Guinea": 8917,
      "ec": 8918,
      "អនុ": 8919,
      "▁thả": 8920,
      "▁ស័ក": 8921,
      "▁dĩ": 8922,
      "ាំព": 8923,
      "▁HTX": 8924,
      "▁របាំង": 8925,
      "▁Quận": 8926,
      "ins": 8927,
      "ណ្តប់": 8928,
      "▁ឧប្បត្តិ": 8929,
      "ណ្ឌិត្យ": 8930,
      "▁Rất": 8931,
      "▁World": 8932,
      "rand": 8933,
      "▁2002": 8934,
      "▁រក្សាទុក": 8935,
      "▁1993": 8936,
      "mart": 8937,
      "▁Sams": 8938,
      "▁អ៊ិនធឺណ": 8939,
      "▁Techcombank": 8940,
      "▁Twitter": 8941,
      "gu": 8942,
      "ះបង់": 8943,
      "▁ưa": 8944,
      "▁កង់": 8945,
      "▁មាំ": 8946,
      "▁Viết": 8947,
      "▁ការឯកភាព": 8948,
      "▁លាតត្រដាង": 8949,
      "ប្រមាណ": 8950,
      "▁បង្កង": 8951,
      "▁76": 8952,
      "▁91": 8953,
      "▁ចង់ឲ្យ": 8954,
      "▁សាធារណមតិ": 8955,
      "▁ដាច់ដោយឡែក": 8956,
      "▁ព្រះអាទិត្យ": 8957,
      "▁Pompeo": 8958,
      "HO": 8959,
      "gon": 8960,
      "័ទ្ធ": 8961,
      "▁hùm": 8962,
      "▁បក": 8963,
      "▁សូវ": 8964,
      "▁Nik": 8965,
      "▁Cố": 8966,
      "▁វេលា": 8967,
      "▁Đạo": 8968,
      "▁Thao": 8969,
      "▁Qaeda": 8970,
      "▁Sar": 8971,
      "្បាញ": 8972,
      "្ងាច": 8973,
      "▁ដំណាច់": 8974,
      "▁ម៉ត់ចត់": 8975,
      "▁គុណូប": 8976,
      "▁ការធ្វើតេស្ត": 8977,
      "osh": 8978,
      "▁Ash": 8979,
      "▁VNA": 8980,
      "▁អាហ្វហ្គានីស្ថាន": 8981,
      "▁បញ្ញើ": 8982,
      "ght": 8983,
      "▁សំលេង": 8984,
      "▁ឧប្បត្តិហេតុ": 8985,
      "▁Samsung": 8986,
      "ឿយ": 8987,
      "▁សីហា": 8988,
      "▁bạ": 8989,
      "▁AFP": 8990,
      "▁Lập": 8991,
      "▁វិច្ឆិកា": 8992,
      "▁193": 8993,
      "▁ខ្ជាប់": 8994,
      "ន្និដ្ឋាន": 8995,
      "▁នាំយក": 8996,
      "ចាំបាច់": 8997,
      "▁Vietcombank": 8998,
      "▁ពន្ធនាគារ": 8999,
      "▁Abbas": 9000,
      "▁បរិភោគ": 9001,
      "▁នីតិរដ្ឋ": 9002,
      "▁ដាំដុះ": 9003,
      "▁វេជ្ជបណ្ឌិត": 9004,
      "▁Nicolas": 9005,
      "OR": 9006,
      "SA": 9007,
      "ក៍": 9008,
      "មាត់": 9009,
      "រាជ": 9010,
      "▁tây": 9011,
      "▁nho": 9012,
      "▁dũng": 9013,
      "▁giục": 9014,
      "▁ទូត": 9015,
      "▁មុត": 9016,
      "▁មេសា": 9017,
      "ana": 9018,
      "▁យាន": 9019,
      "ial": 9020,
      "▁ការចេញ": 9021,
      "▁Thuế": 9022,
      "▁Huu": 9023,
      "▁លេចចេញ": 9024,
      "▁VietnamPlus": 9025,
      "▁Davos": 9026,
      "▁Techo": 9027,
      "▁Mahm": 9028,
      "្យូទ័រ": 9029,
      "▁សមាជិការ": 9030,
      "▁ការបំពេញ": 9031,
      "▁សាអូ": 9032,
      "bar": 9033,
      "bal": 9034,
      "គី": 9035,
      "ឌ័រ": 9036,
      "ពាន": 9037,
      "ộm": 9038,
      "▁đòn": 9039,
      "nhang": 9040,
      "▁បួន": 9041,
      "▁សង្រ": 9042,
      "▁Nar": 9043,
      "▁អ៊ុន": 9044,
      "▁CĐ": 9045,
      "▁Sỹ": 9046,
      "▁អ្នកទិញ": 9047,
      "ិទ្ធស្នាល": 9048,
      "▁ការសាង": 9049,
      "▁WHO": 9050,
      "▁កុំព": 9051,
      "▁សម្លៀកបំពាក់": 9052,
      "ីល្បាញ": 9053,
      "▁អនាម": 9054,
      "▁គណះកម្មាធិការ": 9055,
      "Phone": 9056,
      "របួស": 9057,
      "▁HDBank": 9058,
      "▁គរុកោសល្យ": 9059,
      "bo": 9060,
      "តុ": 9061,
      "▁បាល់": 9062,
      "▁lọt": 9063,
      "▁mến": 9064,
      "▁mảng": 9065,
      "▁ចេតនា": 9066,
      "▁Trải": 9067,
      "▁QĐ": 9068,
      "▁Lĩnh": 9069,
      "▁ស្រែ": 9070,
      "▁Giai": 9071,
      "acc": 9072,
      "▁ដាច់ខាត": 9073,
      "▁ការចុះឈ្មោះ": 9074,
      "▁មនស": 9075,
      "▁សុក្រិត": 9076,
      "▁ruộng": 9077,
      "▁បូកសរុប": 9078,
      "h30": 9079,
      "km": 9080,
      "▁tùng": 9081,
      "▁បណ្ឌិត្យ": 9082,
      "▁trống": 9083,
      "▁ND": 9084,
      "▁ដូណ": 9085,
      "▁Vùng": 9086,
      "▁ពូន": 9087,
      "▁លៃ": 9088,
      "▁Đảm": 9089,
      "▁Ngài": 9090,
      "▁Khối": 9091,
      "▁ឈ្ន": 9092,
      "▁Fid": 9093,
      "▁ម៉ូ": 9094,
      "att": 9095,
      "▁កាលវិភាគ": 9096,
      "▁អ៊ីនធឺណេត": 9097,
      "▁ការរំលោភបំពាន": 9098,
      "▁iPhone": 9099,
      "▁បំភ្លឺ": 9100,
      "▁Peru": 9101,
      "▁BĐS": 9102,
      "BS": 9103,
      "កា": 9104,
      "បង្ក": 9105,
      "ីប": 9106,
      "▁điệu": 9107,
      "▁thói": 9108,
      "▁lồng": 9109,
      "▁សត្រូវ": 9110,
      "▁មករា": 9111,
      "▁Thạch": 9112,
      "ាក់តែង": 9113,
      "▁Kiều": 9114,
      "▁Nhơn": 9115,
      "▁ទី៥": 9116,
      "▁ទីប្រជុំ": 9117,
      "▁“th": 9118,
      "are": 9119,
      "▁ការអះអាង": 9120,
      "▁71": 9121,
      "▁chuối": 9122,
      "▁Yath": 9123,
      "▁សក្តានុភាព": 9124,
      "▁ស្លឹក": 9125,
      "achith": 9126,
      "ស្អំ": 9127,
      "▁Eurozone": 9128,
      "▁VietinBank": 9129,
      "▁ដូណាល់": 9130,
      "ជះ": 9131,
      "▁lí": 9132,
      "▁chìm": 9133,
      "▁bứt": 9134,
      "▁BO": 9135,
      "▁ខាតបង់": 9136,
      "្យាង": 9137,
      "▁Ag": 9138,
      "▁Sóc": 9139,
      "▁ថាញ": 9140,
      "▁Nhằm": 9141,
      "▁“m": 9142,
      "▁ម៉្យាង": 9143,
      "old": 9144,
      "្ញាក់ផ្អើល": 9145,
      "▁ផ្ដួច": 9146,
      "▁១៥០": 9147,
      "ទាក់ទង": 9148,
      "្លានពាន": 9149,
      "▁កុំព្យូទ័រ": 9150,
      "លប់": 9151,
      "ោគម": 9152,
      "▁ក៍": 9153,
      "ារីយ": 9154,
      "▁ngặt": 9155,
      "▁Khó": 9156,
      "▁Rod": 9157,
      "▁ការស្ត": 9158,
      "▁Yo": 9159,
      "▁ការជួញដូរ": 9160,
      "▁អតិបរមា": 9161,
      "ខ្ជា": 9162,
      "▁រួចផុត": 9163,
      "manuel": 9164,
      "▁Emmanuel": 9165,
      "▁ការបញ្ចេញ": 9166,
      "▁សក្ដានុភាព": 9167,
      "▁Alibaba": 9168,
      "▁Kuwai": 9169,
      "▁អាណាព្យាបាល": 9170,
      "▁Kuwait": 9171,
      "▁tường": 9172,
      "▁đọng": 9173,
      "▁vết": 9174,
      "▁កៅ": 9175,
      "▁កញ្ច": 9176,
      "▁bông": 9177,
      "▁TM": 9178,
      "▁មួន": 9179,
      "▁Vat": 9180,
      "▁តួល": 9181,
      "▁ខ្ទង់": 9182,
      "▁Mùa": 9183,
      "ប្រដាប់អាវុធ": 9184,
      "▁Dược": 9185,
      "▁Glo": 9186,
      "▁96": 9187,
      "រណែត": 9188,
      "▁គម្រូ": 9189,
      "▁សំណង": 9190,
      "▁ផ្តល់ឱ្យ": 9191,
      "▁ប្រវត្តិ": 9192,
      "▁ព្រះមហ": 9193,
      "▁អ្នកប្រាជ្ញ": 9194,
      "▁ដាច់ស្រ": 9195,
      "ាក្សត្រ": 9196,
      "▁Michael": 9197,
      "▁ដូច្នោះហើយ": 9198,
      "▁Dioxin": 9199,
      "▁សង្រ្គ": 9200,
      "▁ការសាងសង់": 9201,
      "▁អនាម័យ": 9202,
      "▁Yathot": 9203,
      "▁Vatican": 9204,
      "▁តួលេខ": 9205,
      "LD": 9206,
      "លោម": 9207,
      "វិនិយោគ": 9208,
      "▁túy": 9209,
      "▁đệ": 9210,
      "▁trọt": 9211,
      "▁សោក": 9212,
      "▁mùi": 9213,
      "▁dọn": 9214,
      "▁dép": 9215,
      "▁អរិយ": 9216,
      "▁VS": 9217,
      "▁តុ": 9218,
      "▁វង់": 9219,
      "▁Đỏ": 9220,
      "▁Bai": 9221,
      "▁Ay": 9222,
      "ប្រវត្ត": 9223,
      "▁Kien": 9224,
      "▁កំពុងតែ": 9225,
      "▁បន្ទាត់": 9226,
      "▁1990": 9227,
      "oshi": 9228,
      "▁1979": 9229,
      "▁xoay": 9230,
      "▁ការឃោសនា": 9231,
      "▁អេស្ប៉ាញ": 9232,
      "▁យេនឌ័រ": 9233,
      "កុង": 9234,
      "▁Tung": 9235,
      "▁ដង់": 9236,
      "▁និយោជ": 9237,
      "▁Đơn": 9238,
      "▁Liêm": 9239,
      "្គង": 9240,
      "▁Xê": 9241,
      "▁Rou": 9242,
      "ជីវិត": 9243,
      "▁ជ្រៅ": 9244,
      "▁លក្ខខ័ណ្ឌ": 9245,
      "▁សរឲ្យ": 9246,
      "▁cụm": 9247,
      "▁មហោ": 9248,
      "▁Wall": 9249,
      "▁ប្រកាន់ខ្ជាប់": 9250,
      "ិទ្ឋិ": 9251,
      "▁សេណារីយ": 9252,
      "▁សាអូឌីត": 9253,
      "▁ទីប្រជុំជន": 9254,
      "ẩu": 9255,
      "▁phiến": 9256,
      "▁ការផ្សាយ": 9257,
      "▁គតិ": 9258,
      "▁តូក": 9259,
      "▁វ័ន្ត": 9260,
      "្មើស": 9261,
      "▁“Ph": 9262,
      "▁khiêm": 9263,
      "▁ជ្រៀត": 9264,
      "▁យកឈ្នះ": 9265,
      "▁ក្រោយពេល": 9266,
      "▁Thuong": 9267,
      "▁1991": 9268,
      "▁ការចូលរៀន": 9269,
      "▁រីក": 9270,
      "▁Chuẩn": 9271,
      "▁Boun": 9272,
      "​​​​": 9273,
      "▁បន្ធូរ": 9274,
      "▁ការទប់ទល់": 9275,
      "▁Brussels": 9276,
      "ខ្ជាយ": 9277,
      "មី": 9278,
      "ឹក្សា": 9279,
      "ớc": 9280,
      "▁រៀងរាល់": 9281,
      "▁មាត": 9282,
      "▁ពន្យា": 9283,
      "▁Tranh": 9284,
      "▁pháo": 9285,
      "▁Pol": 9286,
      "▁សមភាគី": 9287,
      "▁Sl": 9288,
      "▁Nhat": 9289,
      "▁ក្រូច": 9290,
      "▁ទីនោះ": 9291,
      "▁Xuyên": 9292,
      "▁Hoi": 9293,
      "▁ភាពស្មុគស្មាញ": 9294,
      "▁83": 9295,
      "▁92": 9296,
      "pua": 9297,
      "adan": 9298,
      "▁140": 9299,
      "oda": 9300,
      "▁1946": 9301,
      "▁បណ្ដាលអោយ": 9302,
      "▁ក្តាម": 9303,
      "▁Tsip": 9304,
      "▁ឧទ្ទេសនាម": 9305,
      "▁ព្រះមហាក្សត្រ": 9306,
      "HCM": 9307,
      "uatu": 9308,
      "ដង": 9309,
      "ហ្វី": 9310,
      "▁ám": 9311,
      "▁đụng": 9312,
      "▁thấu": 9313,
      "▁khiển": 9314,
      "▁Cung": 9315,
      "▁ពេទ្យ": 9316,
      "ướp": 9317,
      "េសប៊": 9318,
      "▁“h": 9319,
      "▁“ch": 9320,
      "▁អ្នកចូលរួម": 9321,
      "ala": 9322,
      "▁ស្រា": 9323,
      "▁tuỳ": 9324,
      "▁មូលបត្រ": 9325,
      "▁khía": 9326,
      "▁រងរបួស": 9327,
      "▁Vanuatu": 9328,
      "▁សង្ស័យ": 9329,
      "▁ពាក់កណ្ដាល": 9330,
      "▁ទសវត្សរ៍": 9331,
      "▁ការប្រមូលផ្តុំ": 9332,
      "▁ឆ្លាតវៃ": 9333,
      "▁ញ៉ាំ": 9334,
      "▁គ្របដណ្តប់": 9335,
      "Co": 9336,
      "med": 9337,
      "ភើប": 9338,
      "▁ប្តី": 9339,
      "ានុម": 9340,
      "▁mệt": 9341,
      "▁Nữ": 9342,
      "▁khốc": 9343,
      "▁ម្ស": 9344,
      "iếp": 9345,
      "▁Đô": 9346,
      "▁Phản": 9347,
      "▁Nhan": 9348,
      "▁“b": 9349,
      "▁សហករណ៍": 9350,
      "▁សំចៃ": 9351,
      "eting": 9352,
      "▁94": 9353,
      "▁៥២": 9354,
      "▁២០០៦": 9355,
      "▁២០០៧": 9356,
      "▁ខុសពី": 9357,
      "▁រដ្ធ": 9358,
      "ធឺរណែត": 9359,
      "▁ការបង្ហាញ": 9360,
      "▁Clau": 9361,
      "▁ក្រដាស": 9362,
      "▁Mahmoud": 9363,
      "▁មនសិការ": 9364,
      "▁ឈ្នួល": 9365,
      "▁ដាច់ស្រយ": 9366,
      "▁Bounnhang": 9367,
      "RC": 9368,
      "gan": 9369,
      "site": 9370,
      "ស្ដ": 9371,
      "▁đúc": 9372,
      "▁thợ": 9373,
      "▁បោក": 9374,
      "▁treo": 9375,
      "▁សឲ្យ": 9376,
      "▁ស្វី": 9377,
      "▁nhắm": 9378,
      "▁Tới": 9379,
      "▁mộ": 9380,
      "▁dáng": 9381,
      "▁quạt": 9382,
      "▁Vậy": 9383,
      "▁Chẳng": 9384,
      "▁ស្ថានការណ៍": 9385,
      "▁TPHCM": 9386,
      "ost": 9387,
      "▁យល់ស្រប": 9388,
      "tech": 9389,
      "▁ខ្ចោះ": 9390,
      "▁Muốn": 9391,
      "▁Michel": 9392,
      "▁Papua": 9393,
      "▁អាឡឺម៉ង់": 9394,
      "▁លម្អិត": 9395,
      "ជះខ្ជាយ": 9396,
      "ward": 9397,
      "ប្ល": 9398,
      "ុន្តែ": 9399,
      "▁viếng": 9400,
      "▁lắm": 9401,
      "▁កែតម្រូវ": 9402,
      "▁de": 9403,
      "▁dừa": 9404,
      "▁giận": 9405,
      "▁តាលី": 9406,
      "▁Lạt": 9407,
      "oni": 9408,
      "▁អ្នកគ្រប់គ្រង": 9409,
      "▁Giấy": 9410,
      "▁បណ្តើរ": 9411,
      "▁ផែនដី": 9412,
      "សាសនា": 9413,
      "▁ពន្ធដារ": 9414,
      "▁អភិវឌ្ឍន៌": 9415,
      "▁uran": 9416,
      "ព័ន្ឋ": 9417,
      "វេណី": 9418,
      "▁ស្ថាបត្យកម្ម": 9419,
      "▁ជ្រុលនិយម": 9420,
      "▁កញ្ចក់": 9421,
      "▁Tsipras": 9422,
      "សុខ": 9423,
      "អេ": 9424,
      "▁vacc": 9425,
      "▁liêm": 9426,
      "▁lốp": 9427,
      "▁នឹក": 9428,
      "▁កាប": 9429,
      "▁កូដ": 9430,
      "▁Tik": 9431,
      "▁khử": 9432,
      "▁Vừa": 9433,
      "▁Biến": 9434,
      "▁Bái": 9435,
      "▁Mác": 9436,
      "▁QH": 9437,
      "▁Phn": 9438,
      "▁ត្រា": 9439,
      "▁66": 9440,
      "▁84": 9441,
      "▁៤៤": 9442,
      "▁ការដាំ": 9443,
      "▁Huyện": 9444,
      "▁សក្តិសម": 9445,
      "▁“Năm": 9446,
      "▁ហ្វេសប៊": 9447,
      "ស្វាង": 9448,
      "▁Busan": 9449,
      "បង្ហាញ": 9450,
      "▁ភ្លឺស្វាង": 9451,
      "▁គុណូបការៈ": 9452,
      "▁Global": 9453,
      "▁ហ្វេសប៊ុក": 9454,
      "▁nạp": 9455,
      "▁ប្រេស៊ី": 9456,
      "▁Ves": 9457,
      "▁CD": 9458,
      "▁xả": 9459,
      "▁Quỳnh": 9460,
      "▁Sp": 9461,
      "ក្សារ": 9462,
      "▁87": 9463,
      "▁ការប្រព្រ": 9464,
      "▁៤៧": 9465,
      "▁tour": 9466,
      "ាស៊ីហ្វី": 9467,
      "▁1997": 9468,
      "▁រងគ្រោះ": 9469,
      "▁“Chính": 9470,
      "awa": 9471,
      "ather": 9472,
      "▁Banglad": 9473,
      "▁ប្រមុខរដ្ឋ": 9474,
      "▁ការភ្ញាក់ផ្អើល": 9475,
      "▁ដាច់ស្រយាល": 9476,
      "▁ស្វីស": 9477,
      "ាស៊ីហ្វីក": 9478,
      "pol": 9479,
      "ងាត់": 9480,
      "▁ឫ": 9481,
      "▁cỡ": 9482,
      "▁đèn": 9483,
      "▁vạch": 9484,
      "▁Tạ": 9485,
      "▁m2": 9486,
      "▁មានអារម្មណ៍": 9487,
      "▁ធី": 9488,
      "▁ហាត់": 9489,
      "▁IV": 9490,
      "▁ព្រលាន": 9491,
      "▁សមាគមន៍": 9492,
      "▁For": 9493,
[...]
