{
  "version": "1.0",
  "truncation": null,
  "padding": null,
  "added_tokens": [
    {
      "id": 0,
      "content": "<s>",
      "single_word": false,
      "lstrip": false,
      "rstrip": false,
      "normalized": false,
      "special": true
    },
    {
      "id": 1,
      "content": "<pad>",
      "single_word": false,
      "lstrip": false,
      "rstrip": false,
      "normalized": false,
      "special": true
    },
    {
      "id": 2,
      "content": "</s>",
      "single_word": false,
      "lstrip": false,
      "rstrip": false,
      "normalized": false,
      "special": true
    },
    {
      "id": 3,
      "content": "<unk>",
      "single_word": false,
      "lstrip": false,
      "rstrip": false,
      "normalized": false,
      "special": true
    }
  ],
  "normalizer": null,
  "pre_tokenizer": {
    "type": "Whitespace"
  },
  "post_processor": {
    "type": "TemplateProcessing",
    "single": [
      {
        "SpecialToken": {
          "id": "<s>",
          "type_id": 0
        }
      },
      {
        "Sequence": {
          "id": "A",
          "type_id": 0
        }
      },
      {
        "SpecialToken": {
          "id": "</s>",
          "type_id": 0
        }
      }
    ],
    "pair": [
      {
        "SpecialToken": {
          "id": "<s>",
          "type_id": 0
        }
      },
      {
        "Sequence": {
          "id": "A",
          "type_id": 0
        }
      },
      {
        "SpecialToken": {
          "id": "</s>",
          "type_id": 0
        }
      },
      {
        "Sequence": {
          "id": "B",
          "type_id": 1
        }
      },
      {
        "SpecialToken": {
          "id": "</s>",
          "type_id": 1
        }
      }
    ],
    "special_tokens": {
      "</s>": {
        "id": "</s>",
        "ids": [
          2
        ],
        "tokens": [
          "</s>"
        ]
      },
      "<s>": {
        "id": "<s>",
        "ids": [
          0
        ],
        "tokens": [
          "<s>"
        ]
      }
    }
  },
  "decoder": {
    "type": "ByteLevel",
    "add_prefix_space": true,
    "trim_offsets": true,
    "use_regex": true
  },
  "model": {
    "type": "BPE",
    "dropout": null,
    "unk_token": null,
    "continuing_subword_prefix": null,
    "end_of_word_suffix": null,
    "fuse_unk": false,
    "vocab": {
      "<s>": 0,
      "<pad>": 1,
      "</s>": 2,
      "<unk>": 3,
      "\b": 4,
      "!": 5,
      "\"": 6,
      "#": 7,
      "$": 8,
      "%": 9,
      "&": 10,
      "'": 11,
      "(": 12,
      ")": 13,
      "*": 14,
      "+": 15,
      ",": 16,
      "-": 17,
      ".": 18,
      "/": 19,
      "0": 20,
      "1": 21,
      "2": 22,
      "3": 23,
      "4": 24,
      "5": 25,
      "6": 26,
      "7": 27,
      "8": 28,
      "9": 29,
      ":": 30,
      ";": 31,
      "<": 32,
      "=": 33,
      ">": 34,
      "?": 35,
      "@": 36,
      "A": 37,
      "B": 38,
      "C": 39,
      "D": 40,
      "E": 41,
      "F": 42,
      "G": 43,
      "H": 44,
      "I": 45,
      "J": 46,
      "K": 47,
      "L": 48,
      "M": 49,
      "N": 50,
      "O": 51,
      "P": 52,
      "Q": 53,
      "R": 54,
      "S": 55,
      "T": 56,
      "U": 57,
      "V": 58,
      "W": 59,
      "X": 60,
      "Y": 61,
      "Z": 62,
      "[": 63,
      "\\": 64,
      "]": 65,
      "_": 66,
      "`": 67,
      "a": 68,
      "b": 69,
      "c": 70,
      "d": 71,
      "e": 72,
      "f": 73,
      "g": 74,
      "h": 75,
      "i": 76,
      "j": 77,
      "k": 78,
      "l": 79,
      "m": 80,
      "n": 81,
      "o": 82,
      "p": 83,
      "q": 84,
      "r": 85,
      "s": 86,
      "t": 87,
      "u": 88,
      "v": 89,
      "w": 90,
      "x": 91,
      "y": 92,
      "z": 93,
      "|": 94,
      "~": 95,
      "£": 96,
      "«": 97,
      "­": 98,
      "°": 99,
      "±": 100,
      "³": 101,
      "·": 102,
      "»": 103,
      "¼": 104,
      "½": 105,
      "¾": 106,
      "À": 107,
      "Á": 108,
      "Â": 109,
      "Ã": 110,
      "É": 111,
      "Ê": 112,
      "Ì": 113,
      "Í": 114,
      "Ð": 115,
      "Ñ": 116,
      "Ò": 117,
      "Ó": 118,
      "Ô": 119,
      "Õ": 120,
      "×": 121,
      "Ú": 122,
      "Ü": 123,
      "Ý": 124,
      "à": 125,
      "á": 126,
      "â": 127,
      "ã": 128,
      "ä": 129,
      "ç": 130,
      "è": 131,
      "é": 132,
      "ê": 133,
      "ë": 134,
      "ì": 135,
      "í": 136,
      "î": 137,
      "ï": 138,
      "ñ": 139,
      "ò": 140,
      "ó": 141,
      "ô": 142,
      "õ": 143,
      "ö": 144,
      "÷": 145,
      "ù": 146,
      "ú": 147,
      "ü": 148,
      "ý": 149,
      "Ă": 150,
      "ă": 151,
      "ć": 152,
      "Đ": 153,
      "đ": 154,
      "Ē": 155,
      "Ĩ": 156,
      "ĩ": 157,
      "ō": 158,
      "š": 159,
      "ũ": 160,
      "ū": 161,
      "Ơ": 162,
      "ơ": 163,
      "Ư": 164,
      "ư": 165,
      "ǎ": 166,
      "ǐ": 167,
      "̀": 168,
      "́": 169,
      "̂": 170,
      "̃": 171,
      "̆": 172,
      "̉": 173,
      "̛": 174,
      "̣": 175,
      "ក": 176,
      "ខ": 177,
      "គ": 178,
      "ឃ": 179,
      "ង": 180,
      "ច": 181,
      "ឆ": 182,
      "ជ": 183,
      "ឈ": 184,
      "ញ": 185,
      "ដ": 186,
      "ឋ": 187,
      "ឌ": 188,
      "ឍ": 189,
      "ណ": 190,
      "ត": 191,
      "ថ": 192,
      "ទ": 193,
      "ធ": 194,
      "ន": 195,
      "ប": 196,
      "ផ": 197,
      "ព": 198,
      "ភ": 199,
      "ម": 200,
      "យ": 201,
      "រ": 202,
      "ល": 203,
      "វ": 204,
      "ស": 205,
      "ហ": 206,
      "ឡ": 207,
      "អ": 208,
      "ឥ": 209,
      "ឦ": 210,
      "ឧ": 211,
      "ឨ": 212,
      "ឩ": 213,
      "ឪ": 214,
      "ឫ": 215,
      "ឬ": 216,
      "ឭ": 217,
      "ឮ": 218,
      "ឯ": 219,
      "ឱ": 220,
      "ឲ": 221,
      "ឳ": 222,
      "ា": 223,
      "ិ": 224,
      "ី": 225,
      "ឹ": 226,
      "ឺ": 227,
      "ុ": 228,
      "ូ": 229,
      "ួ": 230,
      "ើ": 231,
      "ឿ": 232,
      "ៀ": 233,
      "េ": 234,
      "ែ": 235,
      "ៃ": 236,
      "ោ": 237,
      "ៅ": 238,
      "ំ": 239,
      "ះ": 240,
      "ៈ": 241,
      "៉": 242,
      "៊": 243,
      "់": 244,
      "៌": 245,
      "៍": 246,
      "៎": 247,
      "៏": 248,
      "័": 249,
      "៑": 250,
      "្": 251,
      "។": 252,
      "៕": 253,
      "៖": 254,
      "ៗ": 255,
      "០": 256,
      "១": 257,
      "២": 258,
      "៣": 259,
      "៤": 260,
      "៥": 261,
      "៦": 262,
      "៧": 263,
      "៨": 264,
      "៩": 265,
      "Ạ": 266,
      "ạ": 267,
      "Ả": 268,
      "ả": 269,
      "Ấ": 270,
      "ấ": 271,
      "Ầ": 272,
      "ầ": 273,
      "Ẩ": 274,
      "ẩ": 275,
      "ẫ": 276,
      "ậ": 277,
      "Ắ": 278,
      "ắ": 279,
      "ằ": 280,
      "ẳ": 281,
      "ẵ": 282,
      "Ặ": 283,
      "ặ": 284,
      "Ẹ": 285,
      "ẹ": 286,
      "Ẻ": 287,
      "ẻ": 288,
      "ẽ": 289,
      "Ế": 290,
      "ế": 291,
      "ề": 292,
      "Ể": 293,
      "ể": 294,
      "Ễ": 295,
      "ễ": 296,
      "Ệ": 297,
      "ệ": 298,
      "ỉ": 299,
      "ị": 300,
      "Ọ": 301,
      "ọ": 302,
      "ỏ": 303,
      "Ố": 304,
      "ố": 305,
      "Ồ": 306,
      "ồ": 307,
      "Ổ": 308,
      "ổ": 309,
      "ỗ": 310,
      "Ộ": 311,
      "ộ": 312,
      "Ớ": 313,
      "ớ": 314,
      "Ờ": 315,
      "ờ": 316,
      "Ở": 317,
      "ở": 318,
      "ỡ": 319,
      "Ợ": 320,
      "ợ": 321,
      "ụ": 322,
      "Ủ": 323,
      "ủ": 324,
      "Ứ": 325,
      "ứ": 326,
      "Ừ": 327,
      "ừ": 328,
      "ử": 329,
      "Ữ": 330,
      "ữ": 331,
      "Ự": 332,
      "ự": 333,
      "Ỳ": 334,
      "ỳ": 335,
      "ỵ": 336,
      "ỷ": 337,
      "Ỹ": 338,
      "ỹ": 339,
      "​": 340,
      "‌": 341,
      "‎": 342,
      "–": 343,
      "—": 344,
      "‘": 345,
      "’": 346,
      "“": 347,
      "”": 348,
      "…": 349,
      "⁄": 350,
      "⁇": 351,
      "≥": 352,
      "●": 353,
      "佐": 354,
      "克": 355,
      "拉": 356,
      "杨": 357,
      "青": 358,
      "风": 359,
      "﻿": 360,
      "！": 361,
      "？": 362,
      "ng": 363,
      "nh": 364,
      "្រ": 365,
      "ch": 366,
      "th": 367,
      "tr": 368,
      "iệ": 369,
      "ាន": 370,
      "ារ": 371,
      "ph": 372,
      "qu": 373,
      "và": 374,
      "្ត": 375,
      "ការ": 376,
      "kh": 377,
      "ប្រ": 378,
      "្ន": 379,
      "ác": 380,
      "gi": 381,
      "ជា": 382,
      "ên": 383,
      "ông": 384,
      "củ": 385,
      "của": 386,
      "និ": 387,
      "ម្": 388,
      "an": 389,
      "ới": 390,
      "am": 391,
      "ong": 392,
      "ាំ": 393,
      "các": 394,
      "ại": 395,
      "ướ": 396,
      "iế": 397,
      "uy": 398,
      "ân": 399,
      "និង": 400,
      "បាន": 401,
      "ុង": 402,
      "iệt": 403,
      "là": 404,
      "ស់": 405,
      "ភា": 406,
      "inh": 407,
      "ườ": 408,
      "ាម": 409,
      "ực": 410,
      "ượ": 411,
      "Nam": 412,
      "ốc": 413,
      "iể": 414,
      "ất": 415,
      "Việt": 416,
      "ước": 417,
      "ngh": 418,
      "trong": 419,
      "ội": 420,
      "ាក": 421,
      "ប់": 422,
      "Tr": 423,
      "Th": 424,
      "iên": 425,
      "្ល": 426,
      "្ស": 427,
      "ình": 428,
      "iện": 429,
      "ក្ន": 430,
      "ក្នុង": 431,
      "្ឋ": 432,
      "iề": 433,
      "có": 434,
      "ដ្ឋ": 435,
      "phá": 436,
      "ươ": 437,
      "នៅ": 438,
      "ច្": 439,
      "ành": 440,
      "ương": 441,
      "មាន": 442,
      "với": 443,
      "ăm": 444,
      "ược": 445,
      "ត្ត": 446,
      "ai": 447,
      "ភាព": 448,
      "រប": 449,
      "កម្": 450,
      "ោះ": 451,
      "ày": 452,
      "ដែ": 453,
      "ពី": 454,
      "nước": 455,
      "đã": 456,
      "ាយ": 457,
      "ាង": 458,
      "វិ": 459,
      "cho": 460,
      "Ng": 461,
      "ao": 462,
      "េស": 463,
      "ính": 464,
      "oà": 465,
      "ាស": 466,
      "ៀត": 467,
      "ối": 468,
      "ាក់": 469,
      "Ch": 470,
      "ung": 471,
      "ាល": 472,
      "របស់": 473,
      "ộng": 474,
      "20": 475,
      "ầu": 476,
      "được": 477,
      "សម": 478,
      "្យ": 479,
      "iều": 480,
      "ូវ": 481,
      "ាំង": 482,
      "tế": 483,
      "ức": 484,
      "ần": 485,
      "ច្ច": 486,
      "ường": 487,
      "ết": 488,
      "ំណ": 489,
      "ង្": 490,
      "កម្ម": 491,
      "តិ": 492,
      "ត្រ": 493,
      "ឹង": 494,
      "ột": 495,
      "quan": 496,
      "ាប់": 497,
      "anh": 498,
      "ững": 499,
      "iển": 500,
      "េះ": 501,
      "năm": 502,
      "ួយ": 503,
      "Qu": 504,
      "ដែល": 505,
      "iến": 506,
      "hội": 507,
      "ណាម": 508,
      "đị": 509,
      "ំន": 510,
      "ក្រ": 511,
      "ន្ត": 512,
      "quy": 513,
      "វៀត": 514,
      "ang": 515,
      "វៀតណាម": 516,
      "ោយ": 517,
      "ải": 518,
      "ទេស": 519,
      "một": 520,
      "ăng": 521,
      "ិច្ច": 522,
      "ách": 523,
      "ទី": 524,
      "លើ": 525,
      "quốc": 526,
      "នេះ": 527,
      "ản": 528,
      "ồng": 529,
      "កិច្ច": 530,
      "រដ្ឋ": 531,
      "công": 532,
      "ền": 533,
      "ây": 534,
      "ận": 535,
      "về": 536,
      "្វ": 537,
      "Ph": 538,
      "để": 539,
      "ục": 540,
      "្ធ": 541,
      "ến": 542,
      "មួយ": 543,
      "ợp": 544,
      "លោ": 545,
      "ập": 546,
      "oàn": 547,
      "do": 548,
      "những": 549,
      "định": 550,
      "tác": 551,
      "ay": 552,
      "iệc": 553,
      "ថា": 554,
      "iệp": 555,
      "ឆ្ន": 556,
      "phát": 557,
      "chính": 558,
      "នៃ": 559,
      "triển": 560,
      "លោក": 561,
      "ho": 562,
      "ười": 563,
      "hợp": 564,
      "Quốc": 565,
      "kinh": 566,
      "ống": 567,
      "ộc": 568,
      "ịch": 569,
      "dân": 570,
      "họ": 571,
      "đó": 572,
      "ញ្": 573,
      "បន": 574,
      "ũng": 575,
      "động": 576,
      "người": 577,
      "ូល": 578,
      "ិន": 579,
      "việc": 580,
      "ស្": 581,
      "ដើ": 582,
      "không": 583,
      "ạo": 584,
      "sự": 585,
      "đồng": 586,
      "àng": 587,
      "គ្រ": 588,
      "ដោយ": 589,
      "giá": 590,
      "thành": 591,
      "này": 592,
      "Nh": 593,
      "ra": 594,
      "ប្រទេស": 595,
      "ពេ": 596,
      "đầu": 597,
      "ti": 598,
      "ឆ្នាំ": 599,
      "ាត": 600,
      "ảng": 601,
      "នា": 602,
      "hiện": 603,
      "ិក": 604,
      "នឹង": 605,
      "ត្រូវ": 606,
      "បី": 607,
      "dự": 608,
      "gia": 609,
      "ាន់": 610,
      "ời": 611,
      "ật": 612,
      "tại": 613,
      "ិត": 614,
      "ạt": 615,
      "ảo": 616,
      "như": 617,
      "thu": 618,
      "នុ": 619,
      "ơn": 620,
      "ưở": 621,
      "ើន": 622,
      "ưởng": 623,
      "từ": 624,
      "ទៅ": 625,
      "ំព": 626,
      "vào": 627,
      "ọng": 628,
      "សេ": 629,
      "ល់": 630,
      "cũng": 631,
      "ទាំង": 632,
      "nghiệp": 633,
      "ជន": 634,
      "ស្រ": 635,
      "án": 636,
      "យោ": 637,
      "201": 638,
      "sẽ": 639,
      "ấn": 640,
      "nhân": 641,
      "đối": 642,
      "ម្បី": 643,
      "thực": 644,
      "សហ": 645,
      "ពេល": 646,
      "ễn": 647,
      "đề": 648,
      "ស្ស": 649,
      "ដើម្បី": 650,
      "ថ្": 651,
      "hệ": 652,
      "nhiều": 653,
      "êu": 654,
      "đến": 655,
      "ទ្ធ": 656,
      "័យ": 657,
      "ពិ": 658,
      "២០": 659,
      "ព្រ": 660,
      "trên": 661,
      "cả": 662,
      "សម្រ": 663,
      "ជាតិ": 664,
      "thể": 665,
      "eo": 666,
      "học": 667,
      "ấp": 668,
      "áng": 669,
      "ùng": 670,
      "iết": 671,
      "vực": 672,
      "on": 673,
      "Nguy": 674,
      "ើង": 675,
      "ភិ": 676,
      "គឺ": 677,
      "iệu": 678,
      "អា": 679,
      "ăn": 680,
      "ណ្": 681,
      "ướng": 682,
      "cao": 683,
      "តែ": 684,
      "ធាន": 685,
      "cơ": 686,
      "trường": 687,
      "ổi": 688,
      "្ទ": 689,
      "tăng": 690,
      "mạ": 691,
      "lu": 692,
      "ន៍": 693,
      "បង្": 694,
      "kết": 695,
      "ទំន": 696,
      "Trung": 697,
      "ích": 698,
      "cu": 699,
      "tiế": 700,
      "hai": 701,
      "úc": 702,
      "ួន": 703,
      "រួ": 704,
      "nhất": 705,
      "pháp": 706,
      "au": 707,
      "ằng": 708,
      "tư": 709,
      "ữa": 710,
      "ổng": 711,
      "ngày": 712,
      "ượng": 713,
      "ប៉": 714,
      "số": 715,
      "en": 716,
      "hơn": 717,
      "ត្តិ": 718,
      "hàng": 719,
      "mới": 720,
      "រួម": 721,
      "បញ្": 722,
      "doanh": 723,
      "iệm": 724,
      "lực": 725,
      "uyên": 726,
      "ធ្វ": 727,
      "ធ្វើ": 728,
      "thời": 729,
      "khi": 730,
      "trọng": 731,
      "ôi": 732,
      "ែង": 733,
      "អនុ": 734,
      "iểm": 735,
      "ុក": 736,
      "âu": 737,
      "ាស់": 738,
      "ក្ស": 739,
      "ង់": 740,
      "ួល": 741,
      "nhà": 742,
      "nghị": 743,
      "áo": 744,
      "ុន": 745,
      "ែក": 746,
      "chủ": 747,
      "viên": 748,
      "ài": 749,
      "tiếp": 750,
      "ផល": 751,
      "oại": 752,
      "៊ី": 753,
      "ប្រជា": 754,
      "ia": 755,
      "ôn": 756,
      "thế": 757,
      "ជ្": 758,
      "ម្រ": 759,
      "quyền": 760,
      "qua": 761,
      "toàn": 762,
      "làm": 763,
      "្ថ": 764,
      "khu": 765,
      "00": 766,
      "ào": 767,
      "ជាមួយ": 768,
      "thống": 769,
      "chức": 770,
      "chỉ": 771,
      "đang": 772,
      "មិន": 773,
      "Bộ": 774,
      "ក៏": 775,
      "្តី": 776,
      "xu": 777,
      "AS": 778,
      "giới": 779,
      "cuộc": 780,
      "ạn": 781,
      "តាម": 782,
      "សិ": 783,
      "ុំ": 784,
      "ảm": 785,
      "trưởng": 786,
      "ាត់": 787,
      "ច្រ": 788,
      "ặc": 789,
      "ើយ": 790,
      "ដល់": 791,
      "lớ": 792,
      "ដូ": 793,
      "ង្គ": 794,
      "ាធ": 795,
      "ហា": 796,
      "ASE": 797,
      "hành": 798,
      "sản": 799,
      "យ៉": 800,
      "thông": 801,
      "នោះ": 802,
      "ứng": 803,
      "quyết": 804,
      "េរ": 805,
      "phải": 806,
      "ខ្ល": 807,
      "AN": 808,
      "ặt": 809,
      "đổi": 810,
      "iểu": 811,
      "mạnh": 812,
      "ASEAN": 813,
      "trình": 814,
      "tạo": 815,
      "Mỹ": 816,
      "ច្រើន": 817,
      "ុខ": 818,
      "òng": 819,
      "យ៉ាង": 820,
      "ắc": 821,
      "âm": 822,
      "ái": 823,
      "នាំ": 824,
      "ណ្ត": 825,
      "បង្ក": 826,
      "ឡើង": 827,
      "lại": 828,
      "quả": 829,
      "giữa": 830,
      "ោល": 831,
      "ខាង": 832,
      "ិត្ត": 833,
      "សម្រាប់": 834,
      "phủ": 835,
      "Trong": 836,
      "ខ្": 837,
      "Chủ": 838,
      "ចំណ": 839,
      "Nguyễn": 840,
      "ត្រូវបាន": 841,
      "ជី": 842,
      "សេដ្ឋ": 843,
      "ូរ": 844,
      "dựng": 845,
      "bảo": 846,
      "សេដ្ឋកិច្ច": 847,
      "ដូច": 848,
      "vụ": 849,
      "xã": 850,
      "អ្ន": 851,
      "sinh": 852,
      "ឌ្": 853,
      "អ្នក": 854,
      "kho": 855,
      "វឌ្": 856,
      "tin": 857,
      "អភិ": 858,
      "ប្រធាន": 859,
      "ណៈ": 860,
      "លើក": 861,
      "ដំណ": 862,
      "វឌ្ឍ": 863,
      "ភាគ": 864,
      "tịch": 865,
      "tướng": 866,
      "មក": 867,
      "ẫn": 868,
      "មី": 869,
      "đại": 870,
      "trị": 871,
      "Tổng": 872,
      "ចំន": 873,
      "úng": 874,
      "ណ៍": 875,
      "វត្ត": 876,
      "ចូល": 877,
      "ឹក": 878,
      "xuất": 879,
      "ưa": 880,
      "đạo": 881,
      "សំ": 882,
      "ចំនួន": 883,
      "xây": 884,
      "ប្រតិ": 885,
      "lớn": 886,
      "Thủ": 887,
      "òn": 888,
      "cấp": 889,
      "Chính": 890,
      "អភិវឌ្ឍ": 891,
      "nhiệm": 892,
      "តំ": 893,
      "ផ្ស": 894,
      "ព័": 895,
      "ថ្ង": 896,
      "ថ្ងៃ": 897,
      "ើត": 898,
      "ុះ": 899,
      "bộ": 900,
      "phương": 901,
      "tiêu": 902,
      "19": 903,
      "ទទ": 904,
      "tục": 905,
      "Hội": 906,
      "សារ": 907,
      "ẳng": 908,
      "lã": 909,
      "ទទួល": 910,
      "ម្ល": 911,
      "giải": 912,
      "ợi": 913,
      "tự": 914,
      "បរ": 915,
      "្គ": 916,
      "vấn": 917,
      "điều": 918,
      "giao": 919,
      "lượng": 920,
      "ẩy": 921,
      "theo": 922,
      "rằng": 923,
      "ánh": 924,
      "tổ": 925,
      "បត្តិ": 926,
      "បន់": 927,
      "tới": 928,
      "bình": 929,
      "mà": 930,
      "thương": 931,
      "២០១": 932,
      "át": 933,
      "àn": 934,
      "Đảng": 935,
      "ឹម": 936,
      "sách": 937,
      "in": 938,
      "thị": 939,
      "cách": 940,
      "nay": 941,
      "đẩy": 942,
      "ỉnh": 943,
      "តំបន់": 944,
      "អាម": 945,
      "បណ្ត": 946,
      "្ប": 947,
      "ុម": 948,
      "biết": 949,
      "អាមេរ": 950,
      "ốt": 951,
      "គោល": 952,
      "tham": 953,
      "cầu": 954,
      "អាមេរិក": 955,
      "điểm": 956,
      "ហើយ": 957,
      "ទ្រ": 958,
      "lập": 959,
      "ត្ថ": 960,
      "កំព": 961,
      "lý": 962,
      "còn": 963,
      "ាល់": 964,
      "hình": 965,
      "ើរ": 966,
      "hiệu": 967,
      "ាធិ": 968,
      "chuy": 969,
      "អាស": 970,
      "lần": 971,
      "ផ្ល": 972,
      "ក់": 973,
      "សាស": 974,
      "er": 975,
      "រយ": 976,
      "ប្រជាជន": 977,
      "nhận": 978,
      "នូវ": 979,
      "thức": 980,
      "giáo": 981,
      "ទ្យ": 982,
      "chiến": 983,
      "tháng": 984,
      "sử": 985,
      "năng": 986,
      "gó": 987,
      "lợi": 988,
      "ន្ធ": 989,
      "ថ្មី": 990,
      "ត់": 991,
      "tâm": 992,
      "ុប": 993,
      "្នាក់": 994,
      "ốn": 995,
      "hoạt": 996,
      "di": 997,
      "ច្ប": 998,
      "អនុវត្ត": 999,
      "ស្ថ": 1000,
      "ạch": 1001,
      "បាល": 1002,
      "vi": 1003,
      "ក្": 1004,
      "mại": 1005,
      "ជាច្រើន": 1006,
      "al": 1007,
      "្នា": 1008,
      "oài": 1009,
      "dụ": 1010,
      "ាណ": 1011,
      "អំ": 1012,
      "េញ": 1013,
      "វិទ្យ": 1014,
      "ាច": 1015,
      "រដ្ឋម": 1016,
      "dịch": 1017,
      "ĩnh": 1018,
      "biệt": 1019,
      "បំ": 1020,
      "đạt": 1021,
      "bị": 1022,
      "ក្រុម": 1023,
      "ប្រតិបត្តិ": 1024,
      "thứ": 1025,
      "Ho": 1026,
      "cần": 1027,
      "cử": 1028,
      "ấy": 1029,
      "ិស": 1030,
      "dụng": 1031,
      "iền": 1032,
      "យោប": 1033,
      "ar": 1034,
      "lãnh": 1035,
      "ប្រក": 1036,
      "óa": 1037,
      "cùng": 1038,
      "tích": 1039,
      "មូល": 1040,
      "ៀប": 1041,
      "nó": 1042,
      "រយៈ": 1043,
      "ប៉ុ": 1044,
      "chế": 1045,
      "នៅក្នុង": 1046,
      "គ្គ": 1047,
      "luật": 1048,
      "đây": 1049,
      "សមា": 1050,
      "nhập": 1051,
      "góp": 1052,
      "បណ្": 1053,
      "ន្តរ": 1054,
      "ពីរ": 1055,
      "ពស់": 1056,
      "sau": 1057,
      "ban": 1058,
      "ទៀត": 1059,
      "គ្រប់": 1060,
      "trước": 1061,
      "lĩnh": 1062,
      "អំពី": 1063,
      "đoàn": 1064,
      "ấu": 1065,
      "ọi": 1066,
      "thúc": 1067,
      "បក្ស": 1068,
      "ឲ្យ": 1069,
      "ាញ": 1070,
      "ជំ": 1071,
      "ទុក": 1072,
      "Liên": 1073,
      "bên": 1074,
      "ចិត្ត": 1075,
      "ញ្ញ": 1076,
      "tình": 1077,
      "biểu": 1078,
      "ទំនង": 1079,
      "áp": 1080,
      "kỳ": 1081,
      "đất": 1082,
      "នាយ": 1083,
      "ប្រតិបត្តិការ": 1084,
      "mu": 1085,
      "ចំព": 1086,
      "ចំពោះ": 1087,
      "បទ": 1088,
      "វិស": 1089,
      "báo": 1090,
      "ទំនាក់": 1091,
      "វាង": 1092,
      "ខែ": 1093,
      "គ្នា": 1094,
      "tỷ": 1095,
      "ឱ្យ": 1096,
      "ទំនាក់ទំនង": 1097,
      "gian": 1098,
      "liên": 1099,
      "Gi": 1100,
      "យោបាយ": 1101,
      "ផ្ត": 1102,
      "នយោបាយ": 1103,
      "ភិបាល": 1104,
      "ភព": 1105,
      "rất": 1106,
      "ជ្ជ": 1107,
      "េច": 1108,
      "ằm": 1109,
      "សកម្ម": 1110,
      "ករ": 1111,
      "អភិវឌ្ឍន៍": 1112,
      "សភា": 1113,
      "អន្តរ": 1114,
      "នាយក": 1115,
      "ាភិបាល": 1116,
      "tranh": 1117,
      "đặc": 1118,
      "tỉnh": 1119,
      "ជ្រ": 1120,
      "តម្ល": 1121,
      "មុខ": 1122,
      "em": 1123,
      "trung": 1124,
      "Đại": 1125,
      "lên": 1126,
      "អង្គ": 1127,
      "phòng": 1128,
      "ạm": 1129,
      "phần": 1130,
      "Đông": 1131,
      "្ត្រ": 1132,
      "រវាង": 1133,
      "khác": 1134,
      "bố": 1135,
      "thăm": 1136,
      "Theo": 1137,
      "Kh": 1138,
      "tốt": 1139,
      "ចេញ": 1140,
      "ខាន់": 1141,
      "con": 1142,
      "បើ": 1143,
      "សំខាន់": 1144,
      "tập": 1145,
      "êm": 1146,
      "khai": 1147,
      "សន": 1148,
      "ទ្ធិ": 1149,
      "giảm": 1150,
      "ếu": 1151,
      "trở": 1152,
      "េង": 1153,
      "đi": 1154,
      "òa": 1155,
      "ដា": 1156,
      "ồn": 1157,
      "តម្លៃ": 1158,
      "រី": 1159,
      "កំពុង": 1160,
      "បង្កើត": 1161,
      "ក្រុង": 1162,
      "trợ": 1163,
      "ển": 1164,
      "kiến": 1165,
      "រំ": 1166,
      "ម៉": 1167,
      "សហប្រតិបត្តិការ": 1168,
      "កំណ": 1169,
      "nền": 1170,
      "បច្ច": 1171,
      "អាច": 1172,
      "ជីវ": 1173,
      "nhưng": 1174,
      "ដ៏": 1175,
      "thuận": 1176,
      "chất": 1177,
      "អន្តរជាតិ": 1178,
      "ដំណើរ": 1179,
      "ក្សា": 1180,
      "្រី": 1181,
      "tiến": 1182,
      "ពិស": 1183,
      "so": 1184,
      "el": 1185,
      "vì": 1186,
      "hướng": 1187,
      "ដែរ": 1188,
      "ុល": 1189,
      "tiên": 1190,
      "ắt": 1191,
      "សន្ត": 1192,
      "ច្បាប់": 1193,
      "បត": 1194,
      "និយោ": 1195,
      "គណៈ": 1196,
      "កាល": 1197,
      "co": 1198,
      "sở": 1199,
      "ផង": 1200,
      "យុ": 1201,
      "ជំន": 1202,
      "mục": 1203,
      "chung": 1204,
      "ដៅ": 1205,
      "មនុ": 1206,
      "Công": 1207,
      "យក": 1208,
      "lịch": 1209,
      "cực": 1210,
      "ព័ន្ធ": 1211,
      "Kỳ": 1212,
      "kiện": 1213,
      "cường": 1214,
      "ណ្ឌ": 1215,
      "khẳng": 1216,
      "thiết": 1217,
      "ដី": 1218,
      "ជាក់": 1219,
      "nhằm": 1220,
      "chia": 1221,
      "địa": 1222,
      "mở": 1223,
      "ậy": 1224,
      "ងារ": 1225,
      "thi": 1226,
      "đảm": 1227,
      "វិស័យ": 1228,
      "Hà": 1229,
      "ដ្ឋាន": 1230,
      "ប្ត": 1231,
      "ưu": 1232,
      "ន្ល": 1233,
      "រុ": 1234,
      "vẫn": 1235,
      "៊ាន": 1236,
      "ដាក់": 1237,
      "tôi": 1238,
      "chu": 1239,
      "ភាគី": 1240,
      "ជាង": 1241,
      "văn": 1242,
      "10": 1243,
      "ថ្ងៃទី": 1244,
      "EU": 1245,
      "លាន": 1246,
      "ព្រម": 1247,
      "nói": 1248,
      "រយៈពេល": 1249,
      "diện": 1250,
      "ប្រជ": 1251,
      "ៀង": 1252,
      "ủng": 1253,
      "អាស៊ាន": 1254,
      "បន្ត": 1255,
      "សម្": 1256,
      "Xu": 1257,
      "វិនិយោ": 1258,
      "Nguyen": 1259,
      "ថ្នាក់": 1260,
      "uyền": 1261,
      "វិនិយោគ": 1262,
      "ាធិការ": 1263,
      "khẩ": 1264,
      "hóa": 1265,
      "ngoại": 1266,
      "ការព": 1267,
      "ចាប់": 1268,
      "Minh": 1269,
      "nghĩ": 1270,
      "ngoài": 1271,
      "ừa": 1272,
      "đánh": 1273,
      "្អ": 1274,
      "គម": 1275,
      "ទេ": 1276,
      "ផ្ទ": 1277,
      "លេ": 1278,
      "ដូចជា": 1279,
      "mình": 1280,
      "tài": 1281,
      "ទីក្រុង": 1282,
      "ký": 1283,
      "âng": 1284,
      "ពាណ": 1285,
      "គេ": 1286,
      "hoạch": 1287,
      "ពាណិ": 1288,
      "ាវ": 1289,
      "ngành": 1290,
      "ពាណិជ្ជ": 1291,
      "ប្រាក់": 1292,
      "triệu": 1293,
      "សួ": 1294,
      "ẩm": 1295,
      "châu": 1296,
      "ខ្ពស់": 1297,
      "Nga": 1298,
      "đưa": 1299,
      "bản": 1300,
      "ដឹក": 1301,
      "Nhà": 1302,
      "លេខ": 1303,
      "chúng": 1304,
      "ែន": 1305,
      "tu": 1306,
      "ូប": 1307,
      "បញ្ហា": 1308,
      "im": 1309,
      "2020": 1310,
      "Bình": 1311,
      "diễn": 1312,
      "nông": 1313,
      "ừng": 1314,
      "ុត": 1315,
      "Hoa": 1316,
      "ពិសេស": 1317,
      "បន្ទ": 1318,
      "ទូ": 1319,
      "ចំ": 1320,
      "Các": 1321,
      "ទស្ស": 1322,
      "trò": 1323,
      "សង្គ": 1324,
      "ពល": 1325,
      "biến": 1326,
      "សង្គម": 1327,
      "វិញ": 1328,
      "vị": 1329,
      "khẩu": 1330,
      "or": 1331,
      "ូង": 1332,
      "គឺជា": 1333,
      "ចិន": 1334,
      "ẩn": 1335,
      "ន្តែ": 1336,
      "ធី": 1337,
      "ប៉ុន្តែ": 1338,
      "បណ្ដា": 1339,
      "ពាណិជ្ជកម្ម": 1340,
      "ជិក": 1341,
      "US": 1342,
      "rộng": 1343,
      "េត": 1344,
      "hòa": 1345,
      "រដ្ឋាភិបាល": 1346,
      "ắn": 1347,
      "đóng": 1348,
      "ឯក": 1349,
      "vững": 1350,
      "ta": 1351,
      "khó": 1352,
      "ខ្លួន": 1353,
      "bằng": 1354,
      "nâng": 1355,
      "កាន់": 1356,
      "ninh": 1357,
      "កស": 1358,
      "et": 1359,
      "cộng": 1360,
      "chống": 1361,
      "Nội": 1362,
      "gần": 1363,
      "ồi": 1364,
      "ពិភព": 1365,
      "ចុះ": 1366,
      "រ៉": 1367,
      "huy": 1368,
      "nghệ": 1369,
      "lược": 1370,
      "tiền": 1371,
      "ការណ៍": 1372,
      "Anh": 1373,
      "ạnh": 1374,
      "mức": 1375,
      "cảnh": 1376,
      "luận": 1377,
      "ែម": 1378,
      "minh": 1379,
      "ក្ខ": 1380,
      "es": 1381,
      "USD": 1382,
      "ចូលរួម": 1383,
      "cứ": 1384,
      "uồn": 1385,
      "thì": 1386,
      "ន្រ": 1387,
      "មិ": 1388,
      "ន្រ្តី": 1389,
      "ổn": 1390,
      "ệnh": 1391,
      "ពិភពលោក": 1392,
      "ởi": 1393,
      "មនុស្ស": 1394,
      "ចរ": 1395,
      "ស្រាយ": 1396,
      "០០": 1397,
      "vai": 1398,
      "ូន": 1399,
      "ម្ម": 1400,
      "thư": 1401,
      "ខ្លាំង": 1402,
      "ំប": 1403,
      "ស្ថាន": 1404,
      "nghĩa": 1405,
      "độ": 1406,
      "ទទួលបាន": 1407,
      "សមាជិក": 1408,
      "សង្": 1409,
      "Cộng": 1410,
      "hỗ": 1411,
      "សកម្មភាព": 1412,
      "ữu": 1413,
      "សេច": 1414,
      "mặt": 1415,
      "chí": 1416,
      "thảo": 1417,
      "ស្ត": 1418,
      "ầm": 1419,
      "សួង": 1420,
      "ៀន": 1421,
      "ក្រសួង": 1422,
      "ោះស្រាយ": 1423,
      "បរទេស": 1424,
      "ỗi": 1425,
      "ខេ": 1426,
      "ោត": 1427,
      "tộc": 1428,
      "truyền": 1429,
      "ដឹកនាំ": 1430,
      "និយ": 1431,
      "àm": 1432,
      "ិភាព": 1433,
      "Phó": 1434,
      "ក្ល": 1435,
      "tuy": 1436,
      "ảnh": 1437,
      "EC": 1438,
      "ផុត": 1439,
      "ុទ្រ": 1440,
      "thủ": 1441,
      "Co": 1442,
      "ហូ": 1443,
      "iếu": 1444,
      "កន្ល": 1445,
      "ប្រជុំ": 1446,
      "hoàn": 1447,
      "ខេត្ត": 1448,
      "nguồn": 1449,
      "quân": 1450,
      "មុន": 1451,
      "mọi": 1452,
      "សរ": 1453,
      "đo": 1454,
      "ជីវកម្ម": 1455,
      "nhiên": 1456,
      "vệ": 1457,
      "សាស្ត្រ": 1458,
      "nguyên": 1459,
      "ន្ត្រី": 1460,
      "phố": 1461,
      "ba": 1462,
      "nên": 1463,
      "sức": 1464,
      "rõ": 1465,
      "ìn": 1466,
      "ធំ": 1467,
      "រដ្ឋមន្រ្តី": 1468,
      "thấy": 1469,
      "to": 1470,
      "ោង": 1471,
      "khách": 1472,
      "រៀប": 1473,
      "សមុទ្រ": 1474,
      "000": 1475,
      "ផ្លាស់": 1476,
      "ការងារ": 1477,
      "vậy": 1478,
      "សម្រេច": 1479,
      "ស្ម": 1480,
      "họp": 1481,
      "អង្គការ": 1482,
      "ក្តី": 1483,
      "hộ": 1484,
      "mạng": 1485,
      "chuẩn": 1486,
      "ហ៊": 1487,
      "đường": 1488,
      "នី": 1489,
      "ខ្ញ": 1490,
      "ដឹង": 1491,
      "រៀបចំ": 1492,
      "ដើម": 1493,
      "thường": 1494,
      "គណៈកម្ម": 1495,
      "រដ្ឋសភា": 1496,
      "ខ្ញុំ": 1497,
      "Ban": 1498,
      "tổng": 1499,
      "quá": 1500,
      "ផងដែរ": 1501,
      "chưa": 1502,
      "tất": 1503,
      "យុទ្ធ": 1504,
      "ង្រ": 1505,
      "អាជីវកម្ម": 1506,
      "chương": 1507,
      "បុ": 1508,
      "úp": 1509,
      "ắng": 1510,
      "phẩm": 1511,
      "út": 1512,
      "lo": 1513,
      "nội": 1514,
      "hữu": 1515,
      "ផលិត": 1516,
      "vùng": 1517,
      "និត": 1518,
      "đều": 1519,
      "ទស្សន": 1520,
      "Âu": 1521,
      "ួរ": 1522,
      "giúp": 1523,
      "ហ៊ុន": 1524,
      "bất": 1525,
      "chuyến": 1526,
      "វា": 1527,
      "phí": 1528,
      "ri": 1529,
      "សិទ្ធិ": 1530,
      "hi": 1531,
      "កសាង": 1532,
      "បំផុត": 1533,
      "Ông": 1534,
      "ាហ": 1535,
      "bước": 1536,
      "ានា": 1537,
      "bán": 1538,
      "tính": 1539,
      "trực": 1540,
      "បន្ថ": 1541,
      "បរិ": 1542,
      "កិច្ចសហប្រតិបត្តិការ": 1543,
      "នានា": 1544,
      "vid": 1545,
      "càng": 1546,
      "khí": 1547,
      "chuyển": 1548,
      "ện": 1549,
      "ប្តូរ": 1550,
      "đàm": 1551,
      "trí": 1552,
      "du": 1553,
      "ផ្សារ": 1554,
      "nhau": 1555,
      "sáng": 1556,
      "អោយ": 1557,
      "lao": 1558,
      "គណៈកម្មាធិការ": 1559,
      "dục": 1560,
      "AP": 1561,
      "កាត់": 1562,
      "yêu": 1563,
      "Tru": 1564,
      "biển": 1565,
      "ការពារ": 1566,
      "su": 1567,
      "Nhật": 1568,
      "kế": 1569,
      "ỏi": 1570,
      "អគ្គ": 1571,
      "ơi": 1572,
      "ចាំ": 1573,
      "vừa": 1574,
      "óng": 1575,
      "ស្តី": 1576,
      "ណា": 1577,
      "hạn": 1578,
      "duy": 1579,
      "រដ្ឋមន្ត្រី": 1580,
      "គមន៍": 1581,
      "sống": 1582,
      "ាល័យ": 1583,
      "បន្ទាប់": 1584,
      "Biển": 1585,
      "វិធី": 1586,
      "nỗ": 1587,
      "TP": 1588,
      "Lu": 1589,
      "phục": 1590,
      "ព្រៀង": 1591,
      "thay": 1592,
      "ពេញ": 1593,
      "hoá": 1594,
      "យើង": 1595,
      "khoảng": 1596,
      "vốn": 1597,
      "trách": 1598,
      "ស្ន": 1599,
      "ុយ": 1600,
      "as": 1601,
      "ព្រមព្រៀង": 1602,
      "Đây": 1603,
      "sát": 1604,
      "ran": 1605,
      "្ង": 1606,
      "ាច់": 1607,
      "ជ្ឈ": 1608,
      "Xuân": 1609,
      "ជួយ": 1610,
      "bu": 1611,
      "មជ្ឈ": 1612,
      "ព័ត": 1613,
      "ចាត់": 1614,
      "គំ": 1615,
      "ឆ្ល": 1616,
      "ុស": 1617,
      "tương": 1618,
      "Bản": 1619,
      "cứu": 1620,
      "Tuy": 1621,
      "ín": 1622,
      "ញ្ញា": 1623,
      "បតី": 1624,
      "ល្អ": 1625,
      "Ủy": 1626,
      "ផ្លាស់ប្តូរ": 1627,
      "បោះ": 1628,
      "ត្ប": 1629,
      "ួប": 1630,
      "trì": 1631,
      "Ngh": 1632,
      "cải": 1633,
      "quản": 1634,
      "ដៃ": 1635,
      "្បន": 1636,
      "វេ": 1637,
      "េក": 1638,
      "hoà": 1639,
      "môi": 1640,
      "្បន្ន": 1641,
      "កាស": 1642,
      "៉េ": 1643,
      "cạnh": 1644,
      "អស់": 1645,
      "បច្ចុប": 1646,
      "ạng": 1647,
      "ជាប់": 1648,
      "ើញ": 1649,
      "៌មាន": 1650,
      "hết": 1651,
      "ưng": 1652,
      "khăn": 1653,
      "nào": 1654,
      "បច្ចុប្បន្ន": 1655,
      "luôn": 1656,
      "ភូ": 1657,
      "hưởng": 1658,
      "ប្រកប": 1659,
      "Ngoại": 1660,
      "Đồng": 1661,
      "ty": 1662,
      "ធិ": 1663,
      "កិច្ចព្រមព្រៀង": 1664,
      "ាក់ទ": 1665,
      "កូរ": 1666,
      "Hàn": 1667,
      "Triều": 1668,
      "សេចក្តី": 1669,
      "GD": 1670,
      "Văn": 1671,
      "ậu": 1672,
      "លាំង": 1673,
      "12": 1674,
      "ពាន់": 1675,
      "Covid": 1676,
      "ព័ត៌មាន": 1677,
      "រូប": 1678,
      "đảo": 1679,
      "ឧប": 1680,
      "ការប្រ": 1681,
      "សិក": 1682,
      "ប្រកបដោយ": 1683,
      "thiện": 1684,
      "điện": 1685,
      "phán": 1686,
      "cáo": 1687,
      "្សា": 1688,
      "APEC": 1689,
      "វាយ": 1690,
      "kỷ": 1691,
      "ប៉ុន": 1692,
      "ឿន": 1693,
      "ìm": 1694,
      "11": 1695,
      "កូរ៉េ": 1696,
      "song": 1697,
      "mang": 1698,
      "từng": 1699,
      "Thái": 1700,
      "Bí": 1701,
      "Phu": 1702,
      "muốn": 1703,
      "Cam": 1704,
      "បណ្តា": 1705,
      "đặt": 1706,
      "នាក់": 1707,
      "េតុ": 1708,
      "đảng": 1709,
      "ន់": 1710,
      "tôn": 1711,
      "សុ": 1712,
      "ហេតុ": 1713,
      "kiểm": 1714,
      "mp": 1715,
      "ទាក់ទ": 1716,
      "រាល់": 1717,
      "đa": 1718,
      "Cu": 1719,
      "phạm": 1720,
      "dư": 1721,
      "2019": 1722,
      "សហគ្រ": 1723,
      "ជាពិសេស": 1724,
      "ét": 1725,
      "chuyên": 1726,
      "បង្កើន": 1727,
      "កើត": 1728,
      "vọng": 1729,
      "30": 1730,
      "nữa": 1731,
      "ចំណែក": 1732,
      "ទីផ្សារ": 1733,
      "ប្រធានាធិ": 1734,
      "tín": 1735,
      "ិរ": 1736,
      "mua": 1737,
      "đoạn": 1738,
      "tuyên": 1739,
      "cán": 1740,
      "ប្រធានាធិបតី": 1741,
      "Tiên": 1742,
      "ស្តីពី": 1743,
      "2018": 1744,
      "ិសុខ": 1745,
      "តាំង": 1746,
      "Trường": 1747,
      "សន្តិសុខ": 1748,
      "kể": 1749,
      "ថ្ល": 1750,
      "ត្រឹម": 1751,
      "Hồ": 1752,
      "iềm": 1753,
      "គ្រប់គ្រ": 1754,
      "ám": 1755,
      "គូ": 1756,
      "Hiệp": 1757,
      "bền": 1758,
      "ngân": 1759,
      "tìm": 1760,
      "ម្ភ": 1761,
      "១៩": 1762,
      "Nhân": 1763,
      "ស្រី": 1764,
      "chi": 1765,
      "ក្រុមហ៊ុន": 1766,
      "sâu": 1767,
      "tinh": 1768,
      "pu": 1769,
      "អ៊ី": 1770,
      "mối": 1771,
      "និយាយ": 1772,
      "Do": 1773,
      "សហគ្រាស": 1774,
      "ọn": 1775,
      "cam": 1776,
      "Luật": 1777,
      "ដូច្ន": 1778,
      "ស៊ី": 1779,
      "ផ្": 1780,
      "biện": 1781,
      "គោលដៅ": 1782,
      "រុញ": 1783,
      "coi": 1784,
      "un": 1785,
      "dẫn": 1786,
      "កម្លាំង": 1787,
      "្វី": 1788,
      "ភ្": 1789,
      "ផ្លូវ": 1790,
      "mô": 1791,
      "Chí": 1792,
      "កំណត់": 1793,
      "្មាន": 1794,
      "giữ": 1795,
      "tra": 1796,
      "bắt": 1797,
      "រក": 1798,
      "ផែន": 1799,
      "មិត្ត": 1800,
      "ប្រស": 1801,
      "ក្រោយ": 1802,
      "ួត": 1803,
      "dài": 1804,
      "ធ្ង": 1805,
      "ធ្ល": 1806,
      "iếm": 1807,
      "ặp": 1808,
      "bao": 1809,
      "Sa": 1810,
      "ណ្ណ": 1811,
      "េយ": 1812,
      "កន្លង": 1813,
      "ទស្សនកិច្ច": 1814,
      "ហាញ": 1815,
      "បង្ហាញ": 1816,
      "សាក": 1817,
      "ែល": 1818,
      "សាល": 1819,
      "mẽ": 1820,
      "puchia": 1821,
      "Đối": 1822,
      "Campuchia": 1823,
      "hay": 1824,
      "ោម": 1825,
      "Với": 1826,
      "លក្ខ": 1827,
      "ធម": 1828,
      "សិក្សា": 1829,
      "khoa": 1830,
      "phân": 1831,
      "វិទ្យា": 1832,
      "bầu": 1833,
      "thêm": 1834,
      "អាង": 1835,
      "ួក": 1836,
      "ដូច្នេះ": 1837,
      "bỏ": 1838,
      "កើន": 1839,
      "An": 1840,
      "ជំរុញ": 1841,
      "ដុល": 1842,
      "សន្ន": 1843,
      "nhấn": 1844,
      "ទឹក": 1845,
      "viện": 1846,
      "ដុល្ល": 1847,
      "ទិ": 1848,
      "us": 1849,
      "វត្ថ": 1850,
      "giai": 1851,
      "ដោះស្រាយ": 1852,
      "Dương": 1853,
      "Tổ": 1854,
      "mỗi": 1855,
      "ធានា": 1856,
      "ឆាំង": 1857,
      "chứng": 1858,
      "trao": 1859,
      "លទ្ធ": 1860,
      "ro": 1861,
      "chấp": 1862,
      "អះ": 1863,
      "ាកាស": 1864,
      "gặp": 1865,
      "ព្វ": 1866,
      "អប់": 1867,
      "áy": 1868,
      "Phúc": 1869,
      "ចាត់ទុក": 1870,
      "អះអាង": 1871,
      "ស្វ": 1872,
      "ពួក": 1873,
      "បើក": 1874,
      "គាំ": 1875,
      "ឆ្នោត": 1876,
      "cố": 1877,
      "Trump": 1878,
      "ប្ប": 1879,
      "đơn": 1880,
      "ើប": 1881,
      "សាធ": 1882,
      "ầy": 1883,
      "ទោះ": 1884,
      "ượt": 1885,
      "ប្រជាជាតិ": 1886,
      "ន្ទ": 1887,
      "ọc": 1888,
      "khủng": 1889,
      "នាទី": 1890,
      "Năm": 1891,
      "lời": 1892,
      "នាគ": 1893,
      "ខំ": 1894,
      "ប័": 1895,
      "2017": 1896,
      "សាធារ": 1897,
      "ជម្រ": 1898,
      "វិទ្យាល័យ": 1899,
      "phù": 1900,
      "បច្ចេក": 1901,
      "Kim": 1902,
      "Thị": 1903,
      "21": 1904,
      "តួ": 1905,
      "ឺរ៉": 1906,
      "thuộc": 1907,
      "Phú": 1908,
      "Hai": 1909,
      "bạn": 1910,
      "đàn": 1911,
      "អប់រំ": 1912,
      "iêm": 1913,
      "សាកល": 1914,
      "Những": 1915,
      "មូលដ្ឋាន": 1916,
      "កាន់តែ": 1917,
      "phụ": 1918,
      "tho": 1919,
      "loại": 1920,
      "la": 1921,
      "Đức": 1922,
      "ថែម": 1923,
      "ឱកាស": 1924,
      "ើស": 1925,
      "ồm": 1926,
      "trẻ": 1927,
      "Vi": 1928,
      "gồm": 1929,
      "ជូន": 1930,
      "Lào": 1931,
      "ធម៌": 1932,
      "hoặc": 1933,
      "bối": 1934,
      "ấm": 1935,
      "ẹp": 1936,
      "ដុង": 1937,
      "ជ័យ": 1938,
      "ដំប": 1939,
      "គ្រប់គ្រង": 1940,
      "សហគមន៍": 1941,
      "ប្រើ": 1942,
      "Nghị": 1943,
      "ខុស": 1944,
      "ដំណើរការ": 1945,
      "រណ": 1946,
      "Việc": 1947,
      "đào": 1948,
      "Điều": 1949,
      "xác": 1950,
      "បន្ទាប់ពី": 1951,
      "កត់": 1952,
      "ុណ": 1953,
      "ịp": 1954,
      "bệnh": 1955,
      "yếu": 1956,
      "គាំទ្រ": 1957,
      "dung": 1958,
      "Tại": 1959,
      "ប្រឆាំង": 1960,
      "ស្រុក": 1961,
      "gọi": 1962,
      "ទំ": 1963,
      "រុស្ស": 1964,
      "គុណ": 1965,
      "សន្តិភាព": 1966,
      "Thanh": 1967,
      "nhanh": 1968,
      "ជិត": 1969,
      "hậu": 1970,
      "រក្សា": 1971,
      "đáng": 1972,
      "200": 1973,
      "ép": 1974,
      "យន្ត": 1975,
      "2016": 1976,
      "អឺរ៉": 1977,
      "đủ": 1978,
      "Sy": 1979,
      "nếu": 1980,
      "រុស្ស៊ី": 1981,
      "óm": 1982,
      "xử": 1983,
      "នៅតែ": 1984,
      "លេខា": 1985,
      "thần": 1986,
      "ដំបូង": 1987,
      "កើនឡើង": 1988,
      "ដោយសារ": 1989,
      "Pháp": 1990,
      "II": 1991,
      "Sau": 1992,
      "ទូត": 1993,
      "bài": 1994,
      "chọn": 1995,
      "បណ្តាល": 1996,
      "cuối": 1997,
      "សំណ": 1998,
      "khiến": 1999,
      "tưởng": 2000,
      "ស្ថានភាព": 2001,
      "sang": 2002,
      "ដុល្លារ": 2003,
      "sẻ": 2004,
      "Ba": 2005,
      "ឿង": 2006,
      "Iran": 2007,
      "ដៃគូ": 2008,
      "កិច្ចប្រជុំ": 2009,
      "thuế": 2010,
      "OV": 2011,
      "២០២០": 2012,
      "ឃើញ": 2013,
      "đô": 2014,
      "យោង": 2015,
      "đội": 2016,
      "Trọng": 2017,
      "េយ្យ": 2018,
      "TA": 2019,
      "រួមចំណែក": 2020,
      "ប៉ុណ្ណ": 2021,
      "អំណ": 2022,
      "តួនាទី": 2023,
      "lệ": 2024,
      "xét": 2025,
      "ỡng": 2026,
      "ណី": 2027,
      "ពួកគេ": 2028,
      "Quang": 2029,
      "ាតុ": 2030,
      "àu": 2031,
      "ria": 2032,
      "ផ្តល់": 2033,
      "ប៉ុណ្ណោះ": 2034,
      "ការអនុវត្ត": 2035,
      "ប្រយោ": 2036,
      "ប្រាស់": 2037,
      "êng": 2038,
      "បោះឆ្នោត": 2039,
      "ប្": 2040,
      "គម្រ": 2041,
      "Một": 2042,
      "អ៊": 2043,
      "chị": 2044,
      "độc": 2045,
      "it": 2046,
      "ỏa": 2047,
      "máy": 2048,
      "dù": 2049,
      "Thành": 2050,
      "Syria": 2051,
      "ធន": 2052,
      "ព្រឹ": 2053,
      "Kinh": 2054,
      "លទ្ធផល": 2055,
      "2015": 2056,
      "្នែក": 2057,
      "សិទ្ធ": 2058,
      "tầm": 2059,
      "ter": 2060,
      "50": 2061,
      "បំណ": 2062,
      "gây": 2063,
      "តី": 2064,
      "phối": 2065,
      "sắc": 2066,
      "biên": 2067,
      "ắp": 2068,
      "đấu": 2069,
      "ប្រកាស": 2070,
      "ក្លាយ": 2071,
      "ផែនការ": 2072,
      "nối": 2073,
      "ឧស្ស": 2074,
      "អឺរ៉ុប": 2075,
      "ឡើងវិញ": 2076,
      "ោគ": 2077,
      "Trước": 2078,
      "khả": 2079,
      "ស្រប": 2080,
      "nghiệm": 2081,
      "đốc": 2082,
      "ប្រយោជន": 2083,
      "ើម": 2084,
      "ចប់": 2085,
      "ទាំងអស់": 2086,
      "គាល់": 2087,
      "កម្មវិធី": 2088,
      "lớp": 2089,
      "uyến": 2090,
      "cửa": 2091,
      "មតិ": 2092,
      "cá": 2093,
      "ặng": 2094,
      "phản": 2095,
      "hạt": 2096,
      "hút": 2097,
      "រង": 2098,
      "nghiên": 2099,
      "cụ": 2100,
      "សញ្ញា": 2101,
      "លោកស្រី": 2102,
      "đình": 2103,
      "មិញ": 2104,
      "il": 2105,
      "Thứ": 2106,
      "thách": 2107,
      "cung": 2108,
      "ក្រៅ": 2109,
      "sứ": 2110,
      "ច្បាស់": 2111,
      "phiếu": 2112,
      "Bắc": 2113,
      "ប្រយោជន៍": 2114,
      "សា": 2115,
      "liệu": 2116,
      "ណូ": 2117,
      "ផ្នែក": 2118,
      "កម្រ": 2119,
      "ត្រា": 2120,
      "ការអភិវឌ្ឍ": 2121,
      "ហារ": 2122,
      "giờ": 2123,
      "ạp": 2124,
      "បច្ចេកវិទ្យា": 2125,
      "ងឺ": 2126,
      "ស្ថា": 2127,
      "ប្រសិទ្ធ": 2128,
      "ធ្ងន់": 2129,
      "ការល": 2130,
      "ការធ្វើ": 2131,
      "ពិនិត": 2132,
      "នាំចេញ": 2133,
      "nhu": 2134,
      "is": 2135,
      "vàng": 2136,
      "ផ្សាយ": 2137,
      "hiệp": 2138,
      "ពិនិត្យ": 2139,
      "thoại": 2140,
      "ប្រសិទ្ធភាព": 2141,
      "Vì": 2142,
      "Di": 2143,
      "នៅលើ": 2144,
      "ព្យ": 2145,
      "្ម": 2146,
      "tuyển": 2147,
      "គួរ": 2148,
      "ជើង": 2149,
      "ណូយ": 2150,
      "trả": 2151,
      "ប្រឹ": 2152,
      "ប្រព័ន្ធ": 2153,
      "đúng": 2154,
      "បតេយ្យ": 2155,
      "១០": 2156,
      "VN": 2157,
      "FTA": 2158,
      "ហាណូយ": 2159,
      "ដែន": 2160,
      "ទ្វ": 2161,
      "mong": 2162,
      "គី": 2163,
      "ធិបតេយ្យ": 2164,
      "suất": 2165,
      "tiếng": 2166,
      "ឡើយ": 2167,
      "គ្រោះ": 2168,
      "trang": 2169,
      "sửa": 2170,
      "ឧស្សាហ": 2171,
      "Ngày": 2172,
      "បណ្តុះ": 2173,
      "កម្ពស់": 2174,
      "គម្រោង": 2175,
      "Lan": 2176,
      "ប្រឹង": 2177,
      "ប្រែង": 2178,
      "kỹ": 2179,
      "lai": 2180,
      "Thương": 2181,
      "កំណើន": 2182,
      "tắc": 2183,
      "đời": 2184,
      "Tây": 2185,
      "đẹp": 2186,
      "មួយចំនួន": 2187,
      "soát": 2188,
      "រាប់": 2189,
      "Phát": 2190,
      "25": 2191,
      "យល់": 2192,
      "Ngoài": 2193,
      "Hoà": 2194,
      "ិកា": 2195,
      "hồi": 2196,
      "អំព": 2197,
      "ាប": 2198,
      "ជ្ញ": 2199,
      "ប្រឹងប្រែង": 2200,
      "thanh": 2201,
      "បារ": 2202,
      "Ấn": 2203,
      "ត្បូង": 2204,
      "ពង្រ": 2205,
      "រំល": 2206,
      "nguy": 2207,
      "ហូជី": 2208,
      "ដំណើរទស្សនកិច្ច": 2209,
      "តំណ": 2210,
      "កំ": 2211,
      "ផ្សេង": 2212,
      "TH": 2213,
      "Độ": 2214,
      "Mo": 2215,
      "មហ": 2216,
      "វាយតម្លៃ": 2217,
      "Ngân": 2218,
      "អាស៊ី": 2219,
      "បន្ថែម": 2220,
      "បណ្តុះបណ្តាល": 2221,
      "សក": 2222,
      "Về": 2223,
      "ហូជីមិញ": 2224,
      "In": 2225,
      "vận": 2226,
      "សិស្ស": 2227,
      "hiểu": 2228,
      "bày": 2229,
      "tri": 2230,
      "đăng": 2231,
      "ភ្ជាប់": 2232,
      "ទន្ទ": 2233,
      "dùng": 2234,
      "ខិត": 2235,
      "បំពេញ": 2236,
      "vượt": 2237,
      "èo": 2238,
      "ភារ": 2239,
      "ឌិត": 2240,
      "nhóm": 2241,
      "khởi": 2242,
      "xem": 2243,
      "ខាងត្បូង": 2244,
      "ạy": 2245,
      "bà": 2246,
      "Hiến": 2247,
      "វិទ្យាស": 2248,
      "ឧស្សាហកម្ម": 2249,
      "យកចិត្ត": 2250,
      "đứng": 2251,
      "លើកកម្ពស់": 2252,
      "ថ្នាក់ដឹកនាំ": 2253,
      "បន្ថយ": 2254,
      "ិយ": 2255,
      "ទុកដាក់": 2256,
      "Don": 2257,
      "តម្រ": 2258,
      "កសិ": 2259,
      "ពុ": 2260,
      "ទាំងមូល": 2261,
      "ប្រឹក្សា": 2262,
      "hoa": 2263,
      "Để": 2264,
      "ប្រវ": 2265,
      "nêu": 2266,
      "ហូត": 2267,
      "យុទ្ធសាស្ត្រ": 2268,
      "ត្រឹមតែ": 2269,
      "យកចិត្តទុកដាក់": 2270,
      "ad": 2271,
      "ំបាក": 2272,
      "ắm": 2273,
      "ជាមួយនឹង": 2274,
      "ើល": 2275,
      "ជួប": 2276,
      "tái": 2277,
      "បដ": 2278,
      "thẳng": 2279,
      "nhìn": 2280,
      "សេរី": 2281,
      "គណ": 2282,
      "nghiêm": 2283,
      "សាលា": 2284,
      "Châu": 2285,
      "nghèo": 2286,
      "អង្គភាព": 2287,
      "ខាងកើត": 2288,
      "lưu": 2289,
      "tử": 2290,
      "ប័ន": 2291,
      "បម្រ": 2292,
      "ចាស់": 2293,
      "ảy": 2294,
      "ជាន់": 2295,
      "chặt": 2296,
      "ạc": 2297,
      "Chúng": 2298,
      "កម្រិត": 2299,
      "ពន្ធ": 2300,
      "ីទ": 2301,
      "ខាងមុខ": 2302,
      "dấu": 2303,
      "phê": 2304,
      "ing": 2305,
      "ាស៊ី": 2306,
      "hỏi": 2307,
      "Hải": 2308,
      "phong": 2309,
      "ចែក": 2310,
      "គំនិត": 2311,
      "ជប៉ុន": 2312,
      "tố": 2313,
      "ton": 2314,
      "hoảng": 2315,
      "Hoàng": 2316,
      "រហូត": 2317,
      "សន្និស": 2318,
      "Tu": 2319,
      "cấu": 2320,
      "nhỏ": 2321,
      "ជំនាញ": 2322,
      "័ត": 2323,
      "nơi": 2324,
      "giám": 2325,
      "đầy": 2326,
      "ជោគ": 2327,
      "រស់": 2328,
      "Trần": 2329,
      "អារ": 2330,
      "ស្ដី": 2331,
      "ចាប់ពី": 2332,
      "សន្និសីទ": 2333,
      "ap": 2334,
      "ណាស់": 2335,
      "មេ": 2336,
      "ោរ": 2337,
      "ទន្ទឹម": 2338,
      "bởi": 2339,
      "វត្ថុ": 2340,
      "chú": 2341,
      "ទេសចរ": 2342,
      "កែ": 2343,
      "ិច": 2344,
      "លក្ខណៈ": 2345,
      "tỏ": 2346,
      "tấn": 2347,
      "កាត់បន្ថយ": 2348,
      "ដាល": 2349,
      "thuật": 2350,
      "xuyên": 2351,
      "cảm": 2352,
      "ậm": 2353,
      "ស្ថិរ": 2354,
      "gắn": 2355,
      "ទូល": 2356,
      "ផលិតផល": 2357,
      "Long": 2358,
      "Donal": 2359,
      "đột": 2360,
      "15": 2361,
      "ស្ថិរភាព": 2362,
      "tượng": 2363,
      "phía": 2364,
      "nổi": 2365,
      "Hiện": 2366,
      "ជំងឺ": 2367,
      "ភូមិ": 2368,
      "PT": 2369,
      "ការអភិវឌ្ឍន៍": 2370,
      "ថ្លែង": 2371,
      "sĩ": 2372,
      "đáp": 2373,
      "Du": 2374,
      "ផ្តើម": 2375,
      "ghi": 2376,
      "đỉnh": 2377,
      "កំពូល": 2378,
      "ជោគជ័យ": 2379,
      "thỏa": 2380,
      "riêng": 2381,
      "Dũng": 2382,
      "ửa": 2383,
      "ក៏ដោយ": 2384,
      "ចុង": 2385,
      "ĐT": 2386,
      "នាគារ": 2387,
      "miền": 2388,
      "Nhưng": 2389,
      "ការបរទេស": 2390,
      "bay": 2391,
      "ង្វ": 2392,
      "Donald": 2393,
      "បាច់": 2394,
      "បញ្ចប់": 2395,
      "្រ្ត": 2396,
      "និញ": 2397,
      "ប្រសិន": 2398,
      "ុញ": 2399,
      "ngay": 2400,
      "ủy": 2401,
      "សុខ": 2402,
      "nghề": 2403,
      "ក្រុមប្រឹក្សា": 2404,
      "ប្រើប្រាស់": 2405,
      "ទិស": 2406,
      "យ៍": 2407,
      "ស្ថាប័ន": 2408,
      "ưỡng": 2409,
      "ND": 2410,
      "lan": 2411,
      "Thu": 2412,
      "ប្រទេសជាតិ": 2413,
      "តាមរយៈ": 2414,
      "ចារ": 2415,
      "lòng": 2416,
      "ចី": 2417,
      "bổ": 2418,
      "ប្រភព": 2419,
      "13": 2420,
      "thân": 2421,
      "វប្ប": 2422,
      "ការផ្លាស់ប្តូរ": 2423,
      "តាំងពី": 2424,
      "om": 2425,
      "ទំនិញ": 2426,
      "ប្រសិនបើ": 2427,
      "toán": 2428,
      "្រីក": 2429,
      "លក់": 2430,
      "Phạm": 2431,
      "ជម្រុញ": 2432,
      "ខឿន": 2433,
      "Hợp": 2434,
      "មាណ": 2435,
      "អង់": 2436,
      "កា": 2437,
      "GDP": 2438,
      "Từ": 2439,
      "ជំហ": 2440,
      "បញ្ញ": 2441,
      "ដំណោះស្រាយ": 2442,
      "Giám": 2443,
      "at": 2444,
      "TT": 2445,
      "bàn": 2446,
      "lâu": 2447,
      "ផលប្រយោជន៍": 2448,
      "គ្ល": 2449,
      "មើល": 2450,
      "khoản": 2451,
      "មជ្ឈឹម": 2452,
      "VOV": 2453,
      "nhũng": 2454,
      "vũ": 2455,
      "ទិញ": 2456,
      "ầng": 2457,
      "TPP": 2458,
      "củng": 2459,
      "ទៅជា": 2460,
      "tầng": 2461,
      "niệm": 2462,
      "Quy": 2463,
      "Xuan": 2464,
      "រៀន": 2465,
      "Lê": 2466,
      "សម័យ": 2467,
      "ង្រីក": 2468,
      "ựa": 2469,
      "ងាយ": 2470,
      "កន្លងទៅ": 2471,
      "អាកាស": 2472,
      "Tôi": 2473,
      "គាត់": 2474,
      "ន័យ": 2475,
      "បញ្ជាក់": 2476,
      "2013": 2477,
      "ít": 2478,
      "ពិភា": 2479,
      "សន្ទ": 2480,
      "ចល": 2481,
      "ex": 2482,
      "vật": 2483,
      "14": 2484,
      "CP": 2485,
      "សាសន៍": 2486,
      "តម្រូវ": 2487,
      "hạ": 2488,
      "Đặc": 2489,
      "សមត្ថ": 2490,
      "ធនាគារ": 2491,
      "បំណង": 2492,
      "កសិកម្ម": 2493,
      "ពិភាក្សា": 2494,
      "CM": 2495,
      "tan": 2496,
      "គិត": 2497,
      "ចាំបាច់": 2498,
      "អំណាច": 2499,
      "thích": 2500,
      "trạng": 2501,
      "មាស": 2502,
      "tiềm": 2503,
      "ké": 2504,
      "បដិ": 2505,
      "ស៊": 2506,
      "ទុន": 2507,
      "phóng": 2508,
      "ខែក": 2509,
      "ទ្វេ": 2510,
      "ប្រចាំ": 2511,
      "cư": 2512,
      "ទាន់": 2513,
      "CO": 2514,
      "ĐH": 2515,
      "ệt": 2516,
      "trận": 2517,
      "thắng": 2518,
      "ស្តែង": 2519,
      "មណ្ឌ": 2520,
      "ម្ចាស់": 2521,
      "មណ្ឌល": 2522,
      "danh": 2523,
      "huyện": 2524,
      "lương": 2525,
      "2021": 2526,
      "លា": 2527,
      "ទោះបី": 2528,
      "ាស្ត្រ": 2529,
      "Tấn": 2530,
      "ôm": 2531,
      "khổ": 2532,
      "tựu": 2533,
      "គ្លេស": 2534,
      "សាធារណៈ": 2535,
      "ពង្រឹង": 2536,
      "អង់គ្លេស": 2537,
      "ភារកិច្ច": 2538,
      "nữ": 2539,
      "ធ្យ": 2540,
      "កង": 2541,
      "កាលពី": 2542,
      "ឈាន": 2543,
      "ត្ថម្ភ": 2544,
      "ជាក់ស្តែង": 2545,
      "khối": 2546,
      "គ្គី": 2547,
      "Viet": 2548,
      "ហត្ថ": 2549,
      "ហរណ": 2550,
      "ជ្រើ": 2551,
      "ràng": 2552,
      "ជ្រើសរ": 2553,
      "ប្រវត្តិ": 2554,
      "ជ្រើសរើស": 2555,
      "គ្មាន": 2556,
      "គំរ": 2557,
      "kêu": 2558,
      "ាមគ្គី": 2559,
      "ហរណកម្ម": 2560,
      "មន": 2561,
      "ck": 2562,
      "គុណភាព": 2563,
      "hải": 2564,
      "Thi": 2565,
      "lệnh": 2566,
      "100": 2567,
      "lấy": 2568,
      "ៀវ": 2569,
      "បាត": 2570,
      "អតិ": 2571,
      "phiên": 2572,
      "សមាហរណកម្ម": 2573,
      "Hu": 2574,
      "ក្លា": 2575,
      "ខុសត្រូវ": 2576,
      "២០១៩": 2577,
      "២០១៨": 2578,
      "ខិតខំ": 2579,
      "ឧបត្ថម្ភ": 2580,
      "ហត្ថលេខា": 2581,
      "មិត្តភាព": 2582,
      "gì": 2583,
      "បង់": 2584,
      "Thông": 2585,
      "18": 2586,
      "tuần": 2587,
      "Cuba": 2588,
      "ូច": 2589,
      "chiều": 2590,
      "thấp": 2591,
      "ម្ត": 2592,
      "ផ្ទាល់": 2593,
      "ការលំបាក": 2594,
      "ửi": 2595,
      "ពង្រីក": 2596,
      "រណ៍": 2597,
      "buộc": 2598,
      "ចុះហត្ថលេខា": 2599,
      "Tết": 2600,
      "tiết": 2601,
      "xúc": 2602,
      "ama": 2603,
      "កម្ពុ": 2604,
      "មហាស": 2605,
      "កម្ពុជា": 2606,
      "មធ្យ": 2607,
      "Không": 2608,
      "tên": 2609,
      "thôn": 2610,
      "ម្មណ៍": 2611,
      "tay": 2612,
      "វប្បធម៌": 2613,
      "្ទី": 2614,
      "Đoàn": 2615,
      "lễ": 2616,
      "សង្កត់": 2617,
      "៣០": 2618,
      "tern": 2619,
      "Tuyên": 2620,
      "ពុក": 2621,
      "ភ្ល": 2622,
      "dịp": 2623,
      "ឈរ": 2624,
      "ngừng": 2625,
      "ន្ន": 2626,
      "khuôn": 2627,
      "អ៊ីរ៉": 2628,
      "សាកលវិទ្យាល័យ": 2629,
      "cổ": 2630,
      "តែង": 2631,
      "Bảo": 2632,
      "gửi": 2633,
      "nợ": 2634,
      "môn": 2635,
      "ớm": 2636,
      "ngại": 2637,
      "thoả": 2638,
      "វិធាន": 2639,
      "dưới": 2640,
      "khỏi": 2641,
      "ប្រតិភូ": 2642,
      "phạt": 2643,
      "ចំណោម": 2644,
      "ãi": 2645,
      "ប៉ុន្មាន": 2646,
      "Cùng": 2647,
      "ដំណាក់": 2648,
      "ស្ដីពី": 2649,
      "IS": 2650,
      "ចន": 2651,
      "lãi": 2652,
      "sớm": 2653,
      "ខ្លាំងក្លា": 2654,
      "្យា": 2655,
      "ed": 2656,
      "ចង់": 2657,
      "ោស": 2658,
      "tuổi": 2659,
      "Tiế": 2660,
      "dành": 2661,
      "ណែ": 2662,
      "ក្ដី": 2663,
      "gh": 2664,
      "ui": 2665,
      "ផ្ទះ": 2666,
      "វេលា": 2667,
      "Mặt": 2668,
      "Sở": 2669,
      "mi": 2670,
      "សមត្ថភាព": 2671,
      "quý": 2672,
      "HCM": 2673,
      "ប្រការ": 2674,
      "xung": 2675,
      "អនុម": 2676,
      "Sơn": 2677,
      "thượng": 2678,
      "ផ្អ": 2679,
      "tối": 2680,
      "ានុ": 2681,
      "xe": 2682,
      "2012": 2683,
      "chỉnh": 2684,
      "tuyến": 2685,
      "chắc": 2686,
      "199": 2687,
      "ឯកភាព": 2688,
      "thổ": 2689,
      "trương": 2690,
      "កិច្ចការ": 2691,
      "THPT": 2692,
      "ternet": 2693,
      "័ព": 2694,
      "ặn": 2695,
      "phép": 2696,
      "thí": 2697,
      "khóa": 2698,
      "đón": 2699,
      "cô": 2700,
      "dầu": 2701,
      "ឲ្យដឹង": 2702,
      "កន្លែង": 2703,
      "ដំណាក់កាល": 2704,
      "li": 2705,
      "Phuc": 2706,
      "cây": 2707,
      "ទេសចរណ៍": 2708,
      "វិទ្យាសាស្ត្រ": 2709,
      "អារម្មណ៍": 2710,
      "បេ": 2711,
      "đẳng": 2712,
      "Nhiều": 2713,
      "Có": 2714,
      "dạy": 2715,
      "ឯកសារ": 2716,
      "កណ្ត": 2717,
      "សាស្រ្ត": 2718,
      "ឈម": 2719,
      "រឹង": 2720,
      "លេខាធិការ": 2721,
      "វិភាគ": 2722,
      "ដែង": 2723,
      "sung": 2724,
      "IP": 2725,
      "ទាក់ទាញ": 2726,
      "căng": 2727,
      "អនុម័ត": 2728,
      "chiếm": 2729,
      "គោរ": 2730,
      "ពិត": 2731,
      "គោរព": 2732,
      "ការកសាង": 2733,
      "Trên": 2734,
      "នៅពេល": 2735,
      "សំដៅ": 2736,
      "ាញ់": 2737,
      "សកល": 2738,
      "Br": 2739,
      "សង្កត់ធ្ងន់": 2740,
      "kê": 2741,
      "និយម": 2742,
      "១២": 2743,
      "អំពើ": 2744,
      "ẵn": 2745,
      "បូ": 2746,
      "ឥណ្ឌ": 2747,
      "tạp": 2748,
      "អត្ថ": 2749,
      "ច្ន": 2750,
      "ាសម្": 2751,
      "ចនាសម្": 2752,
      "ធ្លាក់": 2753,
      "ការទទួល": 2754,
      "niên": 2755,
      "Van": 2756,
      "2014": 2757,
      "កណ្តាល": 2758,
      "La": 2759,
      "ការទូត": 2760,
      "Dân": 2761,
      "ឈ្ម": 2762,
      "នីតិ": 2763,
      "ុច": 2764,
      "័ណ្ឌ": 2765,
      "សហរដ្ឋ": 2766,
      "Ob": 2767,
      "រល": 2768,
      "Ảnh": 2769,
      "ព្រមទាំង": 2770,
      "vay": 2771,
      "ច្នៃ": 2772,
      "Tiến": 2773,
      "ទូទាំង": 2774,
      "sẵn": 2775,
      "រីករ": 2776,
      "Quảng": 2777,
      "០០០": 2778,
      "Nếu": 2779,
      "chẽ": 2780,
      "តំណាង": 2781,
      "មា": 2782,
      "ៀម": 2783,
      "ឆ្លើយ": 2784,
      "hy": 2785,
      "Thế": 2786,
      "Ma": 2787,
      "ឆ្លង": 2788,
      "២០១៧": 2789,
      "lựa": 2790,
      "ប្រសាសន៍": 2791,
      "phó": 2792,
      "Bên": 2793,
      "Le": 2794,
      "Obama": 2795,
      "ធ្វើឱ្យ": 2796,
      "Bà": 2797,
      "UN": 2798,
      "អត្រា": 2799,
      "ជនជាតិ": 2800,
      "ឡង": 2801,
      "40": 2802,
      "ប្រៀប": 2803,
      "ប្រមូល": 2804,
      "ឈប់": 2805,
      "quán": 2806,
      "ពេលវេលា": 2807,
      "áu": 2808,
      "ទម្រ": 2809,
      "សាមគ្គី": 2810,
      "ែរ": 2811,
      "គ្រួ": 2812,
      "ne": 2813,
      "ធាតុ": 2814,
      "thử": 2815,
      "ខាងជើង": 2816,
      "ច្ឆ": 2817,
      "សូ": 2818,
      "អ្វី": 2819,
      "ce": 2820,
      "សម្ព័ន្ធ": 2821,
      "ផលិតកម្ម": 2822,
      "ស្វែង": 2823,
      "ចំណូល": 2824,
      "ទាក់ទង": 2825,
      "ទម្រង់": 2826,
      "ផ្គ": 2827,
      "គ្រួសារ": 2828,
      "និស្ស": 2829,
      "ក្រោម": 2830,
      "តុល": 2831,
      "ែប": 2832,
      "ស្រាវ": 2833,
      "ជ្រាវ": 2834,
      "ចនាសម្ព័ន្ធ": 2835,
      "រា": 2836,
      "រំលែក": 2837,
      "យ៉ាងណា": 2838,
      "Giáo": 2839,
      "ឡាវ": 2840,
      "និស្សិត": 2841,
      "ត្រួត": 2842,
      "ស្រាវជ្រាវ": 2843,
      "មានប្រសាសន៍": 2844,
      "ទូលាយ": 2845,
      "oc": 2846,
      "បង្រ": 2847,
      "េជ្ញ": 2848,
      "២១": 2849,
      "Dự": 2850,
      "nghỉ": 2851,
      "ស្ល": 2852,
      "dễ": 2853,
      "thái": 2854,
      "trái": 2855,
      "ស្រួល": 2856,
      "ផ្លូវការ": 2857,
      "xin": 2858,
      "mất": 2859,
      "Diễn": 2860,
      "ិបាត": 2861,
      "To": 2862,
      "មធ្យម": 2863,
      "nam": 2864,
      "សម្រួល": 2865,
      "Is": 2866,
      "Khi": 2867,
      "រឿង": 2868,
      "ចែករំលែក": 2869,
      "រាត": 2870,
      "២០១៦": 2871,
      "Người": 2872,
      "ថ្លៃ": 2873,
      "ឈ្មោះ": 2874,
      "16": 2875,
      "ថែមទាំង": 2876,
      "វ៉": 2877,
      "ហិរ": 2878,
      "ត្បាត": 2879,
      "ប្រឈម": 2880,
      "បុគ្គ": 2881,
      "ធនធាន": 2882,
      "si": 2883,
      "កុ": 2884,
      "Tập": 2885,
      "cận": 2886,
      "បុគ្គល": 2887,
      "សម្រេចចិត្ត": 2888,
      "មកដល់": 2889,
      "ប្រកួត": 2890,
      "នីមួយ": 2891,
      "រាតត្បាត": 2892,
      "ហិរញ្ញ": 2893,
      "ếp": 2894,
      "ភ្នាក់": 2895,
      "ផ្តោត": 2896,
      "ចាប់ផ្តើម": 2897,
      "ភ្នាក់ងារ": 2898,
      "Quan": 2899,
      "មាំ": 2900,
      "Chiến": 2901,
      "អូ": 2902,
      "ាយការណ៍": 2903,
      "វេទ": 2904,
      "មន្ទី": 2905,
      "Binh": 2906,
      "ម្មនុ": 2907,
      "វិធានការ": 2908,
      "ធម្មនុ": 2909,
      "ស្មារ": 2910,
      "XII": 2911,
      "សី": 2912,
      "អេ": 2913,
      "ខ្លឹម": 2914,
      "ស៊ីរី": 2915,
      "សន្យា": 2916,
      "ប្រជែង": 2917,
      "ប៉ះ": 2918,
      "អ៊ីរ៉ង់": 2919,
      "ពាក់": 2920,
      "Ninh": 2921,
      "សហភាព": 2922,
      "lin": 2923,
      "phức": 2924,
      "ចំណុច": 2925,
      "ស្មារតី": 2926,
      "ផ្សព្វ": 2927,
      "ព្រោះ": 2928,
      "24": 2929,
      "quần": 2930,
      "បដិវត្ត": 2931,
      "sàng": 2932,
      "សារព័ត៌មាន": 2933,
      "ore": 2934,
      "តម្រូវការ": 2935,
      "ចំណាយ": 2936,
      "ខ្លឹមសារ": 2937,
      "ដូរ": 2938,
      "សាសនា": 2939,
      "កន្លងមក": 2940,
      "ងាយស្រួល": 2941,
      "កោះ": 2942,
      "buổi": 2943,
      "ទាន": 2944,
      "ផ្សព្វផ្សាយ": 2945,
      "tàu": 2946,
      "nghìn": 2947,
      "thiếu": 2948,
      "Giang": 2949,
      "17": 2950,
      "វេទិកា": 2951,
      "câu": 2952,
      "ក្ត": 2953,
      "dựa": 2954,
      "Sự": 2955,
      "សុទ្ធ": 2956,
      "ក្ខជន": 2957,
      "ជំហាន": 2958,
      "សាធារណ": 2959,
      "បរិយ": 2960,
      "ei": 2961,
      "hiểm": 2962,
      "ធម្មនុញ្ញ": 2963,
      "26": 2964,
      "nạn": 2965,
      "គ្រូ": 2966,
      "ហិរញ្ញវត្ថុ": 2967,
      "trừng": 2968,
      "Viện": 2969,
      "ព្រំ": 2970,
      "bang": 2971,
      "ខ្ស": 2972,
      "ngăn": 2973,
      "ស្ដែង": 2974,
      "ម្នាក់": 2975,
      "២០១៥": 2976,
      "សរុប": 2977,
      "ណែនាំ": 2978,
      "ក្លាយទៅជា": 2979,
      "មន្ទីរ": 2980,
      "Jo": 2981,
      "đu": 2982,
      "CL": 2983,
      "ឆ្": 2984,
      "ចិ": 2985,
      "សេចក្ដី": 2986,
      "ពៃ": 2987,
      "198": 2988,
      "ខ័ណ្ឌ": 2989,
      "កម្មាភិបាល": 2990,
      "ត្រួតពិនិត្យ": 2991,
      "Ai": 2992,
      "Uỷ": 2993,
      "២០០": 2994,
      "sư": 2995,
      "តា": 2996,
      "ឥទ្ធិ": 2997,
      "ពោះ": 2998,
      "Tan": 2999,
      "បរិយាកាស": 3000,
      "សមស្រប": 3001,
      "Sing": 3002,
      "đồ": 3003,
      "្វីប": 3004,
      "ew": 3005,
      "ពិធី": 3006,
      "đông": 3007,
      "ប្រពៃ": 3008,
      "ឥទ្ធិពល": 3009,
      "mừng": 3010,
      "tốc": 3011,
      "tảng": 3012,
      "ការវិនិយោគ": 3013,
      "ទៅកាន់": 3014,
      "kiếm": 3015,
      "ស្គាល់": 3016,
      "ព្រំដែន": 3017,
      "bào": 3018,
      "ទើប": 3019,
      "វិជ្": 3020,
      "chịu": 3021,
      "kéo": 3022,
      "ធម្ម": 3023,
      "ជាក់ស្ដែង": 3024,
      "Singap": 3025,
      "វិជ្ជា": 3026,
      "xuống": 3027,
      "de": 3028,
      "Singapore": 3029,
      "្បង": 3030,
      "អាហារ": 3031,
      "តភ្ជាប់": 3032,
      "ហ្វ": 3033,
      "Vũ": 3034,
      "ទិសដៅ": 3035,
      "rael": 3036,
      "Trưởng": 3037,
      "Báo": 3038,
      "ប្រពៃណី": 3039,
      "ប្តេជ្ញ": 3040,
      "លំ": 3041,
      "វិជ្ជ": 3042,
      "សម្ល": 3043,
      "khuyến": 3044,
      "Thường": 3045,
      "tệ": 3046,
      "ចម្រ": 3047,
      "lẫn": 3048,
      "តឹង": 3049,
      "វិជ្ជមាន": 3050,
      "ជឿ": 3051,
      "ប្រវត្តិសាស្ត្រ": 3052,
      "TTX": 3053,
      "lúc": 3054,
      "Israel": 3055,
      "បារាំង": 3056,
      "Thượng": 3057,
      "លើស": 3058,
      "ប្រសើរ": 3059,
      "បញ្ញត្តិ": 3060,
      "TTXVN": 3061,
      "Đó": 3062,
      "ួស": 3063,
      "ត្រៀម": 3064,
      "សាកល្បង": 3065,
      "យន្តការ": 3066,
      "ប្រហ": 3067,
      "Và": 3068,
      "giả": 3069,
      "សម្ត": 3070,
      "khắc": 3071,
      "ប្រជាធិបតេយ្យ": 3072,
      "sao": 3073,
      "ឆ្ពោះ": 3074,
      "ប្រព្រឹ": 3075,
      "TO": 3076,
      "សម្គាល់": 3077,
      "Kết": 3078,
      "My": 3079,
      "hu": 3080,
      "មហា": 3081,
      "ID": 3082,
      "Chuyến": 3083,
      "អនុប្រធាន": 3084,
      "Cách": 3085,
      "សុទ្ធតែ": 3086,
      "căn": 3087,
      "óc": 3088,
      "័រ": 3089,
      "សន្ទនា": 3090,
      "kim": 3091,
      "ស្នើ": 3092,
      "Kế": 3093,
      "ពាល់": 3094,
      "Me": 3095,
      "trồng": 3096,
      "ក្រៅពី": 3097,
      "ទ័ព": 3098,
      "Đầu": 3099,
      "បញ្ជា": 3100,
      "OS": 3101,
      "Internet": 3102,
      "thiểu": 3103,
      "នាំមក": 3104,
      "សមិ": 3105,
      "ប៉ះពាល់": 3106,
      "giành": 3107,
      "ល្ប": 3108,
      "phổ": 3109,
      "ដាប់": 3110,
      "xảy": 3111,
      "ha": 3112,
      "le": 3113,
      "ីយ": 3114,
      "រភាព": 3115,
      "ស្ថិត": 3116,
      "រហូតដល់": 3117,
      "ngôn": 3118,
      "សេរីភាព": 3119,
      "អាណ": 3120,
      "DI": 3121,
      "តប": 3122,
      "vòng": 3123,
      "អញ្": 3124,
      "អធិបតេយ្យ": 3125,
      "Dung": 3126,
      "ùi": 3127,
      "២៥": 3128,
      "ca": 3129,
      "Phòng": 3130,
      "ùa": 3131,
      "niềm": 3132,
      "mar": 3133,
      "ពិន": 3134,
      "រឹងមាំ": 3135,
      "ashi": 3136,
      "តែងតែ": 3137,
      "អាទ": 3138,
      "ទោះបីជា": 3139,
      "khá": 3140,
      "nắm": 3141,
      "ថិ": 3142,
      "សាមគ្គីភាព": 3143,
      "nu": 3144,
      "ដើរ": 3145,
      "ứt": 3146,
      "ឆាប់": 3147,
      "អតិថិ": 3148,
      "ហ្ស": 3149,
      "អតិថិជន": 3150,
      "ការបោះឆ្នោត": 3151,
      "ទុកចិត្ត": 3152,
      "gỡ": 3153,
      "70": 3154,
      "da": 3155,
      "vĩ": 3156,
      "ជាមួយគ្នា": 3157,
      "ករណី": 3158,
      "vui": 3159,
      "ប្រកួតប្រជែង": 3160,
      "khích": 3161,
      "Khu": 3162,
      "ខណៈ": 3163,
      "ឥណ្ឌា": 3164,
      "mẹ": 3165,
      "Phi": 3166,
      "EF": 3167,
      "េសា": 3168,
      "សុវត្ថ": 3169,
      "ov": 3170,
      "Pu": 3171,
      "ភ្ញ": 3172,
      "ly": 3173,
      "xa": 3174,
      "Khoa": 3175,
      "ធា": 3176,
      "បែប": 3177,
      "បណ្ឌិត": 3178,
      "ស្វែងរក": 3179,
      "ld": 3180,
      "ធ្លាក់ចុះ": 3181,
      "Nguyên": 3182,
      "ចីរភាព": 3183,
      "ứa": 3184,
      "ak": 3185,
      "ចា": 3186,
      "ទៅនឹង": 3187,
      "បេក្ខជន": 3188,
      "45": 3189,
      "rút": 3190,
      "១៥": 3191,
      "របៀប": 3192,
      "ពហ": 3193,
      "phi": 3194,
      "ក្លាយជា": 3195,
      "សុវត្ថិភាព": 3196,
      "cập": 3197,
      "ឡុង": 3198,
      "អធិបតេយ្យភាព": 3199,
      "ត្រី": 3200,
      "ngạch": 3201,
      "FDI": 3202,
      "តុលា": 3203,
      "ngton": 3204,
      "រដ្ឋធម្មនុញ្ញ": 3205,
      "គ្រាម": 3206,
      "Washi": 3207,
      "កងទ័ព": 3208,
      "ទៀតផង": 3209,
      "សង្គ្រាម": 3210,
      "ou": 3211,
      "ការបង្កើត": 3212,
      "Washington": 3213,
      "ជម្ល": 3214,
      "Thổ": 3215,
      "Ab": 3216,
      "េអ៊": 3217,
      "កូន": 3218,
      "hại": 3219,
      "បាក": 3220,
      "rai": 3221,
      "loạt": 3222,
      "Cấp": 3223,
      "ការិយ": 3224,
      "ោធ": 3225,
      "ប្រមាណ": 3226,
      "ឆ្លើយតប": 3227,
      "ប្រឌិត": 3228,
      "យោធា": 3229,
      "ស្ទ": 3230,
      "ធ្វើការ": 3231,
      "ហោះ": 3232,
      "sông": 3233,
      "ការទទួលខុសត្រូវ": 3234,
      "ev": 3235,
      "ណ្យ": 3236,
      "Chương": 3237,
      "នាវ": 3238,
      "សមាគម": 3239,
      "chóng": 3240,
      "បុណ្យ": 3241,
      "ពហុ": 3242,
      "ជម្លោះ": 3243,
      "ngo": 3244,
      "ខ្វ": 3245,
      "hôm": 3246,
      "Thực": 3247,
      "Chỉ": 3248,
      "22": 3249,
      "đe": 3250,
      "ការចូលរួម": 3251,
      "xếp": 3252,
      "ការិយាល័យ": 3253,
      "េទ": 3254,
      "សម្រេចបាន": 3255,
      "kịp": 3256,
      "គណៈប្រតិភូ": 3257,
      "2011": 3258,
      "ចរចា": 3259,
      "cái": 3260,
      "CS": 3261,
      "Cơ": 3262,
      "តិច": 3263,
      "ប្រព្រឹត្ត": 3264,
      "ដង": 3265,
      "lối": 3266,
      "្ខ": 3267,
      "ាកម្ម": 3268,
      "រស": 3269,
      "អញ្ជ": 3270,
      "ពិន្ទ": 3271,
      "28": 3272,
      "ព្រឹត្តិ": 3273,
      "ាស៊ីន": 3274,
      "ពិន្ទុ": 3275,
      "មហាសន្ន": 3276,
      "EV": 3277,
      "Mar": 3278,
      "កុម្ម": 3279,
      "ជាន": 3280,
      "bật": 3281,
      "ការរៀបចំ": 3282,
      "ប្រហែល": 3283,
      "vô": 3284,
      "ទន្ទឹមនឹង": 3285,
      "sơ": 3286,
      "ការគ្រប់គ្រង": 3287,
      "យូរ": 3288,
      "អញ្ជើញ": 3289,
      "suy": 3290,
      "យក្ល": 3291,
      "ịnh": 3292,
      "Tran": 3293,
      "ជានិច្ច": 3294,
      "60": 3295,
      "មហាសន្និបាត": 3296,
      "ទីភ្នាក់ងារ": 3297,
      "ថវិ": 3298,
      "chặn": 3299,
      "ពេលនេះ": 3300,
      "nguyện": 3301,
      "១៣": 3302,
      "Nhĩ": 3303,
      "Vinh": 3304,
      "នុយក្ល": 3305,
      "tồn": 3306,
      "ោធន": 3307,
      "អនាគ": 3308,
      "New": 3309,
      "ខាត": 3310,
      "ច្នៃប្រឌិត": 3311,
      "កែល": 3312,
      "អតី": 3313,
      "Ha": 3314,
      "Ngọc": 3315,
      "កុម្មុយ": 3316,
      "អតីត": 3317,
      "ែត": 3318,
      "ាលដាល": 3319,
      "Truong": 3320,
      "កុម": 3321,
      "ធ្ន": 3322,
      "ក្រប": 3323,
      "NA": 3324,
      "កុមារ": 3325,
      "អនាគត": 3326,
      "ក្រី": 3327,
      "alia": 3328,
      "១១": 3329,
      "ឹះ": 3330,
      "chăm": 3331,
      "របាយការណ៍": 3332,
      "ាចិត្ត": 3333,
      "អាទិភាព": 3334,
      "បង្កើតឡើង": 3335,
      "ភេទ": 3336,
      "គណបក្ស": 3337,
      "ធៀប": 3338,
      "chấm": 3339,
      "វិបត្តិ": 3340,
      "ផ្អែក": 3341,
      "binh": 3342,
      "and": 3343,
      "ទប់": 3344,
      "បែក": 3345,
      "nhi": 3346,
      "Sang": 3347,
      "oo": 3348,
      "nuôi": 3349,
      "27": 3350,
      "òi": 3351,
      "tận": 3352,
      "Sh": 3353,
      "នុយក្លេអ៊": 3354,
      "Mi": 3355,
      "ព្រឹត្តិការណ៍": 3356,
      "Trương": 3357,
      "ឈើ": 3358,
      "ត្រូវតែ": 3359,
      "ធេង": 3360,
      "liệt": 3361,
      "សេវ": 3362,
      "ពិសោធ": 3363,
      "មែន": 3364,
      "ក្រីក្រ": 3365,
      "thịnh": 3366,
      "Mặc": 3367,
      "Uk": 3368,
      "sỹ": 3369,
      "បរិស្ថាន": 3370,
      "សេវាកម្ម": 3371,
      "Hồi": 3372,
      "ien": 3373,
      "មជ្ឈមណ្ឌល": 3374,
      "Tài": 3375,
      "õi": 3376,
      "សំរាប់": 3377,
      "orld": 3378,
      "viết": 3379,
      "ត្រឹមត្រូវ": 3380,
      "Huy": 3381,
      "Ukrai": 3382,
      "អ្នកជំនាញ": 3383,
      "្វិ": 3384,
      "Quân": 3385,
      "ក្របខ័ណ្ឌ": 3386,
      "Hùng": 3387,
      "មាតុ": 3388,
      "ពាក": 3389,
      "បា": 3390,
      "អរ": 3391,
      "អាវ": 3392,
      "dạng": 3393,
      "kích": 3394,
      "វិសោធន": 3395,
      "exit": 3396,
      "ធ្វើឲ្យ": 3397,
      "ាលី": 3398,
      "វិនិយោគិន": 3399,
      "ទាប": 3400,
      "នាយកដ្ឋាន": 3401,
      "WEF": 3402,
      "eu": 3403,
      "thất": 3404,
      "lửa": 3405,
      "Ukraine": 3406,
      "cân": 3407,
      "vượng": 3408,
      "thác": 3409,
      "ឡូ": 3410,
      "nằm": 3411,
      "uyết": 3412,
      "១៤": 3413,
      "៥០": 3414,
      "ប្រព្រឹត្តទៅ": 3415,
      "ត្តម": 3416,
      "Brexit": 3417,
      "Cuộc": 3418,
      "វិសោធនកម្ម": 3419,
      "ជីវភាព": 3420,
      "Da": 3421,
      "trào": 3422,
      "Phong": 3423,
      "អនុវត្តន៍": 3424,
      "Putin": 3425,
      "Hung": 3426,
      "500": 3427,
      "ចោល": 3428,
      "Chấp": 3429,
      "az": 3430,
      "hồ": 3431,
      "ោន": 3432,
      "đích": 3433,
      "ជាដើម": 3434,
      "Cục": 3435,
      "ទំនើប": 3436,
      "EVFTA": 3437,
      "ពាក្យ": 3438,
      "nhớ": 3439,
      "គោលបំណង": 3440,
      "ផ្ដ": 3441,
      "កត់សម្គាល់": 3442,
      "ngưỡng": 3443,
      "ដោយសារតែ": 3444,
      "រលួយ": 3445,
      "Al": 3446,
      "តូច": 3447,
      "Pham": 3448,
      "hã": 3449,
      "ុធ": 3450,
      "tải": 3451,
      "tuân": 3452,
      "Su": 3453,
      "khoá": 3454,
      "Mal": 3455,
      "Đà": 3456,
      "សាង": 3457,
      "kong": 3458,
      "នាង": 3459,
      "Hoang": 3460,
      "kg": 3461,
      "cục": 3462,
      "23": 3463,
      "UB": 3464,
      "គ្រឿង": 3465,
      "Vương": 3466,
      "cậy": 3467,
      "os": 3468,
      "ãnh": 3469,
      "Bara": 3470,
      "thật": 3471,
      "ពលរដ្ឋ": 3472,
      "បរិបទ": 3473,
      "នុយក្លេអ៊ែរ": 3474,
      "សម្រប": 3475,
      "ាស៊ីហ": 3476,
      "thẩm": 3477,
      "ជំនឿ": 3478,
      "ប្រេង": 3479,
      "គោលការណ៍": 3480,
      "ពុករលួយ": 3481,
      "Mekong": 3482,
      "Đến": 3483,
      "គុយ": 3484,
      "Te": 3485,
      "នាម": 3486,
      "thiệt": 3487,
      "ឧត្តម": 3488,
      "ការរ": 3489,
      "ម៉ោង": 3490,
      "sắp": 3491,
      "ពលករ": 3492,
      "ស៊ូ": 3493,
      "លោភ": 3494,
      "ៃយ៍": 3495,
      "Lao": 3496,
      "ខំប្រឹងប្រែង": 3497,
      "Can": 3498,
      "tội": 3499,
      "លៃ": 3500,
      "ាជ": 3501,
      "đức": 3502,
      "chốt": 3503,
      "ទាំងនេះ": 3504,
      "ករាជ": 3505,
      "រីករាលដាល": 3506,
      "រដ្ឋទូត": 3507,
      "Li": 3508,
      "lục": 3509,
      "suốt": 3510,
      "៌ា": 3511,
      "ទៅក្នុង": 3512,
      "រំលោភ": 3513,
      "សង្ឃ": 3514,
      "ពិសោធន៍": 3515,
      "ឌី": 3516,
      "istan": 3517,
      "mời": 3518,
      "បំព": 3519,
      "្នះ": 3520,
      "tức": 3521,
      "សមិទ្ធិ": 3522,
      "Đài": 3523,
      "ោក": 3524,
      "ọt": 3525,
      "ទ្វីប": 3526,
      "ngũ": 3527,
      "ស្និ": 3528,
      "Vu": 3529,
      "ព្រះ": 3530,
      "ចាប់តាំងពី": 3531,
      "ngữ": 3532,
      "យើងខ្ញុំ": 3533,
      "លាស់": 3534,
      "Myan": 3535,
      "្វិក": 3536,
      "pp": 3537,
      "trụ": 3538,
      "ដារ": 3539,
      "Myanmar": 3540,
      "ផ្ទៃ": 3541,
      "២០១៣": 3542,
      "Lãnh": 3543,
      "ប្រហារ": 3544,
      "វិច្ឆ": 3545,
      "CPTPP": 3546,
      "ទូរ": 3547,
      "បាត់": 3548,
      "ទូទៅ": 3549,
      "ẫu": 3550,
      "Học": 3551,
      "អាត": 3552,
      "ទំនុក": 3553,
      "កាយ": 3554,
      "ប្ដូរ": 3555,
      "Hy": 3556,
      "kiên": 3557,
      "រដ": 3558,
      "ទស្សនៈ": 3559,
      "ក្ក": 3560,
      "ួច": 3561,
      "ករណ៍": 3562,
      "ទទួលស្គាល់": 3563,
      "ប្បញ្ញត្តិ": 3564,
      "ីយកម្ម": 3565,
      "ជះ": 3566,
      "រដ្ឋបាល": 3567,
      "ãn": 3568,
      "រចនាសម្ព័ន្ធ": 3569,
      "giảng": 3570,
      "Nai": 3571,
      "ឯករាជ": 3572,
      "Par": 3573,
      "te": 3574,
      "ភាសា": 3575,
      "ខ្សែ": 3576,
      "ទណ្ឌ": 3577,
      "ចុងក្រោយ": 3578,
      "រីក": 3579,
      "ត្ស": 3580,
      "យោបល់": 3581,
      "TS": 3582,
      "cấm": 3583,
      "ត្តា": 3584,
      "huynh": 3585,
      "ជ្រុង": 3586,
      "ឃ្ល": 3587,
      "៉ាប់": 3588,
      "Nông": 3589,
      "បនីយកម្ម": 3590,
      "cắt": 3591,
      "Af": 3592,
      "ựu": 3593,
      "អាកាសធាតុ": 3594,
      "don": 3595,
      "សង្ឃឹម": 3596,
      "Mai": 3597,
      "បុព្វ": 3598,
      "ផ្តុំ": 3599,
      "វិច្ឆិកា": 3600,
      "សហការ": 3601,
      "lộ": 3602,
      "thiên": 3603,
      "អាវុធ": 3604,
      "thập": 3605,
      "tránh": 3606,
      "ធ្ងរ": 3607,
      "ប្តេជ្ញាចិត្ត": 3608,
      "ឯករាជ្យ": 3609,
      "nặng": 3610,
      "tiện": 3611,
      "សាលារ": 3612,
      "ប្ល": 3613,
      "1982": 3614,
      "HD": 3615,
      "can": 3616,
      "hương": 3617,
      "gói": 3618,
      "world": 3619,
      "អ្នកបោះឆ្នោត": 3620,
      "ធ្ងន់ធ្ងរ": 3621,
      "២០២១": 3622,
      "giàu": 3623,
      "Hòa": 3624,
      "ប្រភេទ": 3625,
      "អាណត្តិ": 3626,
      "សាលារៀន": 3627,
      "thừa": 3628,
      "phúc": 3629,
      "sai": 3630,
      "phấn": 3631,
      "Mục": 3632,
      "iếc": 3633,
      "nghe": 3634,
      "បទប្បញ្ញត្តិ": 3635,
      "សម្លេង": 3636,
      "ព្រាង": 3637,
      "កំហ": 3638,
      "ចម្": 3639,
      "ជ្រោយ": 3640,
      "ជំនួប": 3641,
      "vài": 3642,
      "រួមទាំង": 3643,
      "ភ្ញៀវ": 3644,
      "ថវិកា": 3645,
      "UBND": 3646,
      "ារី": 3647,
      "ដោះ": 3648,
      "ថែ": 3649,
      "រហ": 3650,
      "đòi": 3651,
      "គ្រឹះ": 3652,
      "អំពើពុករលួយ": 3653,
      "hầu": 3654,
      "អេឡ": 3655,
      "បដិវត្តន៍": 3656,
      "Aus": 3657,
      "នីតិកាល": 3658,
      "ón": 3659,
      "បញ្ចូល": 3660,
      "29": 3661,
      "ការគាំទ្រ": 3662,
      "dòng": 3663,
      "Cao": 3664,
      "តាន": 3665,
      "dứt": 3666,
      "UNCL": 3667,
      "UNCLOS": 3668,
      "បញ្ជី": 3669,
      "nóng": 3670,
      "io": 3671,
      "គល់": 3672,
      "chân": 3673,
      "chơi": 3674,
      "COV": 3675,
      "ាក្រ": 3676,
      "197": 3677,
      "ឺម៉": 3678,
      "Tất": 3679,
      "As": 3680,
      "gạo": 3681,
      "ស្ត្រ": 3682,
      "COC": 3683,
      "COVID": 3684,
      "ទ្រព្យ": 3685,
      "Austr": 3686,
      "Bo": 3687,
      "លេច": 3688,
      "Chu": 3689,
      "ela": 3690,
      "ជ្រុងជ្រោយ": 3691,
      "ពាក់ព័ន្ធ": 3692,
      "្រ័យ": 3693,
      "ខាងលើ": 3694,
      "chuyện": 3695,
      "រហូតមកដល់": 3696,
      "ាស៊ីហ្វិក": 3697,
      "Australia": 3698,
      "hn": 3699,
      "ចរចារ": 3700,
      "Lễ": 3701,
      "mốc": 3702,
      "trưng": 3703,
      "ក្ម": 3704,
      "ាគមន៍": 3705,
      "Pal": 3706,
      "ដក": 3707,
      "និស្ត": 3708,
      "សាធារណរដ្ឋ": 3709,
      "Son": 3710,
      "តានតឹង": 3711,
      "ẵng": 3712,
      "ជំនះ": 3713,
      "អង្": 3714,
      "័ស": 3715,
      "mùa": 3716,
      "នាំចូល": 3717,
      "ថាម": 3718,
      "Bank": 3719,
      "ប្រៀបធៀប": 3720,
      "រហ័ស": 3721,
      "trải": 3722,
      "ក្មេង": 3723,
      "ជានិច្ចកាល": 3724,
      "ពោល": 3725,
      "đổ": 3726,
      "ភាគហ៊ុន": 3727,
      "ឯង": 3728,
      "Tiếp": 3729,
      "OC": 3730,
      "ថយ": 3731,
      "វិល": 3732,
      "បទពិសោធន៍": 3733,
      "សន្និ": 3734,
      "ថាមពល": 3735,
      "Nẵng": 3736,
      "lạc": 3737,
      "ខណ្ឌ": 3738,
      "ព្រួយ": 3739,
      "rồi": 3740,
      "ក្រម": 3741,
      "ការដោះស្រាយ": 3742,
      "ការសាកល្បង": 3743,
      "វិត": 3744,
      "Tiếng": 3745,
      "chiếc": 3746,
      "ជឿជាក់": 3747,
      "đương": 3748,
      "điệp": 3749,
      "មីនា": 3750,
      "ពរ": 3751,
      "ềm": 3752,
      "Barack": 3753,
      "សម្របសម្រួល": 3754,
      "វត្ស": 3755,
      "ត្រូ": 3756,
      "បុគ្គលិក": 3757,
      "ul": 3758,
      "ំពឹង": 3759,
      "mạc": 3760,
      "លើកឡើង": 3761,
      "ផ្លែ": 3762,
      "quê": 3763,
      "ច្បាស់លាស់": 3764,
      "Vụ": 3765,
      "hấp": 3766,
      "ឹត": 3767,
      "សមិទ្ធិផល": 3768,
      "ដាក់ចេញ": 3769,
      "ឧសភា": 3770,
      "ធឺ": 3771,
      "១៨": 3772,
      "ស្និទ្ធ": 3773,
      "និក": 3774,
      "មកពី": 3775,
      "ម្តង": 3776,
      "lạm": 3777,
      "ញ្ច": 3778,
      "បរិមាណ": 3779,
      "វាយប្រហារ": 3780,
      "khảo": 3781,
      "Cho": 3782,
      "ស្នូល": 3783,
      "តំលៃ": 3784,
      "អាយ": 3785,
      "thụ": 3786,
      "ព្រួយបារ": 3787,
      "rà": 3788,
      "trăm": 3789,
      "chúc": 3790,
      "១៩៩": 3791,
      "up": 3792,
      "chuỗi": 3793,
      "sạch": 3794,
      "ការយកចិត្តទុកដាក់": 3795,
      "bạo": 3796,
      "ន្ត្រ": 3797,
      "ya": 3798,
      "ការប្រឡង": 3799,
      "nghi": 3800,
      "dàng": 3801,
      "dưỡng": 3802,
      "អនុសញ្ញា": 3803,
      "tine": 3804,
      "Tư": 3805,
      "gấp": 3806,
      "ម៉ា": 3807,
      "ជម្រៅ": 3808,
      "tiểu": 3809,
      "Tăng": 3810,
      "តំណែង": 3811,
      "ចលនា": 3812,
      "Phan": 3813,
      "២០១៤": 3814,
      "thịt": 3815,
      "សួរ": 3816,
      "tô": 3817,
      "ក្កដា": 3818,
      "CE": 3819,
      "ង្ហ": 3820,
      "Như": 3821,
      "bức": 3822,
      "mặc": 3823,
      "úi": 3824,
      "េដ្ឋ": 3825,
      "Thư": 3826,
      "đua": 3827,
      "ចូលក្នុង": 3828,
      "ួញ": 3829,
      "ារ្យ": 3830,
      "nhắc": 3831,
      "cha": 3832,
      "ỏe": 3833,
      "២០១២": 3834,
      "tạm": 3835,
      "anistan": 3836,
      "ធំធេង": 3837,
      "Đình": 3838,
      "កត្តា": 3839,
      "សីហា": 3840,
      "រដូវ": 3841,
      "Ar": 3842,
      "bắn": 3843,
      "túc": 3844,
      "khỏe": 3845,
      "ស្រា": 3846,
      "តោន": 3847,
      "ត្រឡ": 3848,
      "ាចារ្យ": 3849,
      "សក្ត": 3850,
      "ធ្វើជា": 3851,
      "ោទ": 3852,
      "ត្រូវការ": 3853,
      "sóng": 3854,
      "ម្តាយ": 3855,
      "បង": 3856,
      "សាច់": 3857,
      "ឃុំ": 3858,
      "សេចក្តីសម្រេច": 3859,
      "អត្ថន័យ": 3860,
      "ស្មាញ": 3861,
      "រថ": 3862,
      "អាជ្ញ": 3863,
      "សិទ": 3864,
      "ដូចគ្នា": 3865,
      "ប្រមូលផ្តុំ": 3866,
      "rời": 3867,
      "ការសិក្សា": 3868,
      "ជីវិត": 3869,
      "អចិ": 3870,
      "Tháng": 3871,
      "លឿន": 3872,
      "giống": 3873,
      "ស្មុ": 3874,
      "Quyết": 3875,
      "អចិន្ត្រ": 3876,
      "ត្រឡប់": 3877,
      "ណ្ឋ": 3878,
      "មេសា": 3879,
      "khắp": 3880,
      "អំពាវ": 3881,
      "កុម្មុយនិស្ត": 3882,
      "nhiễ": 3883,
      "quảng": 3884,
      "ទណ្ឌកម្ម": 3885,
      "ậc": 3886,
      "bạch": 3887,
      "sân": 3888,
      "អំពាវនាវ": 3889,
      "ក្ប": 3890,
      "ការរីករាលដាល": 3891,
      "Doanh": 3892,
      "Pales": 3893,
      "thầy": 3894,
      "បំណុល": 3895,
      "ọa": 3896,
      "ណាមួយ": 3897,
      "ការពិត": 3898,
      "កាសែត": 3899,
      "tai": 3900,
      "ថុ": 3901,
      "សម្បត្តិ": 3902,
      "Jong": 3903,
      "ថុនា": 3904,
      "80": 3905,
      "បាញ់": 3906,
      "មិថុនា": 3907,
      "bậc": 3908,
      "ការប្រាក់": 3909,
      "គ្រាន់": 3910,
      "ស៊ីជម្រៅ": 3911,
      "35": 3912,
      "tiễn": 3913,
      "ជនបទ": 3914,
      "អំឡុង": 3915,
      "ាហ៍": 3916,
      "ភាពជា": 3917,
      "ទាក់ទិន": 3918,
      "thiệu": 3919,
      "ការប្រើ": 3920,
      "Toàn": 3921,
      "thưởng": 3922,
      "សត": 3923,
      "ម្អ": 3924,
      "ានុភាព": 3925,
      "đỡ": 3926,
      "bè": 3927,
      "hạng": 3928,
      "mắt": 3929,
      "đãi": 3930,
      "យុត្តិ": 3931,
      "សុខភាព": 3932,
      "Lo": 3933,
      "ẹn": 3934,
      "ili": 3935,
      "អចិន្ត្រៃយ៍": 3936,
      "ur": 3937,
      "ហ្គ": 3938,
      "បណ្តាញ": 3939,
      "id": 3940,
      "ទាហ": 3941,
      "១០០": 3942,
      "នៅឯ": 3943,
      "ធ្លាប់": 3944,
      "មាតុភូមិ": 3945,
      "ប្រា": 3946,
      "ប្រគល់": 3947,
      "បន្ល": 3948,
      "GS": 3949,
      "Tỉnh": 3950,
      "បូព": 3951,
      "Palestine": 3952,
      "gìn": 3953,
      "Afgh": 3954,
      "ênh": 3955,
      "đai": 3956,
      "ប្រឡង": 3957,
      "ទឹកចិត្ត": 3958,
      "បង្រៀន": 3959,
      "Afghanistan": 3960,
      "ភៅ": 3961,
      "ខែមីនា": 3962,
      "ធ្នូ": 3963,
      "ợt": 3964,
      "chắn": 3965,
      "cản": 3966,
      "លី": 3967,
      "ជួរ": 3968,
      "ប្រយុទ្ធ": 3969,
      "ផ្គត់": 3970,
      "ណ៌": 3971,
      "ផ្លាស់ប្ដូរ": 3972,
      "Ro": 3973,
      "John": 3974,
      "ផ្គត់ផ្គ": 3975,
      "Dong": 3976,
      "ឡែក": 3977,
      "ez": 3978,
      "may": 3979,
      "ទិន": 3980,
      "យុវ": 3981,
      "បូរ": 3982,
      "ខែវិច្ឆិកា": 3983,
      "ជំនួយ": 3984,
      "lượt": 3985,
      "គំរូ": 3986,
      "ពិបាក": 3987,
      "រំលឹក": 3988,
      "XI": 3989,
      "ឪពុក": 3990,
      "គីឡូ": 3991,
      "DOC": 3992,
      "kiệm": 3993,
      "ឥត": 3994,
      "ប្រធានបទ": 3995,
      "Cũng": 3996,
      "Xã": 3997,
      "tặng": 3998,
      "ụt": 3999,
      "ស្កាត់": 4000,
      "nhiệt": 4001,
      "chậm": 4002,
      "ឈានដល់": 4003,
      "េស៊ី": 4004,
      "Duc": 4005,
      "Hàng": 4006,
      "លក្ខខណ្ឌ": 4007,
      "ខែកុ": 4008,
      "90": 4009,
      "ម្ភៈ": 4010,
      "cốt": 4011,
      "សប្ត": 4012,
      "thủy": 4013,
      "VOVworld": 4014,
      "Na": 4015,
      "ngược": 4016,
      "Còn": 4017,
      "Dinh": 4018,
      "ber": 4019,
      "សិរ": 4020,
      "Cập": 4021,
      "ASEM": 4022,
      "CHD": 4023,
      "CHDC": 4024,
      "mẫu": 4025,
      "ស្មើ": 4026,
      "ទំហ": 4027,
      "ឺម៉ង់": 4028,
      "nhiễm": 4029,
      "អាល": 4030,
      "ប៉ាស៊ីហ្វិក": 4031,
      "រូបថ": 4032,
      "ចម្រើន": 4033,
      "អាយុ": 4034,
      "គ្រាន់តែ": 4035,
      "ỏng": 4036,
      "បម្រែ": 4037,
      "siêu": 4038,
      "ព្រួយបារម្ភ": 4039,
      "úa": 4040,
      "ចក្រ": 4041,
      "uyện": 4042,
      "nửa": 4043,
      "quận": 4044,
      "វិភាគទាន": 4045,
      "cựu": 4046,
      "កាត": 4047,
      "ិះ": 4048,
      "re": 4049,
      "xanh": 4050,
      "ការនាំចេញ": 4051,
      "អេឡិច": 4052,
      "ទៃ": 4053,
      "បង្ការ": 4054,
      "បណ្ដាល": 4055,
      "បម្រែបម្រ": 4056,
      "សណ្ឋ": 4057,
      "Giá": 4058,
      "Nhưỡng": 4059,
      "CHDCND": 4060,
      "Cử": 4061,
      "ជុំ": 4062,
      "១៦": 4063,
      "ភាពជាដៃគូ": 4064,
      "សប្តាហ៍": 4065,
      "cầm": 4066,
      "តស៊ូ": 4067,
      "លិច": 4068,
      "ស្ម័": 4069,
      "thù": 4070,
      "អនុញ្ញ": 4071,
      "អេឡិចត្រូ": 4072,
      "រដ្ឋអំណាច": 4073,
      "dần": 4074,
      "ឋាន": 4075,
      "មជ្ឈដ្ឋាន": 4076,
      "ays": 4077,
      "មករា": 4078,
      "NATO": 4079,
      "ការប្រើប្រាស់": 4080,
      "Yên": 4081,
      "ឡា": 4082,
      "31": 4083,
      "Hồng": 4084,
      "ខួប": 4085,
      "សម្តែង": 4086,
      "ថ្លែងការណ៍": 4087,
      "kênh": 4088,
      "ដទៃ": 4089,
      "សៀវ": 4090,
      "nhờ": 4091,
      "one": 4092,
      "ផ្គត់ផ្គង់": 4093,
      "cương": 4094,
      "កេត": 4095,
      "រួមគ្នា": 4096,
      "រូបភាព": 4097,
      "ma": 4098,
      "thậm": 4099,
      "thuê": 4100,
      "com": 4101,
      "បុព្វហេតុ": 4102,
      "តើ": 4103,
      "Tuấn": 4104,
      "So": 4105,
      "ព្រឹក": 4106,
      "បម្រែបម្រួល": 4107,
      "សេចក្តីព្រាង": 4108,
      "សៀវភៅ": 4109,
      "៤០": 4110,
      "ការប្តេជ្ញាចិត្ត": 4111,
      "ជិតស្និទ្ធ": 4112,
      "មេដឹកនាំ": 4113,
      "xâm": 4114,
      "ភ័យ": 4115,
      "អែល": 4116,
      "ស្វាគមន៍": 4117,
      "300": 4118,
      "CA": 4119,
      "រីកចម្រើន": 4120,
      "giấy": 4121,
      "gốc": 4122,
      "tháo": 4123,
      "ទន្ល": 4124,
      "ngắn": 4125,
      "សមភាព": 4126,
      "លែង": 4127,
      "ផ្កា": 4128,
      "ស្មុគ": 4129,
      "chợ": 4130,
      "ិករ": 4131,
      "IPU": 4132,
      "បិ": 4133,
      "ជីវៈ": 4134,
      "lắng": 4135,
      "mắc": 4136,
      "xo": 4137,
      "ưới": 4138,
      "đợt": 4139,
      "Vin": 4140,
      "Gia": 4141,
      "món": 4142,
      "អធិ": 4143,
      "គ្រប់គ្រាន់": 4144,
      "ឆ្ពោះទៅ": 4145,
      "ភាពតានតឹង": 4146,
      "ស្មុគស្មាញ": 4147,
      "Linh": 4148,
      "roup": 4149,
      "អនុញ្ញាត": 4150,
      "tù": 4151,
      "ដំ": 4152,
      "ប្រឈមមុខ": 4153,
      "មូលហេតុ": 4154,
      "ទន្លេ": 4155,
      "Lý": 4156,
      "Thời": 4157,
      "បញ្ជូន": 4158,
      "ចាប់អារម្មណ៍": 4159,
      "bí": 4160,
      "Bởi": 4161,
      "Thống": 4162,
      "ដោយឡែក": 4163,
      "អាគ": 4164,
      "ដាក់ទណ្ឌកម្ម": 4165,
      "វិជ្ជាជីវៈ": 4166,
      "Ki": 4167,
      "Tiểu": 4168,
      "nộ": 4169,
      "ូម": 4170,
      "hiến": 4171,
      "IPA": 4172,
      "đà": 4173,
      "ថៃ": 4174,
      "ូក": 4175,
      "Nha": 4176,
      "ខ្វះ": 4177,
      "ទំហំ": 4178,
      "ប៊": 4179,
      "កសិករ": 4180,
      "Kiểm": 4181,
      "son": 4182,
      "ខ្លះ": 4183,
      "ធម្មតា": 4184,
      "ទិន្ន": 4185,
      "đôi": 4186,
      "លេញ": 4187,
      "១៧": 4188,
      "ម៉ាស៊ីន": 4189,
      "ឆ្លងកាត់": 4190,
      "trật": 4191,
      "អាហ្វ": 4192,
      "បណ្ដ": 4193,
      "យុវជន": 4194,
      "phú": 4195,
      "រណសិរ": 4196,
      "ចលករ": 4197,
      "ឆាប់រហ័ស": 4198,
      "រថយន្ត": 4199,
      "sóc": 4200,
      "ទាត់": 4201,
      "លើកទឹកចិត្ត": 4202,
      "មន្ត្រី": 4203,
      "2025": 4204,
      "ពេញលេញ": 4205,
      "hãng": 4206,
      "អាល្ល": 4207,
      "អ៊ីស្រា": 4208,
      "đem": 4209,
      "ជញ្": 4210,
      "đói": 4211,
      "ពារ": 4212,
      "លុប": 4213,
      "ềng": 4214,
      "giềng": 4215,
      "bom": 4216,
      "២៦": 4217,
      "និន": 4218,
      "dậy": 4219,
      "luyện": 4220,
      "ដាំ": 4221,
      "ស្តង់": 4222,
      "ធម្មជាតិ": 4223,
      "និន្នា": 4224,
      "chào": 4225,
      "Ngay": 4226,
      "គួរឲ្យ": 4227,
      "ប្រាក": 4228,
      "ឌីជី": 4229,
      "Biên": 4230,
      "thao": 4231,
      "chục": 4232,
      "trúc": 4233,
      "miễn": 4234,
      "Hơn": 4235,
      "ទល់": 4236,
      "láng": 4237,
      "ូបនីយកម្ម": 4238,
      "ទូលំ": 4239,
      "lẻ": 4240,
      "ប្រកាន់": 4241,
      "សង់": 4242,
      "សែន": 4243,
      "esia": 4244,
      "រំពឹង": 4245,
      "ហេដ្ឋ": 4246,
      "ថល": 4247,
      "វី": 4248,
      "ពីព្រោះ": 4249,
      "tuệ": 4250,
      "ủi": 4251,
      "ឯកជន": 4252,
      "ថយចុះ": 4253,
      "LH": 4254,
      "Sinh": 4255,
      "ka": 4256,
      "ko": 4257,
      "ជារ": 4258,
      "អ៊ីន": 4259,
      "ប្រាកដ": 4260,
      "bác": 4261,
      "cột": 4262,
      "xấu": 4263,
      "ឡូវ": 4264,
      "សន្និសិទ": 4265,
      "bùng": 4266,
      "dừng": 4267,
      "Chi": 4268,
      "ngoái": 4269,
      "ទូលំទូលាយ": 4270,
      "Phili": 4271,
      "bank": 4272,
      "យល់ដឹង": 4273,
      "tro": 4274,
      "khoán": 4275,
      "sạn": 4276,
      "ម៉ឺ": 4277,
      "itco": 4278,
      "Bùi": 4279,
      "ទីនេះ": 4280,
      "chờ": 4281,
      "Indon": 4282,
      "ហេដ្ឋារ": 4283,
      "Tân": 4284,
      "trích": 4285,
      "ការអប់រំ": 4286,
      "ៀងរាល់": 4287,
      "vn": 4288,
      "ine": 4289,
      "Indonesia": 4290,
      "ada": 4291,
      "អ៊ីស្រាអែល": 4292,
      "Ja": 4293,
      "ស្អាត": 4294,
      "កំណែ": 4295,
      "គំរោង": 4296,
      "Net": 4297,
      "liền": 4298,
      "មុនពេល": 4299,
      "Ri": 4300,
      "១៩៨": 4301,
      "ទិវា": 4302,
      "Là": 4303,
      "bia": 4304,
      "Abe": 4305,
      "ត្រង់": 4306,
      "ឌីជីថល": 4307,
      "ពិចារ": 4308,
      "ស្ថេរ": 4309,
      "លំដាប់": 4310,
      "ឋានៈ": 4311,
      "និន្នាការ": 4312,
      "ry": 4313,
      "បិទ": 4314,
      "ge": 4315,
      "dọa": 4316,
      "Tho": 4317,
      "Lạp": 4318,
      "លាក់": 4319,
      "gắng": 4320,
      "ភេរ": 4321,
      "ខែសីហា": 4322,
      "ខែកក្កដា": 4323,
      "សព្វ": 4324,
      "និរ": 4325,
      "đoán": 4326,
      "ពិចារណា": 4327,
      "ឆ្ង": 4328,
      "Trang": 4329,
      "Qua": 4330,
      "ាករណ៍": 4331,
      "ខែកុម្ភៈ": 4332,
      "LHQ": 4333,
      "ភាវ": 4334,
      "គួរឱ្យ": 4335,
      "ានុពល": 4336,
      "DA": 4337,
      "phái": 4338,
      "ភ្លាម": 4339,
      "អាគ្ន": 4340,
      "thang": 4341,
      "raq": 4342,
      "បុរី": 4343,
      "ដែនដី": 4344,
      "រណសិរ្ស": 4345,
      "បម្រើ": 4346,
      "bó": 4347,
      "rừng": 4348,
      "រីករាយ": 4349,
      "ានិ": 4350,
      "តិ្ត": 4351,
      "េយ៍": 4352,
      "ភេរវ": 4353,
      "Kể": 4354,
      "២៤": 4355,
      "របប": 4356,
      "Cụ": 4357,
      "Cần": 4358,
      "đá": 4359,
      "កែលម្អ": 4360,
      "Philipp": 4361,
      "ប្រតិប": 4362,
      "Bằng": 4363,
      "អង្វ": 4364,
      "ចូលរៀន": 4365,
      "ពិតជា": 4366,
      "ក្តៅ": 4367,
      "អាល្លឺម៉ង់": 4368,
      "ឥឡូវ": 4369,
      "សាងសង់": 4370,
      "ịa": 4371,
      "ដើមទុន": 4372,
      "linh": 4373,
      "man": 4374,
      "ទោស": 4375,
      "trú": 4376,
      "អន្ត": 4377,
      "ៀស": 4378,
      "khẩn": 4379,
      "អំណោយ": 4380,
      "ngờ": 4381,
      "rủi": 4382,
      "រិត": 4383,
      "រង្វ": 4384,
      "ard": 4385,
      "លេចធ្ល": 4386,
      "អង្វែង": 4387,
      "ខែមេសា": 4388,
      "បន្តបន្ទាប់": 4389,
      "សេចក្តីសម្រេចចិត្ត": 4390,
      "Iraq": 4391,
      "គ្រាប់": 4392,
      "កំពស់": 4393,
      "ជញ្ជូន": 4394,
      "Fa": 4395,
      "ទើបតែ": 4396,
      "Đề": 4397,
      "Điện": 4398,
      "ពណ៌": 4399,
      "លេចធ្លោ": 4400,
      "Hữu": 4401,
      "សង": 4402,
      "ធានារ": 4403,
      "អាសន្ន": 4404,
      "Sáng": 4405,
      "បូព៌ា": 4406,
      "អាគ្នេយ៍": 4407,
      "đợi": 4408,
      "សំរ": 4409,
      "ហេដ្ឋារចនាសម្ព័ន្ធ": 4410,
      "កម្មករ": 4411,
      "mật": 4412,
      "មេរ": 4413,
      "ươi": 4414,
      "gen": 4415,
      "tờ": 4416,
      "ភាវូបនីយកម្ម": 4417,
      "phận": 4418,
      "ាធរ": 4419,
      "ជីព": 4420,
      "ធានារ៉ាប់": 4421,
      "Fran": 4422,
      "ឧបករណ៍": 4423,
      "bi": 4424,
      "khuyết": 4425,
      "Quỹ": 4426,
      "កើតឡើង": 4427,
      "nộp": 4428,
      "ni": 4429,
      "កំណែទម្រង់": 4430,
      "ទារ": 4431,
      "Tham": 4432,
      "ង្ហបុរី": 4433,
      "G20": 4434,
      "duyệt": 4435,
      "អាជ្ញាធរ": 4436,
      "hào": 4437,
      "ớt": 4438,
      "ខាងលិច": 4439,
      "គីមី": 4440,
      "សូម": 4441,
      "ទំព": 4442,
      "Lai": 4443,
      "Dù": 4444,
      "hài": 4445,
      "ទីតាំង": 4446,
      "itcoin": 4447,
      "ទ្វារ": 4448,
      "ដេញ": 4449,
      "ines": 4450,
      "ប័ណ្ណ": 4451,
      "cánh": 4452,
      "rơi": 4453,
      "ទាម": 4454,
      "រណា": 4455,
      "សុខាភិបាល": 4456,
      "Vào": 4457,
      "ពូ": 4458,
      "hoan": 4459,
      "ខែតុលា": 4460,
      "ពាន": 4461,
      "quanh": 4462,
      "ស្រុង": 4463,
      "ក្រោយពី": 4464,
      "ជំហរ": 4465,
      "kém": 4466,
      "អ៊ីនធឺ": 4467,
      "ស្ថេរភាព": 4468,
      "aza": 4469,
      "SCO": 4470,
      "hứa": 4471,
      "ថ្នា": 4472,
      "៤៥": 4473,
      "នាវា": 4474,
      "សារៈ": 4475,
      "ពលកម្ម": 4476,
      "ke": 4477,
      "se": 4478,
      "Malays": 4479,
      "Malaysia": 4480,
      "Tính": 4481,
      "bá": 4482,
      "thiệp": 4483,
      "ផ្ទេរ": 4484,
      "đắn": 4485,
      "ការតភ្ជាប់": 4486,
      "ទប់ទល់": 4487,
      "ប្រាថ្នា": 4488,
      "vinh": 4489,
      "២៧": 4490,
      "ខែឧសភា": 4491,
      "យូរអង្វែង": 4492,
      "វ័យ": 4493,
      "ប្រសិទ្ធិ": 4494,
      "ឲ្យបាន": 4495,
      "ផ្ដើម": 4496,
      "Xây": 4497,
      "zo": 4498,
      "ធានារ៉ាប់រង": 4499,
      "ដាច់": 4500,
      "ទាំងស្រុង": 4501,
      "ដឹកជញ្ជូន": 4502,
      "ជំនាន់": 4503,
      "នភាព": 4504,
      "phe": 4505,
      "bại": 4506,
      "boo": 4507,
      "ទីន": 4508,
      "កិច្ចសន្យា": 4509,
      "សេនី": 4510,
      "line": 4511,
      "dữ": 4512,
      "រកឃើញ": 4513,
      "nhuận": 4514,
      "Con": 4515,
      "tật": 4516,
      "ខែធ្នូ": 4517,
      "ចុះឈ្មោះ": 4518,
      "សំណូម": 4519,
      "ខែកញ្ញា": 4520,
      "dõi": 4521,
      "oxin": 4522,
      "Ni": 4523,
      "ការបោះ": 4524,
      "វិមាន": 4525,
      "សហប្រតិប": 4526,
      "Shin": 4527,
      "សភាព": 4528,
      "ហូប": 4529,
      "tina": 4530,
      "បន្ទុក": 4531,
      "គួរតែ": 4532,
      "សំណូមពរ": 4533,
      "២៨": 4534,
      "ការកំណត់": 4535,
      "ខែមករា": 4536,
      "ផ្ញ": 4537,
      "Air": 4538,
      "ឃ្លាំ": 4539,
      "ប្រសិទ្ធិភាព": 4540,
      "ធានី": 4541,
      "ច្រក": 4542,
      "màu": 4543,
      "ợn": 4544,
      "quay": 4545,
      "ខាងក្រៅ": 4546,
      "ladi": 4547,
      "រង្វាន់": 4548,
      "chết": 4549,
      "ាចរណ៍": 4550,
      "អ៊ុយ": 4551,
      "កែទម្រង់": 4552,
      "Hưng": 4553,
      "Si": 4554,
      "Tự": 4555,
      "ៀល": 4556,
      "Bitcoin": 4557,
      "ru": 4558,
      "tụ": 4559,
      "Thắng": 4560,
      "ស្មើនឹង": 4561,
      "សារៈសំខាន់": 4562,
      "kiều": 4563,
      "leo": 4564,
      "ការវាយប្រហារ": 4565,
      "AIPA": 4566,
      "ODA": 4567,
      "Ngan": 4568,
      "សម្ព": 4569,
      "ឃ្លាំមើល": 4570,
      "lúa": 4571,
      "២២": 4572,
      "ក្រាម": 4573,
      "ខែមិថុនា": 4574,
      "lợn": 4575,
      "ិត្យ": 4576,
      "ការខិតខំ": 4577,
      "gương": 4578,
      "ប៉ា": 4579,
      "បន្ទាប់មក": 4580,
      "យន្តហោះ": 4581,
      "Vladi": 4582,
      "cà": 4583,
      "lãm": 4584,
      "កំរិត": 4585,
      "មេគ": 4586,
      "nét": 4587,
      "Gu": 4588,
      "ឡង់": 4589,
      "២០១១": 4590,
      "ប្បាយ": 4591,
      "thoát": 4592,
      "មាត្រា": 4593,
      "មេគង្គ": 4594,
      "Đào": 4595,
      "ជ្រៅ": 4596,
      "chẳng": 4597,
      "កម្ចី": 4598,
      "បច្ចេកទេស": 4599,
      "2030": 4600,
      "2010": 4601,
      "ឆ្លៀត": 4602,
      "tỉ": 4603,
      "ិសនី": 4604,
      "កញ្": 4605,
      "Cửu": 4606,
      "trừ": 4607,
      "អគ្គិសនី": 4608,
      "មាគ": 4609,
      "Sen": 4610,
      "ការជួយ": 4611,
      "ការបណ្តុះបណ្តាល": 4612,
      "Phương": 4613,
      "សហប្រតិបតិ្ត": 4614,
      "bé": 4615,
      "Quản": 4616,
      "លំបាក": 4617,
      "trữ": 4618,
      "Lâm": 4619,
      "ការប្រកួតប្រជែង": 4620,
      "សហព័ន្ធ": 4621,
      "ចំណេះ": 4622,
      "ចិញ្ច": 4623,
      "រសៀល": 4624,
      "ភេរវកម្ម": 4625,
      "cảng": 4626,
      "ិម": 4627,
      "Giải": 4628,
      "ល្បឿន": 4629,
      "chồng": 4630,
      "Ngô": 4631,
      "Mỗi": 4632,
      "ហាង": 4633,
      "buôn": 4634,
      "va": 4635,
      "ចោទ": 4636,
      "លេង": 4637,
      "ទី២": 4638,
      "AD": 4639,
      "Cường": 4640,
      "ol": 4641,
      "៧០": 4642,
      "សូត្រ": 4643,
      "ven": 4644,
      "គតិ": 4645,
      "XIII": 4646,
      "WTO": 4647,
      "ជាថ្មី": 4648,
      "្ថាន": 4649,
      "ជាក់លាក់": 4650,
      "Ven": 4651,
      "thềm": 4652,
      "ការដឹកនាំ": 4653,
      "បញ្ញា": 4654,
      "Vietnam": 4655,
      "1992": 4656,
      "វិទ្យាស្ថាន": 4657,
      "Toán": 4658,
      "និរន្តរ": 4659,
      "Thiên": 4660,
      "រួច": 4661,
      "ali": 4662,
      "ប្បី": 4663,
      "mir": 4664,
      "Ass": 4665,
      "សេនីយ៍": 4666,
      "lâm": 4667,
      "núi": 4668,
      "ែប្រ": 4669,
      "phút": 4670,
      "Mos": 4671,
      "Mer": 4672,
      "ខូច": 4673,
      "thải": 4674,
      "ការត្រួតពិនិត្យ": 4675,
      "nổ": 4676,
      "ភាពក្រីក្រ": 4677,
      "ដំណើ": 4678,
      "ម៉ូ": 4679,
      "Canada": 4680,
      "កញ្ចប់": 4681,
      "និរន្តរភាព": 4682,
      "hạnh": 4683,
      "rẻ": 4684,
      "ជម្": 4685,
      "ទួរ": 4686,
      "chạy": 4687,
      "Ngoc": 4688,
      "ជារៀងរាល់": 4689,
      "ចំណេះដឹង": 4690,
      "ែប្រួល": 4691,
      "គប្បី": 4692,
      "Trắng": 4693,
      "ដុល្លា": 4694,
      "កំហែង": 4695,
      "ជម្ងឺ": 4696,
      "Mu": 4697,
      "Sam": 4698,
      "ói": 4699,
      "tán": 4700,
      "ពេទ្យ": 4701,
      "ធ្លី": 4702,
      "សក្តានុពល": 4703,
      "ខា": 4704,
      "quỹ": 4705,
      "làng": 4706,
      "ទោះជា": 4707,
      "ទំព័រ": 4708,
      "non": 4709,
      "hẹp": 4710,
      "ដីធ្លី": 4711,
      "លិ": 4712,
      "គីឡូក្រាម": 4713,
      "vẹn": 4714,
      "៦០": 4715,
      "ការធានា": 4716,
      "លទ្ធភាព": 4717,
      "បាយ": 4718,
      "ហៅ": 4719,
      "ាមកំហែង": 4720,
      "ក្រែន": 4721,
      "ចំណេញ": 4722,
      "CEP": 4723,
      "lõi": 4724,
      "khôi": 4725,
      "ព្រៃ": 4726,
      "រយះ": 4727,
      "Paris": 4728,
      "yo": 4729,
      "អ៊ុយក្រែន": 4730,
      "oun": 4731,
      "ជំនួស": 4732,
      "Philippines": 4733,
      "tươi": 4734,
      "Điểm": 4735,
      "rào": 4736,
      "ក្បាល": 4737,
      "Ang": 4738,
      "ham": 4739,
      "ដេ": 4740,
      "សិក្ខ": 4741,
      "Teh": 4742,
      "បត្រ": 4743,
      "chứ": 4744,
      "ការវាយតម្លៃ": 4745,
      "May": 4746,
      "wa": 4747,
      "ហានិ": 4748,
      "ការការពារ": 4749,
      "កងកម្លាំង": 4750,
      "ហានិភ័យ": 4751,
      "NN": 4752,
      "ùm": 4753,
      "ផ្ដល់": 4754,
      "55": 4755,
      "kiềm": 4756,
      "រៀនសូត្រ": 4757,
      "កាំ": 4758,
      "doạ": 4759,
      "កែលំ": 4760,
      "Vladimir": 4761,
      "Hành": 4762,
      "Pa": 4763,
      "ស្នាក់": 4764,
      "មូលនិ": 4765,
      "ប្លុក": 4766,
      "ឥណ": 4767,
      "អ៊ិន": 4768,
      "ធ្វើឡើង": 4769,
      "មូលនិធិ": 4770,
      "Hạ": 4771,
      "dương": 4772,
      "xóa": 4773,
      "RCEP": 4774,
      "chỗ": 4775,
      "giản": 4776,
      "ចំណាត់": 4777,
      "ary": 4778,
      "សហប្រតិបតិ្តការ": 4779,
      "Assad": 4780,
      "ash": 4781,
      "ga": 4782,
      "វគ្គ": 4783,
      "ការខំប្រឹងប្រែង": 4784,
      "ទប់ស្កាត់": 4785,
      "CI": 4786,
      "kel": 4787,
      "oi": 4788,
      "ឥណទាន": 4789,
      "Cai": 4790,
      "ic": 4791,
      "mưu": 4792,
      "សល់": 4793,
      "Tehran": 4794,
      "lưới": 4795,
      "xứng": 4796,
      "ឃោស": 4797,
      "ចរណ៍": 4798,
      "ស្តង់ដារ": 4799,
      "ឈ្នះ": 4800,
      "trúng": 4801,
      "បន្ទាន់": 4802,
      "tuyệt": 4803,
      "សាខា": 4804,
      "Tàu": 4805,
      "វែង": 4806,
      "ườn": 4807,
      "Tòa": 4808,
      "cai": 4809,
      "sa": 4810,
      "yên": 4811,
      "លង": 4812,
      "សេរ": 4813,
      "ស្រេច": 4814,
      "ចំណង": 4815,
      "អ្នកវិភាគ": 4816,
      "បញ្ឈប់": 4817,
      "nghênh": 4818,
      "ទាមទារ": 4819,
      "ឧស្ម័": 4820,
      "UNE": 4821,
      "Bán": 4822,
      "Đáng": 4823,
      "ព្រមាន": 4824,
      "đuổi": 4825,
      "Group": 4826,
      "ki": 4827,
      "mệnh": 4828,
      "Chuyên": 4829,
      "ផ្សា": 4830,
      "តុលាការ": 4831,
      "កី": 4832,
      "ការព្រួយបារម្ភ": 4833,
      "អនុស្ស": 4834,
      "ឃោសនា": 4835,
      "ប្រជាពលរដ្ឋ": 4836,
      "ចំហ": 4837,
      "សេចក្តីប្រកាស": 4838,
      "36": 4839,
      "ការជ": 4840,
      "រដ្ឋធានី": 4841,
      "អាកាសចរណ៍": 4842,
      "ទ្រព្យសម្បត្តិ": 4843,
      "ឡាយ": 4844,
      "សរសេរ": 4845,
      "Tien": 4846,
      "គូរ": 4847,
      "khung": 4848,
      "Truyền": 4849,
      "ពិការ": 4850,
      "២៣": 4851,
      "ជំទ": 4852,
      "ការប្រយុទ្ធ": 4853,
      "Merkel": 4854,
      "UNESCO": 4855,
      "nề": 4856,
      "rẽ": 4857,
      "យុទ្ធជន": 4858,
      "រងគ្រោះ": 4859,
      "ill": 4860,
      "ស្លាប់": 4861,
      "Duy": 4862,
      "bồi": 4863,
      "chủng": 4864,
      "បំពាន": 4865,
      "Tình": 4866,
      "chữa": 4867,
      "អាស្រ័យ": 4868,
      "កែច្នៃ": 4869,
      "សេចក្តីថ្លែងការណ៍": 4870,
      "ទំនុកចិត្ត": 4871,
      "đắp": 4872,
      "ប៉ូល": 4873,
      "ឧបស": 4874,
      "ឥឡូវនេះ": 4875,
      "ចិញ្ចឹម": 4876,
      "ស្មោះ": 4877,
      "មិត្តភ": 4878,
      "ជាស្រេច": 4879,
      "ទេសៈ": 4880,
      "កាលៈ": 4881,
      "Mau": 4882,
      "រង់": 4883,
      "THCS": 4884,
      "អ្នកប្រើប្រាស់": 4885,
      "đêm": 4886,
      "ការចរចា": 4887,
      "The": 4888,
      "នាការ": 4889,
      "វ៉ាស៊ីន": 4890,
      "សម្ពាធ": 4891,
      "AR": 4892,
      "Vịnh": 4893,
      "ទទួលយក": 4894,
      "ទស្សន៍": 4895,
      "chặng": 4896,
      "វេជ្ជ": 4897,
      "Rõ": 4898,
      "ម្នះ": 4899,
      "soạn": 4900,
      "ផ្ទុះ": 4901,
      "យល់ព្រម": 4902,
      "ាក្រូ": 4903,
      "ទទួលបន្ទុក": 4904,
      "ម៉ាក្រូ": 4905,
      "សំណួរ": 4906,
      "កំលាំង": 4907,
      "ថែរក្សា": 4908,
      "Chiều": 4909,
      "tấm": 4910,
      "ីស": 4911,
      "ani": 4912,
      "សង្គ្រោះ": 4913,
      "គ្រូប": 4914,
      "Argen": 4915,
      "យុត្តិធម៌": 4916,
      "ម្ហូប": 4917,
      "book": 4918,
      "Argentina": 4919,
      "លុយ": 4920,
      "ការបង្កើន": 4921,
      "Khánh": 4922,
      "Duong": 4923,
      "ក្តិ": 4924,
      "400": 4925,
      "thắt": 4926,
      "ឧត្តមសេនីយ៍": 4927,
      "Quyền": 4928,
      "ង្រៀន": 4929,
      "Mac": 4930,
      "កាលៈទេសៈ": 4931,
      "ឧបទ": 4932,
      "ធ្វើអោយ": 4933,
      "ភ្លើង": 4934,
      "ប្រសើរឡើង": 4935,
      "AM": 4936,
      "តេត": 4937,
      "trời": 4938,
      "គ្រូបង្រៀន": 4939,
      "Hong": 4940,
      "មន្រ្តី": 4941,
      "សំរេច": 4942,
      "Vũng": 4943,
      "gu": 4944,
      "ន្យ": 4945,
      "Triển": 4946,
      "ទិដ្ឋ": 4947,
      "ឧស្ម័ន": 4948,
      "bổng": 4949,
      "súng": 4950,
      "ពុះ": 4951,
      "សម្រាក": 4952,
      "Nghiên": 4953,
      "ជុំវិញ": 4954,
      "ounce": 4955,
      "ការជំរុញ": 4956,
      "ទៅរក": 4957,
      "បញ្ច": 4958,
      "Mosco": 4959,
      "bế": 4960,
      "èn": 4961,
      "ាលា": 4962,
      "ចុះបញ្ជី": 4963,
      "ស្វ័យ": 4964,
      "សិក្ខាស": 4965,
      "ចំណាត់ថ្នាក់": 4966,
      "Hiệu": 4967,
      "km": 4968,
      "រុក": 4969,
      "AE": 4970,
      "ជម្នះ": 4971,
      "ដោល": 4972,
      "ហោ": 4973,
      "ắk": 4974,
      "ឧបសគ្គ": 4975,
      "វ៉ាស៊ីនតោន": 4976,
      "IM": 4977,
      "Đặng": 4978,
      "ចាក": 4979,
      "ពន្ល": 4980,
      "អត់": 4981,
      "្ដ": 4982,
      "សរស": 4983,
      "ស្លាម": 4984,
      "Moscow": 4985,
      "សិក្ខាសាលា": 4986,
      "Mor": 4987,
      "Võ": 4988,
      "ចែង": 4989,
      "គ្រោង": 4990,
      "ទស្សនា": 4991,
      "១៩៧": 4992,
      "HĐ": 4993,
      "lá": 4994,
      "មជ្ឈិម": 4995,
      "រូបិយ": 4996,
      "ជះឥទ្ធិពល": 4997,
      "ការកើនឡើង": 4998,
      "Nhóm": 4999,
      "Giao": 5000,
      "Shinzo": 5001,
      "Venez": 5002,
      "សុំ": 5003,
      "ប្រជាមាន": 5004,
      "Quoc": 5005,
      "ប្រាក់ខែ": 5006,
      "ទាំងឡាយ": 5007,
      "យ៉ាន់": 5008,
      "ដេញដោល": 5009,
      "Tam": 5010,
      "Tầm": 5011,
      "bo": 5012,
      "uela": 5013,
      "បែង": 5014,
      "2009": 5015,
      "Venezuela": 5016,
      "75": 5017,
      "online": 5018,
      "ពិតប្រាកដ": 5019,
      "cebook": 5020,
      "រាជ": 5021,
      "đọc": 5022,
      "XH": 5023,
      "bãi": 5024,
      "gỗ": 5025,
      "គារ": 5026,
      "ការយល់ដឹង": 5027,
      "នៅឡើយ": 5028,
      "វត្តមាន": 5029,
      "ngôi": 5030,
      "បង្ខំ": 5031,
      "កំណើត": 5032,
      "ស្ត្រី": 5033,
      "ពោលគឺ": 5034,
      "Vo": 5035,
      "vọt": 5036,
      "គន់": 5037,
      "ប្អ": 5038,
      "ខ្ម": 5039,
      "ee": 5040,
      "Đỗ": 5041,
      "ស្ង": 5042,
      "យ៉ាន់ម៉ា": 5043,
      "dan": 5044,
      "rus": 5045,
      "សន្ធ": 5046,
      "សត្វ": 5047,
      "hiếm": 5048,
      "២៩": 5049,
      "làn": 5050,
      "បំផ្ល": 5051,
      "ខ្ន": 5052,
      "នេសា": 5053,
      "ការវិ": 5054,
      "Nhận": 5055,
      "សាស្ត្រាចារ្យ": 5056,
      "Bel": 5057,
      "ទ្រង់": 5058,
      "តាលី": 5059,
      "Moon": 5060,
      "អង្ករ": 5061,
      "ចាកចេញ": 5062,
      "ានី": 5063,
      "dioxin": 5064,
      "នេសាទ": 5065,
      "Đánh": 5066,
      "thoái": 5067,
      "TW": 5068,
      "then": 5069,
      "ផ្ទុយ": 5070,
      "ទា": 5071,
      "ការកាត់បន្ថយ": 5072,
      "ប្អូន": 5073,
      "G7": 5074,
      "Lịch": 5075,
      "đâu": 5076,
      "ឆាក": 5077,
      "ngừa": 5078,
      "quà": 5079,
      "ភាគរយ": 5080,
      "សីល": 5081,
      "អេឡិចត្រូនិក": 5082,
      "Ram": 5083,
      "គមនា": 5084,
      "đỏ": 5085,
      "nhật": 5086,
      "មុខវិជ្ជា": 5087,
      "khứ": 5088,
      "máu": 5089,
      "thuyết": 5090,
      "ផ្តួច": 5091,
      "អនុញ្ញាតឱ្យ": 5092,
      "អប": 5093,
      "thuẫn": 5094,
      "សកលលោក": 5095,
      "giác": 5096,
      "្សំ": 5097,
      "vu": 5098,
      "ការចរចារ": 5099,
      "ម៉ែ": 5100,
      "បាត់បង់": 5101,
      "arus": 5102,
      "គ្រោះថ្នាក់": 5103,
      "ផ្ទៃក្នុង": 5104,
      "It": 5105,
      "Song": 5106,
      "vẻ": 5107,
      "ភ្ន": 5108,
      "អ្នកស្រី": 5109,
      "ផ្តួចផ្តើម": 5110,
      "Rập": 5111,
      "Car": 5112,
      "lùi": 5113,
      "mer": 5114,
      "សវត្ស": 5115,
      "ụp": 5116,
      "ជ្រាល": 5117,
      "Mạnh": 5118,
      "cũ": 5119,
      "gan": 5120,
      "ngàn": 5121,
      "thẻ": 5122,
      "លុបចោល": 5123,
      "ជ្រាលជ្រៅ": 5124,
      "Ara": 5125,
      "PCA": 5126,
      "ប្រាស": 5127,
      "ស្នើស": 5128,
      "អត្ថបទ": 5129,
      "មហាវិទ្យាល័យ": 5130,
      "ពុះពារ": 5131,
      "ស្នើសុំ": 5132,
      "អបអរ": 5133,
      "Pe": 5134,
      "ទូទាត់": 5135,
      "ទឹកប្រាក់": 5136,
      "ươn": 5137,
      "Phật": 5138,
      "បែបបទ": 5139,
      "ទាហាន": 5140,
      "bánh": 5141,
      "សណ្ត": 5142,
      "rau": 5143,
      "សម្តៅ": 5144,
      "lỗ": 5145,
      "ដំណឹង": 5146,
      "ខ្វែង": 5147,
      "ផ្ញើ": 5148,
      "gà": 5149,
      "hủy": 5150,
      "ការស្រាវជ្រាវ": 5151,
      "ទៅតាម": 5152,
      "ស្រស់": 5153,
      "Hol": 5154,
      "បទដ្ឋាន": 5155,
      "ស្មោះត្រង់": 5156,
      "ប្រជាមានិត": 5157,
      "kịch": 5158,
      "lũ": 5159,
      "សង្វ": 5160,
      "ដូច្នេះហើយ": 5161,
      "ឧបទ្វីប": 5162,
      "ការច្នៃប្រឌិត": 5163,
      "virus": 5164,
      "ឆ្ងាយ": 5165,
      "vương": 5166,
      "ចត់": 5167,
      "ទរ": 5168,
      "ការសន្យា": 5169,
      "ម្បីតែ": 5170,
      "ប្តេជ្ញា": 5171,
      "នីស្ត": 5172,
      "បែងចែក": 5173,
      "វិបាក": 5174,
      "បន្ទប់": 5175,
      "យុទ្ធសាស្រ្ត": 5176,
      "សំណង់": 5177,
      "stan": 5178,
      "Định": 5179,
      "khiếu": 5180,
      "Ham": 5181,
      "eal": 5182,
      "ron": 5183,
      "Phiên": 5184,
      "លិខិត": 5185,
      "internet": 5186,
      "ការប្រែប្រួល": 5187,
      "ស្ត្រាលី": 5188,
      "១៩៨២": 5189,
      "កូវ": 5190,
      "មីយ៉ាន់ម៉ា": 5191,
      "សង្វាក់": 5192,
      "Vấn": 5193,
      "dỡ": 5194,
      "eb": 5195,
      "hưu": 5196,
      "tar": 5197,
      "ក្រិ": 5198,
      "chín": 5199,
      "ទូរស": 5200,
      "37": 5201,
      "អូស្ត្រាលី": 5202,
      "ត្រៀមខ្លួន": 5203,
      "sàn": 5204,
      "ការចំណាយ": 5205,
      "ចរិត": 5206,
      "ប៉ូលីស": 5207,
      "mo": 5208,
      "ការរីកចម្រើន": 5209,
      "thuốc": 5210,
      "Nhìn": 5211,
      "ព្យាករណ៍": 5212,
      "ិះគន់": 5213,
      "សណ្ឋាន": 5214,
      "ផលវិបាក": 5215,
      "សាទរ": 5216,
      "ិយា": 5217,
      "vướng": 5218,
      "ទាំ": 5219,
      "សាន": 5220,
      "សន្សំ": 5221,
      "ស៊ីវិល": 5222,
      "បដិសេ": 5223,
      "ស៊ើប": 5224,
      "មិត្តភក្តិ": 5225,
      "DN": 5226,
      "uỷ": 5227,
      "ហ្ម": 5228,
      "ុរ": 5229,
      "nhảy": 5230,
      "196": 5231,
      "័ព្ទ": 5232,
      "អាហ្វ្រ": 5233,
      "Belarus": 5234,
      "គមនាគមន៍": 5235,
      "đáo": 5236,
      "សភាពការណ៍": 5237,
      "ម៉ែត្រ": 5238,
      "ót": 5239,
      "អាន": 5240,
      "វត្តន៍": 5241,
      "ផ្ទាល់ខ្លួន": 5242,
      "ũi": 5243,
      "អាក្រ": 5244,
      "រំដោះ": 5245,
      "ក្ខុ": 5246,
      "ខុសគ្នា": 5247,
      "2008": 5248,
      "Số": 5249,
      "mã": 5250,
      "ចេញផ្សាយ": 5251,
      "ត្រីមាស": 5252,
      "ចក្ខុ": 5253,
      "ាភាព": 5254,
      "cháu": 5255,
      "Thay": 5256,
      "អត្ថប្រយោជន៍": 5257,
      "ភ្លឺ": 5258,
      "Po": 5259,
      "កាហ": 5260,
      "ជំទាស់": 5261,
      "សរសើរ": 5262,
      "ចក្ខុវិស័យ": 5263,
      "Rịa": 5264,
      "រយះពេល": 5265,
      "kính": 5266,
      "vợ": 5267,
      "Angela": 5268,
      "ក្រិដ្ឋ": 5269,
      "thuỷ": 5270,
      "តម្លាភាព": 5271,
      "អង្កេត": 5272,
      "អាហ្វ្រិក": 5273,
      "ví": 5274,
      "ទាញ": 5275,
      "រោង": 5276,
      "ការពង្រ": 5277,
      "សន្និបាត": 5278,
      "sữa": 5279,
      "Thúc": 5280,
      "Nghệ": 5281,
      "Bang": 5282,
      "be": 5283,
      "mầm": 5284,
      "អត្ត": 5285,
      "ម៉ឺន": 5286,
      "អំណោយផល": 5287,
      "ប៉ាឡ": 5288,
      "lẽ": 5289,
      "mực": 5290,
      "giỏi": 5291,
      "ុតាង": 5292,
      "រៀបចំឡើង": 5293,
      "គំរាមកំហែង": 5294,
      "សូម្បីតែ": 5295,
      "សីលធម៌": 5296,
      "sen": 5297,
      "រ៍": 5298,
      "ហូរ": 5299,
      "thơ": 5300,
      "សម្ព័ន្ធមិត្ត": 5301,
      "អូស": 5302,
      "IC": 5303,
      "Ko": 5304,
      "trại": 5305,
      "Bac": 5306,
      "ខណៈពេល": 5307,
      "combank": 5308,
      "អាក្រក់": 5309,
      "xăng": 5310,
      "ការពង្រឹង": 5311,
      "vong": 5312,
      "ụy": 5313,
      "ខ្លី": 5314,
      "ជិតខាង": 5315,
      "បដិសេធ": 5316,
      "Gen": 5317,
      "vươn": 5318,
      "៉ា": 5319,
      "ៀសវាង": 5320,
      "no": 5321,
      "បេស": 5322,
      "Tri": 5323,
      "កីឡា": 5324,
      "ភ្នំ": 5325,
      "46": 5326,
      "́c": 5327,
      "ញ្ញាណ": 5328,
      "MS": 5329,
      "dệt": 5330,
      "kẻ": 5331,
      "ão": 5332,
      "ỳnh": 5333,
      "មកហើយ": 5334,
      "មាគ៌ា": 5335,
      "TN": 5336,
      "ទ្ឋ": 5337,
      "ទ្រាយ": 5338,
      "Tok": 5339,
      "ចោទប្រកាន់": 5340,
      "49": 5341,
      "Họ": 5342,
      "សវ": 5343,
      "ការខ្វែង": 5344,
      "ល្": 5345,
      "triệt": 5346,
      "ការផ្តល់": 5347,
      "និយោជិក": 5348,
      "អតិផ": 5349,
      "vườn": 5350,
      "ឋម": 5351,
      "បឋម": 5352,
      "ហាម": 5353,
      "erry": 5354,
      "អ៊ីនធឺណ": 5355,
      "cờ": 5356,
      "tt": 5357,
      "ទទួលខុសត្រូវ": 5358,
      "ហេតុផល": 5359,
      "ង្វៀន": 5360,
      "huấn": 5361,
      "ថែទាំ": 5362,
      "អបអរសាទរ": 5363,
      "lây": 5364,
      "khám": 5365,
      "Nhờ": 5366,
      "មើលឃើញ": 5367,
      "ដំបន់": 5368,
      "Facebook": 5369,
      "uống": 5370,
      "នារី": 5371,
      "ុងរឿង": 5372,
      "ចំណុះ": 5373,
      "ត់ចត់": 5374,
      "មេរៀន": 5375,
      "ទសវត្ស": 5376,
      "៥០០": 5377,
      "truy": 5378,
      "ការជ្រើសរើស": 5379,
      "សម្បូរ": 5380,
      "ព្យុង": 5381,
      "ភារៈ": 5382,
      "PGS": 5383,
      "Ra": 5384,
      "Tiền": 5385,
      "Yen": 5386,
      "ចាយ": 5387,
      "ចារ្យ": 5388,
      "រំលោភបំពាន": 5389,
      "ការខ្វែងគំនិត": 5390,
      "Ka": 5391,
      "quen": 5392,
      "xuân": 5393,
      "េកាំង": 5394,
      "ទ្រង់ទ្រាយ": 5395,
      "ទូរស័ព្ទ": 5396,
      "48": 5397,
      "sáu": 5398,
      "ទើ": 5399,
      "បនឹង": 5400,
      "សង្គមកិច្ច": 5401,
      "យុទ្ធនាការ": 5402,
      "អេហ្ស": 5403,
      "BH": 5404,
      "Man": 5405,
      "dò": 5406,
      "res": 5407,
      "tel": 5408,
      "ស្ប": 5409,
      "ឈប់ឈរ": 5410,
      "Bra": 5411,
      "bóng": 5412,
      "អក្ស": 5413,
      "បញ្ចេញ": 5414,
      "សន្តិ": 5415,
      "គោ": 5416,
      "kháng": 5417,
      "Thỏa": 5418,
      "Phước": 5419,
      "ពិគ្រោះ": 5420,
      "ប័ត្រ": 5421,
      "CN": 5422,
      "Lực": 5423,
      "gái": 5424,
      "លទ្ធិ": 5425,
      "ឺត": 5426,
      "លោត": 5427,
      "ស្តារ": 5428,
      "កែសម្រួល": 5429,
      "អតិផរណា": 5430,
      "bờ": 5431,
      "lạnh": 5432,
      "sti": 5433,
      "̀ng": 5434,
      "ិតិ": 5435,
      "ការគោរព": 5436,
      "iden": 5437,
      "bớt": 5438,
      "uro": 5439,
      "ការលើកកម្ពស់": 5440,
      "ទៅដល់": 5441,
      "ទើបនឹង": 5442,
      "Bash": 5443,
      "ụng": 5444,
      "ប្រមុខ": 5445,
      "មធ្យមសិក្សា": 5446,
      "ផ្សាភ្ជាប់": 5447,
      "ព្យុងយ៉ាង": 5448,
      "Bu": 5449,
      "រាយការណ៍": 5450,
      "chữ": 5451,
      "thâm": 5452,
      "trấn": 5453,
      "ារាំង": 5454,
      "ស្ថិតិ": 5455,
      "ork": 5456,
      "ស្ទង់": 5457,
      "65": 5458,
      "Tám": 5459,
      "ជល": 5460,
      "ជួល": 5461,
      "ន៏": 5462,
      "ួម": 5463,
      "địch": 5464,
      "ជនរងគ្រោះ": 5465,
      "kiêm": 5466,
      "ការរួម": 5467,
      "ប្រាស្រ័យ": 5468,
      "Bất": 5469,
      "Cat": 5470,
      "sôi": 5471,
      "ៀក": 5472,
      "thú": 5473,
      "thảm": 5474,
      "ប៉េកាំង": 5475,
      "សិង្ហបុរី": 5476,
      "log": 5477,
      "ngoặt": 5478,
      "អក្សរ": 5479,
      "đen": 5480,
      "ល្យ": 5481,
      "lành": 5482,
      "Thai": 5483,
      "តម្រង់": 5484,
      "ួញដូរ": 5485,
      "អធិការ": 5486,
      "Em": 5487,
      "na": 5488,
      "៣៥": 5489,
      "ការសន្ទនា": 5490,
      "សាស្រ្តាចារ្យ": 5491,
      "600": 5492,
      "Ben": 5493,
      "sắm": 5494,
      "ឧទាហ": 5495,
      "ngư": 5496,
      "viễn": 5497,
      "ធម៍": 5498,
      "38": 5499,
      "ឆន្ទ": 5500,
      "៣១": 5501,
      "បញ្ចុះ": 5502,
      "បំណងប្រាថ្នា": 5503,
      "Cận": 5504,
      "phỏng": 5505,
      "Chị": 5506,
      "កូវី": 5507,
      "ff": 5508,
      "ស្រុះ": 5509,
      "ghế": 5510,
      "ទិន្នន័យ": 5511,
      "ealand": 5512,
      "AEC": 5513,
      "Môi": 5514,
      "Ti": 5515,
      "dây": 5516,
      "ចង": 5517,
      "អាជីព": 5518,
      "ខ្សោយ": 5519,
      "បណ្ដុះ": 5520,
      "Dai": 5521,
      "Se": 5522,
      "Zealand": 5523,
      "bốn": 5524,
      "hùng": 5525,
      "mỏ": 5526,
      "ឆ្នេរ": 5527,
      "Bài": 5528,
      "កាណ": 5529,
      "ណះ": 5530,
      "អំណរ": 5531,
      "VietNam": 5532,
      "xoá": 5533,
      "បេសក": 5534,
      "ចាប់ផ្ដើម": 5535,
      "ការបោះជំហាន": 5536,
      "ណ្ដាល": 5537,
      "Tuan": 5538,
      "01": 5539,
      "98": 5540,
      "Dang": 5541,
      "រាំង": 5542,
      "ទី៤": 5543,
      "ធ្វើដំណើរ": 5544,
      "ឆ្លុះ": 5545,
      "ត្រឡប់មក": 5546,
      "Am": 5547,
      "ដាយ": 5548,
      "អស្": 5549,
      "khâu": 5550,
      "san": 5551,
      "យាន": 5552,
      "ការរក្សា": 5553,
      "giày": 5554,
      "Chung": 5555,
      "សិល្ប": 5556,
      "tổn": 5557,
      "ចលន": 5558,
      "Ca": 5559,
      "រក្ស": 5560,
      "ឧទាហរណ៍": 5561,
      "32": 5562,
      "ចនា": 5563,
      "៨០": 5564,
      "ប៉ាន់": 5565,
      "Park": 5566,
      "Lam": 5567,
      "cãi": 5568,
      "អចលន": 5569,
      "ស្តុតាង": 5570,
      "សន្ទស្ស": 5571,
      "បង្រួម": 5572,
      "Hollan": 5573,
      "Lợi": 5574,
      "កូ": 5575,
      "ទម្ល": 5576,
      "bạc": 5577,
      "កាប់": 5578,
      "ាលភាព": 5579,
      "tôm": 5580,
      "គ្រឹះស្ថាន": 5581,
      "ស៊ើបអង្កេត": 5582,
      "Lộc": 5583,
      "̣c": 5584,
      "ដាន": 5585,
      "ដដែល": 5586,
      "Thơ": 5587,
      "195": 5588,
      "ព្យា": 5589,
      "ពូជ": 5590,
      "សន្តិវិធី": 5591,
      "កូវីដ": 5592,
      "អស្ចារ្យ": 5593,
      "Kerry": 5594,
      "រម": 5595,
      "រូ": 5596,
      "ការតស៊ូ": 5597,
      "ស្រឡ": 5598,
      "ដើម្បីឱ្យ": 5599,
      "ind": 5600,
      "ធ្នាប់": 5601,
      "IMF": 5602,
      "VietNamNet": 5603,
      "Bui": 5604,
      "Mới": 5605,
      "hứng": 5606,
      "ngồi": 5607,
      "ទៅមក": 5608,
      "ជ្រូក": 5609,
      "Thuận": 5610,
      "Brun": 5611,
      "នីតិវិធី": 5612,
      "ទី១": 5613,
      "ោសល្យ": 5614,
      "តឹងរឹង": 5615,
      "អន": 5616,
      "chăn": 5617,
      "វិន័យ": 5618,
      "បន្ស": 5619,
      "តុល្យ": 5620,
      "រោងចក្រ": 5621,
      "Bashar": 5622,
      "សប្បាយ": 5623,
      "េន": 5624,
      "lỗi": 5625,
      "tả": 5626,
      "Hollande": 5627,
      "ព្យាបាល": 5628,
      "33": 5629,
      "Cổ": 5630,
      "តម្": 5631,
      "ពោរ": 5632,
      "រាយ": 5633,
      "ថ្ន": 5634,
      "យឺត": 5635,
      "រារាំង": 5636,
      "សក្": 5637,
      "អារ៉ាប់": 5638,
      "Tay": 5639,
      "បៃ": 5640,
      "បាក់": 5641,
      "ộn": 5642,
      "ngon": 5643,
      "thận": 5644,
      "ượu": 5645,
      "Thọ": 5646,
      "ការប្រមូល": 5647,
      "គណិត": 5648,
      "AI": 5649,
      "Seo": 5650,
      "Tali": 5651,
      "ចាត់តាំង": 5652,
      "ល្បី": 5653,
      "ពោរពេញ": 5654,
      "Hệ": 5655,
      "cởi": 5656,
      "diệt": 5657,
      "rãi": 5658,
      "៩០": 5659,
      "nhượng": 5660,
      "ការផ្លាស់ប្ដូរ": 5661,
      "គូស": 5662,
      "ទឹកដី": 5663,
      "Hóa": 5664,
      "រ៉ែ": 5665,
      "កាយវិ": 5666,
      "ពិគ្រោះយោបល់": 5667,
      "ាគារ": 5668,
      "ត្រជាក់": 5669,
      "ក្រុមគ្រួសារ": 5670,
      "ជំល": 5671,
      "132": 5672,
      "BC": 5673,
      "Biden": 5674,
      "Clin": 5675,
      "Gần": 5676,
      "Ser": 5677,
      "chối": 5678,
      "ការដាក់": 5679,
      "ិសញ្ញា": 5680,
      "ចូលរួមចំណែក": 5681,
      "ep": 5682,
      "go": 5683,
      "euro": 5684,
      "Je": 5685,
      "ស្វែងយល់": 5686,
      "អេហ្ស៊ី": 5687,
      "ការបើក": 5688,
      "សណ្ឋាគារ": 5689,
      "បញ្ចាំង": 5690,
      "99": 5691,
      "Euro": 5692,
      "Hằng": 5693,
      "Lương": 5694,
      "mềm": 5695,
      "យប់": 5696,
      "ការប្រឆាំង": 5697,
      "ជំលោះ": 5698,
      "Clinton": 5699,
      "Ber": 5700,
      "bảng": 5701,
      "លើកលែង": 5702,
      "បំបាត់": 5703,
      "34": 5704,
      "BR": 5705,
      "sk": 5706,
      "គយ": 5707,
      "khen": 5708,
      "ខ្ព": 5709,
      "ចម្បង": 5710,
      "អន្តោ": 5711,
      "ខូចខាត": 5712,
      "បំផ្លាញ": 5713,
      "150": 5714,
      "hề": 5715,
      "ខ្ចី": 5716,
      "សង្កេត": 5717,
      "ដើមឈើ": 5718,
      "ជម្រើស": 5719,
      "សន្ធិសញ្ញា": 5720,
      "52": 5721,
      "ថ្ម": 5722,
      "ទិន្នផល": 5723,
      "អេហ្ស៊ីប": 5724,
      "lường": 5725,
      "២០២៥": 5726,
      "បង្អស់": 5727,
      "រកថា": 5728,
      "សន្ទស្សន៍": 5729,
      "vun": 5730,
      "thờ": 5731,
      "ផ្ទៃដី": 5732,
      "ការលក់": 5733,
      "Bỉ": 5734,
      "vé": 5735,
      "xứ": 5736,
      "បាតុ": 5737,
      "ពិព័": 5738,
      "ស្តាប់": 5739,
      "Vĩnh": 5740,
      "xong": 5741,
      "ហើរ": 5742,
      "េី": 5743,
      "Hoài": 5744,
      "Hun": 5745,
      "tùy": 5746,
      "គណិតវិទ្យា": 5747,
      "1975": 5748,
      "Nang": 5749,
      "gar": 5750,
      "ដ៍": 5751,
      "ពឹង": 5752,
      "ហួស": 5753,
      "ូវៀត": 5754,
      "ក្លែង": 5755,
      "អន្តោប្រវ": 5756,
      "bò": 5757,
      "rượu": 5758,
      "ពុល": 5759,
      "រុងរឿង": 5760,
      "chụp": 5761,
      "ស្មាន": 5762,
      "ម៉ាត់": 5763,
      "អ៊ីតាលី": 5764,
      "សេចក្ដីសម្រេចចិត្ត": 5765,
      "Taliban": 5766,
      "Kỷ": 5767,
      "San": 5768,
      "អវិជ្ជមាន": 5769,
      "ិញ": 5770,
      "Nhất": 5771,
      "ប្រតិកម្ម": 5772,
      "ខ្ពង់": 5773,
      "mìn": 5774,
      "កណ្ដាល": 5775,
      "khát": 5776,
      "ហោះហើរ": 5777,
      "DP": 5778,
      "Tôn": 5779,
      "eng": 5780,
      "hơi": 5781,
      "đắt": 5782,
      "យ័ត": 5783,
      "hãy": 5784,
      "បណ្ដុះបណ្ដាល": 5785,
      "Hi": 5786,
      "កក់": 5787,
      "ហភាព": 5788,
      "trùm": 5789,
      "ការទាក់ទាញ": 5790,
      "េស្ត": 5791,
      "eland": 5792,
      "VI": 5793,
      "ទុ": 5794,
      "ការជួប": 5795,
      "ក្រិក": 5796,
      "ស្រូប": 5797,
      "700": 5798,
      "dị": 5799,
      "ji": 5800,
      "lái": 5801,
      "រឹត": 5802,
      "និច": 5803,
      "វិប": 5804,
      "សមរ": 5805,
      "កាន់អំណាច": 5806,
      "ពង្រាយ": 5807,
      "សតវត្ស": 5808,
      "រង់ចាំ": 5809,
      "ធុរ": 5810,
      "nhẹ": 5811,
      "trắng": 5812,
      "ជាទូទៅ": 5813,
      "សម្ភារៈ": 5814,
      "សវន": 5815,
      "Hã": 5816,
      "lang": 5817,
      "វ័": 5818,
      "សាំង": 5819,
      "បៃត": 5820,
      "éc": 5821,
      "គត់": 5822,
      "ប្រដាប់": 5823,
      "បទបញ្ញត្តិ": 5824,
      "ឿនលឿន": 5825,
      "ផែនទី": 5826,
      "ព្វកិច្ច": 5827,
      "ឆន្ទៈ": 5828,
      "47": 5829,
      "Jer": 5830,
      "mãi": 5831,
      "រាប": 5832,
      "cứng": 5833,
      "ដណ្": 5834,
      "វាល": 5835,
      "ហឹង": 5836,
      "យោគ": 5837,
      "Tuần": 5838,
      "Hoạt": 5839,
      "Med": 5840,
      "York": 5841,
      "nại": 5842,
      "េសន៍": 5843,
      "អ្នកយក": 5844,
      "ម្លេង": 5845,
      "ភ្ញាក់": 5846,
      "ngang": 5847,
      "ាយាម": 5848,
      "Chánh": 5849,
      "វាយតំលៃ": 5850,
      "COP": 5851,
      "ចម្រុះ": 5852,
      "ឆ្លុះបញ្ចាំង": 5853,
      "Đăng": 5854,
      "́t": 5855,
      "ធរ": 5856,
      "tre": 5857,
      "កំពង់": 5858,
      "eres": 5859,
      "អនុស្សាវ": 5860,
      "gió": 5861,
      "ស្បែក": 5862,
      "ទាំងនោះ": 5863,
      "ទ្ធផល": 5864,
      "វិទ្យុស": 5865,
      "លក្ខណះ": 5866,
      "សំណើរ": 5867,
      "XIV": 5868,
      "ស្រឡាញ់": 5869,
      "វិទ្យុសម្លេង": 5870,
      "ឃាត់": 5871,
      "សឹ": 5872,
      "ៀរ": 5873,
      "កាន់កាប់": 5874,
      "hối": 5875,
      "lọc": 5876,
      "កុម្មុយនីស្ត": 5877,
      "ទាញយក": 5878,
      "ដណ្ដើម": 5879,
      "ស្ដារ": 5880,
      "ile": 5881,
      "រូបថត": 5882,
      "អនុស្សាវរី": 5883,
      "41": 5884,
      "ĩa": 5885,
      "ផ្លោះ": 5886,
      "គេហ": 5887,
      "eva": 5888,
      "AC": 5889,
      "Dư": 5890,
      "ងើប": 5891,
      "តេស្ត": 5892,
      "និទា": 5893,
      "បរា": 5894,
      "សាធារណះ": 5895,
      "មន្ទីរពេទ្យ": 5896,
      "បៃតង": 5897,
      "Kaza": 5898,
      "Làm": 5899,
      "dường": 5900,
      "tàn": 5901,
      "tỏa": 5902,
      "ផែ": 5903,
      "khstan": 5904,
      "ជាធរ": 5905,
      "និច្ឆ": 5906,
      "តាមដាន": 5907,
      "ស្ថាបន": 5908,
      "Tokyo": 5909,
      "អន្តោប្រវេសន៍": 5910,
      "បរាជ័យ": 5911,
      "800": 5912,
      "Dam": 5913,
      "Vàng": 5914,
      "Ngo": 5915,
      "khoẻ": 5916,
      "ស្នេ": 5917,
      "ព្រឹទ្ធ": 5918,
      "ផ្ដោត": 5919,
      "តុល្យភាព": 5920,
      "mơ": 5921,
      "កិត្យ": 5922,
      "ការចុះហត្ថលេខា": 5923,
      "Kazakhstan": 5924,
      "ជាធរមាន": 5925,
      "ea": 5926,
      "vỡ": 5927,
      "ណាំង": 5928,
      "hoãn": 5929,
      "មូលដ្ឋានគ្រឹះ": 5930,
      "កាតព្វកិច្ច": 5931,
      "ខ្នាត": 5932,
      "ស្បៀង": 5933,
      "ស្រូបយក": 5934,
      "Cas": 5935,
      "Mọi": 5936,
      "băng": 5937,
      "éo": 5938,
      "ឧក្រិដ្ឋ": 5939,
      "ឯកទេស": 5940,
      "សមិទ្ធផល": 5941,
      "ានីស្ថាន": 5942,
      "និច្ឆ័យ": 5943,
      "ការធ្លាក់ចុះ": 5944,
      "មិនា": 5945,
      "1945": 5946,
      "គ្រាប់បែក": 5947,
      "No": 5948,
      "OA": 5949,
      "mấy": 5950,
      "tốn": 5951,
      "ហ្វី": 5952,
      "គម្រោងការណ៍": 5953,
      "អ៊ីរ៉ាក់": 5954,
      "និទាឃ": 5955,
      "កិត្យានុភាព": 5956,
      "Tim": 5957,
      "Vân": 5958,
      "ía": 5959,
      "តុ": 5960,
      "ent": 5961,
      "aly": 5962,
      "ell": 5963,
      "Ta": 5964,
      "Được": 5965,
      "សញ្ញាណ": 5966,
      "ប្រវត្តិសាស្រ្ត": 5967,
      "ម៉ាឡ": 5968,
      "Brunei": 5969,
      "ស្ថាបនា": 5970,
      "iếng": 5971,
      "តិយ": 5972,
      "បទបញ្ជា": 5973,
      "ព្យាយាម": 5974,
      "huống": 5975,
      "ហាត់": 5976,
      "បុរស": 5977,
      "ថ្លែងអំណរ": 5978,
      "berg": 5979,
      "ផ្ទុះឡើង": 5980,
      "ទុតិយ": 5981,
      "ទុតិយភូមិ": 5982,
      "Cả": 5983,
      "អ្នកដឹកនាំ": 5984,
      "góc": 5985,
      "Khmer": 5986,
      "មហាសាមគ្គី": 5987,
      "កាយវិការ": 5988,
      "ហុង": 5989,
      "បង្រួប": 5990,
      "ពាក់កណ្តាល": 5991,
      "អនុស្សាវរីយ៍": 5992,
      "ថ្លែងអំណរគុណ": 5993,
      "Lưu": 5994,
      "nan": 5995,
      "op": 5996,
      "trai": 5997,
      "ស្រូវ": 5998,
      "ផ្តាច់": 5999,
      "Cuối": 6000,
      "បណ្តាលឱ្យ": 6001,
      "ឥណ្ឌូន": 6002,
      "បំពាក់": 6003,
      "ចក្រភព": 6004,
      "អេឡិចត្រូនិច": 6005,
      "បង្រួបបង្រួម": 6006,
      "Mức": 6007,
      "hm": 6008,
      "khơi": 6009,
      "ប្រុស": 6010,
      "វឌ្ឍនភាព": 6011,
      "ឥណ្ឌូនេស៊ី": 6012,
      "TV": 6013,
      "ati": 6014,
      "ទះ": 6015,
      "Thể": 6016,
      "អ្នកគ្រូ": 6017,
      "ាចរ": 6018,
      "យុត្ត": 6019,
      "Bi": 6020,
      "Hương": 6021,
      "កិ": 6022,
      "​​": 6023,
      "គោលជំហរ": 6024,
      "ហាមឃាត់": 6025,
      "ម៉ាឡេស៊ី": 6026,
      "Bul": 6027,
      "hè": 6028,
      "ជឿនលឿន": 6029,
      "ពេក": 6030,
      "lệch": 6031,
      "បន្លាយ": 6032,
      "Kon": 6033,
      "lắp": 6034,
      "rèn": 6035,
      "ភូមិសាស្ត្រ": 6036,
      "Mở": 6037,
      "យស": 6038,
      "ពង្រាង": 6039,
      "បេសកកម្ម": 6040,
      "dao": 6041,
      "web": 6042,
      "zil": 6043,
      "បក": 6044,
      "កិច្ចសហប្រតិបតិ្តការ": 6045,
      "រស់រ": 6046,
      "LĐ": 6047,
      "Sài": 6048,
      "gor": 6049,
      "đài": 6050,
      "លឿង": 6051,
      "ោបាយ": 6052,
      "ប្រែ": 6053,
      "កម្មសិទ្ធិ": 6054,
      "គណៈកម្មការ": 6055,
      "ស៊ីល": 6056,
      "ហឹង្សា": 6057,
      "Lần": 6058,
      "tàng": 6059,
      "tòa": 6060,
      "សតិ": 6061,
      "Brazil": 6062,
      "Bus": 6063,
      "ពន្យ": 6064,
      "្យូ": 6065,
      "ក៏ដូចជា": 6066,
      "វិធីសាស្រ្ត": 6067,
      "lymp": 6068,
      "វិបុល": 6069,
      "ធុរកិច្ច": 6070,
      "វ័ន្ត": 6071,
      "កំពង់ផែ": 6072,
      "Re": 6073,
      "Ví": 6074,
      "Đinh": 6075,
      "đứa": 6076,
      "chở": 6077,
      "ina": 6078,
      "đoan": 6079,
      "ខាតបង់": 6080,
      "AMM": 6081,
      "Đổi": 6082,
      "Phủ": 6083,
      "III": 6084,
      "ilk": 6085,
      "សេចក្ដីសម្រេច": 6086,
      "គេហទំព័រ": 6087,
      "Kiên": 6088,
      "Séc": 6089,
      "បុរ": 6090,
      "សំណើ": 6091,
      "កុំ": 6092,
      "ite": 6093,
      "គណះ": 6094,
      "Catal": 6095,
      "Kov": 6096,
      "Sun": 6097,
      "Tinh": 6098,
      "dắt": 6099,
      "mặn": 6100,
      "tách": 6101,
      "trầm": 6102,
      "Quý": 6103,
      "lãng": 6104,
      "ចំពោះមុខ": 6105,
      "មុខងារ": 6106,
      "កសិផល": 6107,
      "មធ្យោបាយ": 6108,
      "ទូរទស្សន៍": 6109,
      "Ali": 6110,
      "han": 6111,
      "hụt": 6112,
      "ngợi": 6113,
      "អ្នកយកព័ត៌មាន": 6114,
      "mai": 6115,
      "ពុំ": 6116,
      "ទំនួល": 6117,
      "អត្តសញ្ញាណ": 6118,
      "សវនកម្ម": 6119,
      "វិបុលភាព": 6120,
      "02": 6121,
      "ផ្អើល": 6122,
      "Gaza": 6123,
      "Tạo": 6124,
      "ពីន": 6125,
      "ស្ពាន": 6126,
      "David": 6127,
      "43": 6128,
      "Tối": 6129,
      "Tin": 6130,
      "èm": 6131,
      "ចៃ": 6132,
      "ាដា": 6133,
      "ការសម្របសម្រួល": 6134,
      "ខ្ជាប់": 6135,
      "បំរ": 6136,
      "ឧត្តមភាព": 6137,
      "ហ្វីលី": 6138,
      "កោត": 6139,
      "ួង": 6140,
      "Trị": 6141,
      "្វេ": 6142,
      "Saudi": 6143,
      "Tech": 6144,
      "សាន្ត": 6145,
      "BS": 6146,
      "Gòn": 6147,
      "cs": 6148,
      "lật": 6149,
      "៣០០": 6150,
      "ការរួមចំណែក": 6151,
      "Theres": 6152,
      "សង្កាត់": 6153,
      "2006": 6154,
      "ភ្ញាក់ផ្អើល": 6155,
      "Theresa": 6156,
      "ផុស": 6157,
      "Thụy": 6158,
      "ស្អ": 6159,
      "ស្ថានទូត": 6160,
      "ris": 6161,
      "ជ័យជម្នះ": 6162,
      "ពិនិត្យមើល": 6163,
      "AT": 6164,
      "Tương": 6165,
      "um": 6166,
      "ថត": 6167,
      "ពើ": 6168,
      "លោកគ្រូ": 6169,
      "វ៉ា": 6170,
      "លំដាប់ថ្នាក់": 6171,
      "កាហ្វេ": 6172,
      "Seoul": 6173,
      "Cảnh": 6174,
      "hàm": 6175,
      "đạn": 6176,
      "ទុំ": 6177,
      "ការជម្រុញ": 6178,
      "ការទិញ": 6179,
      "ពីមុន": 6180,
      "ជ្រើស": 6181,
      "ម៉ាក": 6182,
      "Moham": 6183,
      "រលក": 6184,
      "BHXH": 6185,
      "ហ្វីលីពីន": 6186,
      "Cô": 6187,
      "ជៀសវាង": 6188,
      "រឺ": 6189,
      "សេស": 6190,
      "gisti": 6191,
      "មីស៊ីល": 6192,
      "សាជីវកម្ម": 6193,
      "ខ្វះខាត": 6194,
      "Kovind": 6195,
      "ved": 6196,
      "Chau": 6197,
      "េតនា": 6198,
      "យ័ត្ន": 6199,
      "mâu": 6200,
      "កែលំអរ": 6201,
      "អូសបន្លាយ": 6202,
      "បុរាណ": 6203,
      "Tỷ": 6204,
      "lưỡng": 6205,
      "đau": 6206,
      "សាយ": 6207,
      "Trí": 6208,
      "របរ": 6209,
      "ទីកន្លែង": 6210,
      "Go": 6211,
      "PF": 6212,
      "VC": 6213,
      "châm": 6214,
      "thùng": 6215,
      "ន៌": 6216,
      "phim": 6217,
      "ការបង្រៀន": 6218,
      "១៩៩២": 6219,
      "ពិព័រណ៍": 6220,
      "Medved": 6221,
      "Dịch": 6222,
      "lừa": 6223,
      "សន្ល": 6224,
      "Riêng": 6225,
      "Rom": 6226,
      "lạ": 6227,
      "ិការ": 6228,
      "chiếu": 6229,
      "អនុវិទ្យាល័យ": 6230,
      "Huế": 6231,
      "កោតសរសើរ": 6232,
      "des": 6233,
      "rắn": 6234,
      "ក៍": 6235,
      "ញ៉": 6236,
      "ការបញ្ជា": 6237,
      "ភាពងាយស្រួល": 6238,
      "2000": 6239,
      "នាំមុខ": 6240,
      "alem": 6241,
      "ការព្យ": 6242,
      "នាវាចរណ៍": 6243,
      "Nath": 6244,
      "mê": 6245,
      "tồi": 6246,
      "đậm": 6247,
      "ខាន": 6248,
      "ការសម្រេចចិត្ត": 6249,
      "ប្រយ័ត្ន": 6250,
      "វិនិច្ឆ័យ": 6251,
      "ក្រហ": 6252,
      "កិច្ចសន្ទនា": 6253,
      "2007": 6254,
      "Huỳnh": 6255,
      "Medvedev": 6256,
      "Az": 6257,
      "Ir": 6258,
      "Uy": 6259,
      "trân": 6260,
      "២០៣០": 6261,
      "onia": 6262,
      "aul": 6263,
      "ដៃគូរ": 6264,
      "hoàng": 6265,
      "Cuu": 6266,
      "Pan": 6267,
      "lề": 6268,
      "Đắk": 6269,
      "đắc": 6270,
      "ចំណាក": 6271,
      "សមាជ": 6272,
      "top": 6273,
      "សមត្ថកិច្ច": 6274,
      "CLM": 6275,
      "ផ្ដុំ": 6276,
      "ផ្ដាច់": 6277,
      "សក្ដ": 6278,
      "85": 6279,
      "ចង្": 6280,
      "សេត": 6281,
      "អាហារូប": 6282,
      "Olymp": 6283,
      "Wal": 6284,
      "sụt": 6285,
      "Đường": 6286,
      "មោទ": 6287,
      "ឥស្លាម": 6288,
      "Cuong": 6289,
      "Joe": 6290,
      "Mối": 6291,
      "Sai": 6292,
      "báu": 6293,
      "ico": 6294,
      "ប្រឹក្ស": 6295,
      "កាណាដា": 6296,
      "ចំណាកស្រុក": 6297,
      "bách": 6298,
      "Đa": 6299,
      "Động": 6300,
      "ជំព": 6301,
      "ដុះ": 6302,
      "ម៉ឺង": 6303,
      "ឆ្នេរសមុទ្រ": 6304,
      "សេតវិមាន": 6305,
      "Hang": 6306,
      "Ky": 6307,
      "Tùng": 6308,
      "ប៊ី": 6309,
      "Vie": 6310,
      "សុខុម": 6311,
      "Jerus": 6312,
      "For": 6313,
      "UP": 6314,
      "Xô": 6315,
      "ដាណ": 6316,
      "អស្ថិរភាព": 6317,
      "ការស្រុះ": 6318,
      "Nguồn": 6319,
      "Phùng": 6320,
      "Thủy": 6321,
      "រូបិយប័ណ្ណ": 6322,
      "95": 6323,
      "Bệnh": 6324,
      "Nó": 6325,
      "bám": 6326,
      "គម្ល": 6327,
      "gián": 6328,
      "អភិរក្ស": 6329,
      "បន្តិច": 6330,
      "វ៉ាន់": 6331,
      "Sudan": 6332,
      "Jae": 6333,
      "ក្រហម": 6334,
      "តេ": 6335,
      "thô": 6336,
      "ការខូចខាត": 6337,
      "ondon": 6338,
      "២០១០": 6339,
      "ចរាចរណ៍": 6340,
      "Nghĩa": 6341,
      "ការប្រលង": 6342,
      "And": 6343,
      "atar": 6344,
      "dày": 6345,
      "đế": 6346,
      "ឡាន": 6347,
      "ការផ្សព្វផ្សាយ": 6348,
      "ana": 6349,
      "Khanh": 6350,
      "អ៊ិនធ": 6351,
      "គម្លាត": 6352,
      "ថោក": 6353,
      "ការផ្គត់ផ្គង់": 6354,
      "Jerusalem": 6355,
      "Bor": 6356,
      "tor": 6357,
      "វិញ្ញា": 6358,
      "ក្រុមប្រឹក្ស": 6359,
      "បោះពុ": 6360,
      "អ៊ិនធឺ": 6361,
      "Geneva": 6362,
      "niêm": 6363,
      "quên": 6364,
      "ការចាប់ផ្តើម": 6365,
      "Xuất": 6366,
      "ហិក": 6367,
      "Chia": 6368,
      "បង្ហោះ": 6369,
      "ត្បិត": 6370,
      "គួរអោយ": 6371,
      "ច្រកទ្វារ": 6372,
      "វេជ្ជសាស្ត្រ": 6373,
      "សណ្តាប់": 6374,
      "ស្បៀងអាហារ": 6375,
      "កិត្តិ": 6376,
      "Bulgar": 6377,
      "វិញ្ញាបន": 6378,
      "ហិកតា": 6379,
      "SG": 6380,
      "កញ្ញា": 6381,
      "ras": 6382,
      "dech": 6383,
      "Samdech": 6384,
      "អ៊ីនធឺណិត": 6385,
      "63": 6386,
      "បានជា": 6387,
      "មាន់": 6388,
      "សហជីព": 6389,
      "អនុគ្រោះ": 6390,
      "ស្ទើរ": 6391,
      "សណ្តាប់ធ្នាប់": 6392,
      "Bulgaria": 6393,
      "kèm": 6394,
      "thôi": 6395,
      "phường": 6396,
      "របត់": 6397,
      "Hình": 6398,
      "Sĩ": 6399,
      "sắt": 6400,
      "ũa": 6401,
      "ក្រឹត": 6402,
      "មកវិញ": 6403,
      "ផ្សារភ្ជាប់": 6404,
      "វេទិ": 6405,
      "ចែកចាយ": 6406,
      "លំនៅ": 6407,
      "Catalonia": 6408,
      "សេសសល់": 6409,
      "សុខុមាលភាព": 6410,
      "Qatar": 6411,
      "bữa": 6412,
      "ដៀង": 6413,
      "មាត់": 6414,
      "ឡារ": 6415,
      "ការពិភាក្សា": 6416,
      "ស្រដៀង": 6417,
      "loạn": 6418,
      "APPF": 6419,
      "យោគយល់": 6420,
      "កិត្តិយស": 6421,
      "fi": 6422,
      "ណេ": 6423,
      "khoan": 6424,
      "បំបែក": 6425,
      "ម៉េច": 6426,
      "បន្តឹង": 6427,
      "សម្បូ": 6428,
      "ប្រឆាំងជំទាស់": 6429,
      "ណែត": 6430,
      "ផ្អាក": 6431,
      "សម្លាប់": 6432,
      "ហ្សង់": 6433,
      "ប្រហែលជា": 6434,
      "ខ្ពង់រាប": 6435,
      "ប្រដាប់អាវុធ": 6436,
      "សន្លឹក": 6437,
      "Fed": 6438,
      "bây": 6439,
      "bão": 6440,
      "rao": 6441,
      "đốt": 6442,
      "Phuong": 6443,
      "ការអនុវត្តន៍": 6444,
      "MB": 6445,
      "Trinh": 6446,
      "គ្រី": 6447,
      "រួល": 6448,
      "ហូឡង់": 6449,
      "ពន្លឿន": 6450,
      "សតិអារម្មណ៍": 6451,
      "ម៉ឺងម៉ាត់": 6452,
      "44": 6453,
      "mạo": 6454,
      "ệ": 6455,
      "thắn": 6456,
      "ការសម្រេច": 6457,
      "ការស្ទង់": 6458,
      "giam": 6459,
      "Thiện": 6460,
      "ស្រាប់": 6461,
      "Loan": 6462,
      "Bạn": 6463,
      "BID": 6464,
      "London": 6465,
      "Nền": 6466,
      "Nâng": 6467,
      "bắc": 6468,
      "gay": 6469,
      "hẹn": 6470,
      "ចាក់": 6471,
      "trục": 6472,
      "ការជឿ": 6473,
      "Johnson": 6474,
      "Castro": 6475,
      "Ly": 6476,
      "dâng": 6477,
      "សាម": 6478,
      "ូត": 6479,
      "Trịnh": 6480,
      "Thang": 6481,
      "អំពើហឹង្សា": 6482,
      "Netan": 6483,
      "បាតុកម្ម": 6484,
      "gistics": 6485,
      "Bước": 6486,
      "Shi": 6487,
      "mái": 6488,
      "ពក": 6489,
      "រាង": 6490,
      "អចិន": 6491,
      "chứa": 6492,
      "ាស្រ្ត": 6493,
      "សារាចរ": 6494,
      "តំណាងរ": 6495,
      "ស្ម័គ្រ": 6496,
      "sợ": 6497,
      "ខ្យ": 6498,
      "គរ": 6499,
      "ភ័": 6500,
      "ម្ព": 6501,
      "BRI": 6502,
      "ស្នេហា": 6503,
      "មោទនភាព": 6504,
      "អចិន្រ្ត": 6505,
      "39": 6506,
      "FP": 6507,
      "Ku": 6508,
      "Lạng": 6509,
      "đũa": 6510,
      "កុង": 6511,
      "សុន": 6512,
      "ប្រារ": 6513,
      "ពុទ្ធ": 6514,
      "1995": 6515,
      "Tau": 6516,
      "gắt": 6517,
      "ឈាម": 6518,
      "វៃ": 6519,
      "ោជន": 6520,
      "ប្រទះ": 6521,
      "យ៉ាងម៉េច": 6522,
      "សឹង្ហបុរី": 6523,
      "Netanya": 6524,
      "Kur": 6525,
      "លាត": 6526,
      "try": 6527,
      "ការណែនាំ": 6528,
      "ដែក": 6529,
      "ASOS": 6530,
      "ជ្រើសតាំង": 6531,
      "ASOSAI": 6532,
      "loài": 6533,
      "điển": 6534,
      "ព្ធ": 6535,
      "chảy": 6536,
      "និពន្ធ": 6537,
      "họa": 6538,
      "បន្ធ": 6539,
      "Hue": 6540,
      "កែលំអ": 6541,
      "54": 6542,
      "Vung": 6543,
      "cậu": 6544,
      "កង្វ": 6545,
      "ភោជន": 6546,
      "ិ៍": 6547,
      "tràn": 6548,
      "Nghi": 6549,
      "Dien": 6550,
      "រាជា": 6551,
      "Francoi": 6552,
      "បឋមសិក្សា": 6553,
      "Er": 6554,
      "yết": 6555,
      "ỡi": 6556,
      "trà": 6557,
      "khô": 6558,
      "khánh": 6559,
      "NQ": 6560,
      "ជួញដូរ": 6561,
      "ហ៍": 6562,
      "cháy": 6563,
      "pha": 6564,
      "រួមបញ្ចូល": 6565,
      "ផ្ទៀង": 6566,
      "ឆ្លាត": 6567,
      "EL": 6568,
      "បក្ខជន": 6569,
      "ប្រណាំង": 6570,
      "ជាមុន": 6571,
      "សម័យកាល": 6572,
      "ថវិការ": 6573,
      "05": 6574,
      "long": 6575,
      "ជែក": 6576,
      "័ន្ទ": 6577,
      "៣៦": 6578,
      "៥៥": 6579,
      "ទាំង២": 6580,
      "តួច": 6581,
      "ីយដ្ឋាន": 6582,
      "Lib": 6583,
      "BRICS": 6584,
      "El": 6585,
      "bù": 6586,
      "kiểu": 6587,
      "́i": 6588,
      "ូឡូ": 6589,
      "nhãn": 6590,
      "Thậm": 6591,
      "ាចក្រ": 6592,
      "ពាណិជ្ជសញ្ញា": 6593,
      "toả": 6594,
      "គាំពារ": 6595,
      "តិចតួច": 6596,
      "Migu": 6597,
      "dịu": 6598,
      "Miguel": 6599,
      "Kỹ": 6600,
      "nhậm": 6601,
      "Thuy": 6602,
      "Thảo": 6603,
      "របែប": 6604,
      "វឌ្ឍន៍": 6605,
      "ទុក្ខ": 6606,
      "CoV": 6607,
      "Hungary": 6608,
      "បណ្ដាញ": 6609,
      "Thoả": 6610,
      "ហ្មត់ចត់": 6611,
      "ពឹងផ្អែក": 6612,
      "សម្បូរបែប": 6613,
      "ភោជនីយដ្ឋាន": 6614,
      "Hỗ": 6615,
      "NT": 6616,
      "Năng": 6617,
      "ưỡi": 6618,
      "ដណ្ត": 6619,
      "ីយ៍": 6620,
      "Ngữ": 6621,
      "េស្": 6622,
      "Phần": 6623,
      "អ្នកនាំ": 6624,
      "រណេត": 6625,
      "សេចក្ដីថ្លែងការណ៍": 6626,
      "Kho": 6627,
      "lỏng": 6628,
      "m2": 6629,
      "ស្នា": 6630,
      "ម្ដង": 6631,
      "កិច្ចពិភាក្សា": 6632,
      "ស្ដ": 6633,
      "est": 6634,
      "មុននឹង": 6635,
      "ឈានចូល": 6636,
      "Petro": 6637,
      "ការព្យាករណ៍": 6638,
      "Ireland": 6639,
      "hằng": 6640,
      "las": 6641,
      "tân": 6642,
      "Địa": 6643,
      "គន្ល": 6644,
      "នៈ": 6645,
      "ការកែទម្រង់": 6646,
      "Chile": 6647,
      "អាហ្សង់": 6648,
      "ចំណាប់": 6649,
      "eter": 6650,
      "ស្ថានីយ៍": 6651,
      "សំរេចចិត្ត": 6652,
      "សិល្បៈ": 6653,
      "វេទិការ": 6654,
      "dám": 6655,
      "នំ": 6656,
      "យី": 6657,
      "trùng": 6658,
      "ណ្ដ": 6659,
      "cua": 6660,
      "បរមា": 6661,
      "Mauri": 6662,
      "Francois": 6663,
      "ស្នាដៃ": 6664,
      "Tô": 6665,
      "úy": 6666,
      "ហាក់": 6667,
      "ឧទ": 6668,
      "ចូលមក": 6669,
      "ផ្សំ": 6670,
      "Mike": 6671,
      "Netanyahu": 6672,
      "Libya": 6673,
      "Toà": 6674,
      "ger": 6675,
      "មត្ត": 6676,
      "khổng": 6677,
      "នៅសល់": 6678,
      "កម្មាធិការ": 6679,
      "ក្រតី": 6680,
      "ទី៣": 6681,
      "បំផុស": 6682,
      "Mark": 6683,
      "ចម្ងាយ": 6684,
      "ស្បែកជើង": 6685,
      "ស្ម័គ្រចិត្ត": 6686,
      "អចិន្រ្តៃយ៍": 6687,
      "សុន្ទ": 6688,
      "51": 6689,
      "Nước": 6690,
      "ខ្ទ": 6691,
      "ណាចក្រ": 6692,
      "ther": 6693,
      "ទីស្នាក់": 6694,
      "ហើយក៏": 6695,
      "liv": 6696,
      "ប្លែក": 6697,
      "lồ": 6698,
      "Úc": 6699,
      "́n": 6700,
      "ឈ្ល": 6701,
      "វារ": 6702,
      "nhạc": 6703,
      "ការបង្ការ": 6704,
      "Ngành": 6705,
      "តែងតាំង": 6706,
      "ប្រមូលផ្ដុំ": 6707,
      "CLMV": 6708,
      "Han": 6709,
      "blog": 6710,
      "lầm": 6711,
      "sh": 6712,
      "ទិត": 6713,
      "រុប": 6714,
      "ការឆ្លើយតប": 6715,
      "Giới": 6716,
      "គ្រោះអាសន្ន": 6717,
      "រុក្ខ": 6718,
      "សុន្ទរកថា": 6719,
      "gũi": 6720,
      "tắt": 6721,
      "ទង្វ": 6722,
      "រិះគន់": 6723,
      "សួន": 6724,
      "ុងប្រយ័ត្ន": 6725,
      "Latinh": 6726,
      "Canel": 6727,
      "ព្រះរាជា": 6728,
      "យានដ្ឋាន": 6729,
      "អាហ្សង់ទីន": 6730,
      "ទិតៀន": 6731,
      "Hậu": 6732,
      "mưa": 6733,
      "Đội": 6734,
      "គោក": 6735,
      "ជាប្រចាំ": 6736,
      "Thien": 6737,
      "សង្ស": 6738,
      "Arabia": 6739,
      "Jean": 6740,
      "មត្តេយ្យ": 6741,
      "CT": 6742,
      "Hầu": 6743,
      "Đất": 6744,
      "ចេះ": 6745,
      "ការជឿទុកចិត្ត": 6746,
      "vời": 6747,
      "ឆមាស": 6748,
      "ការពិនិត្យ": 6749,
      "និវត្តន៍": 6750,
      "គ្រា": 6751,
      "កំណាត់": 6752,
      "សន្ទុះ": 6753,
      "lines": 6754,
      "២០០៩": 6755,
      "ស្ទួយ": 6756,
      "42": 6757,
      "Danh": 6758,
      "Đẩy": 6759,
      "កក": 6760,
      "ស្គូ": 6761,
      "ប្ដា": 6762,
      "Huệ": 6763,
      "ហ្គានីស្ថាន": 6764,
      "ARF": 6765,
      "56": 6766,
      "Mex": 6767,
      "Xi": 6768,
      "mỹ": 6769,
      "nỗi": 6770,
      "rin": 6771,
      "ើក": 6772,
      "ទស្សនវិស័យ": 6773,
      "Nghe": 6774,
      "អ៊ឺរ៉": 6775,
      "land": 6776,
      "ហោច": 6777,
      "Mexico": 6778,
      "Dmi": 6779,
      "Nor": 6780,
      "ON": 6781,
      "Sal": 6782,
      "bai": 6783,
      "៧៥": 6784,
      "អភិបាល": 6785,
      "សារធាតុ": 6786,
      "ari": 6787,
      "បុត្រ": 6788,
      "របៀបវារ": 6789,
      "អធិបតី": 6790,
      "អ៊ិនធរណេត": 6791,
      "ដណ្តើម": 6792,
      "ទីស្នាក់ការ": 6793,
      "Tâm": 6794,
      "dược": 6795,
      "រចនា": 6796,
      "សប្ដា": 6797,
      "Phụ": 6798,
      "cus": 6799,
      "លើកស្ទួយ": 6800,
      "emen": 6801,
      "កំឡុង": 6802,
      "គណនា": 6803,
      "មេដាយ": 6804,
      "អាកាសយានដ្ឋាន": 6805,
      "សម្ព័ន្ធភាព": 6806,
      "គតិយុត្តិ": 6807,
      "យីហោ": 6808,
      "សង្ស័យ": 6809,
      "bảy": 6810,
      "dồi": 6811,
      "móc": 6812,
      "ធុន": 6813,
      "que": 6814,
      "ania": 6815,
      "Trụ": 6816,
      "សេវា": 6817,
      "ទង្វើ": 6818,
      "120": 6819,
      "53": 6820,
      "JCP": 6821,
      "ទាប់": 6822,
      "មង្គ": 6823,
      "cuốn": 6824,
      "បណ្តឹង": 6825,
      "Khách": 6826,
      "ជួបប្រទះ": 6827,
      "គណនី": 6828,
      "Huynh": 6829,
      "មេរោគ": 6830,
      "ព្រះរាជាណាចក្រ": 6831,
      "JCPOA": 6832,
      "Bách": 6833,
      "Hiển": 6834,
      "បណ្តោះ": 6835,
      "ទ្រឹ": 6836,
      "chuộng": 6837,
      "កត់ត្រា": 6838,
      "77": 6839,
      "EP": 6840,
      "ផ្ទុក": 6841,
      "rov": 6842,
      "Italy": 6843,
      "អាហារូបករណ៍": 6844,
      "Vov": 6845,
      "cio": 6846,
      "ប្រលង": 6847,
      "ចូលចិត្ត": 6848,
      "រីឯ": 6849,
      "សម្ដៅ": 6850,
      "វិធីសាស្ត្រ": 6851,
      "ប៉ាន់ស្មាន": 6852,
      "រស់រវ": 6853,
      "Olympic": 6854,
      "SGK": 6855,
      "Has": 6856,
      "Mạch": 6857,
      "NH": 6858,
      "Peter": 6859,
      "rác": 6860,
      "រោគ": 6861,
      "ambi": 6862,
      "Quá": 6863,
      "អ្នកវិទ្យាសាស្ត្រ": 6864,
      "វិទ្យុ": 6865,
      "សុពល": 6866,
      "ែលហ្ស": 6867,
      "ជូនដំណឹង": 6868,
      "Airlines": 6869,
      "អ្នកនាំពាក្យ": 6870,
      "canh": 6871,
      "for": 6872,
      "Đúng": 6873,
      "ដាង": 6874,
      "តួរ": 6875,
      "ngọt": 6876,
      "ស្រទាប់": 6877,
      "អាជីវ": 6878,
      "យ៉ាងហោច": 6879,
      "ពលំ": 6880,
      "វប្បធម៍": 6881,
      "យន្តការសហប្រតិបត្តិការ": 6882,
      "Kiev": 6883,
      "BIDV": 6884,
      "Dmitry": 6885,
      "មង្គល": 6886,
      "88": 6887,
      "Câu": 6888,
      "Hướng": 6889,
      "Sư": 6890,
      "gánh": 6891,
      "tung": 6892,
      "̀n": 6893,
      "ngầm": 6894,
      "nhánh": 6895,
      "កិច្ចការពារ": 6896,
      "ដាក់ពង្រាយ": 6897,
      "សុភ": 6898,
      "ប្រារព្ធ": 6899,
      "Kurd": 6900,
      "AL": 6901,
      "Manh": 6902,
      "lau": 6903,
      "ner": 6904,
      "sáp": 6905,
      "tạc": 6906,
      "ចៅ": 6907,
      "នាំឱ្យ": 6908,
      "ឱ្យដឹង": 6909,
      "Khắc": 6910,
      "Viettel": 6911,
      "គីឡូម៉ែត្រ": 6912,
      "តំណាងរាស្ត្រ": 6913,
      "បណ្តោះអាសន្ន": 6914,
      "សុពលភាព": 6915,
      "Ria": 6916,
      "Tín": 6917,
      "vang": 6918,
      "Đan": 6919,
      "ញាប់": 6920,
      "ណភាព": 6921,
      "នរណា": 6922,
      "than": 6923,
      "ការតាំង": 6924,
      "្លាយ": 6925,
      "សមូ": 6926,
      "ការពង្រីក": 6927,
      "ពេញចិត្ត": 6928,
      "ដូច្នោះ": 6929,
      "Italia": 6930,
      "ស្រស់ស្អាត": 6931,
      "សប្ដាហ៍": 6932,
      "Be": 6933,
      "gọn": 6934,
      "ឆែក": 6935,
      "ẫm": 6936,
      "Trao": 6937,
      "Thong": 6938,
      "ស្រាល": 6939,
      "sul": 6940,
      "វត្ថុធាតុ": 6941,
      "ខ្មៅ": 6942,
      "ស្អិត": 6943,
      "Vietin": 6944,
      "ហាក់ដូចជា": 6945,
      "អ៊ឺរ៉ុប": 6946,
      "era": 6947,
      "đốn": 6948,
      "̀u": 6949,
      "ការចាប់អារម្មណ៍": 6950,
      "លើយ": 6951,
      "ឧស្សា": 6952,
      "Alex": 6953,
      "បន្លែ": 6954,
      "អេក": 6955,
      "ត្រដាង": 6956,
      "សម្តេច": 6957,
      "សប្បាយរីករាយ": 6958,
      "រឹតបន្តឹង": 6959,
      "របៀបវារៈ": 6960,
      "សមូហភាព": 6961,
      "Dưới": 6962,
      "Hôm": 6963,
      "Yemen": 6964,
      "Tre": 6965,
      "Trà": 6966,
      "ទិដ្ឋភាព": 6967,
      "យ៉ាងហោចណាស់": 6968,
      "Tĩnh": 6969,
      "kia": 6970,
      "តោ": 6971,
      "ឺន": 6972,
      "phu": 6973,
      "ការបញ្ចប់": 6974,
      "Cha": 6975,
      "ទេពក": 6976,
      "lah": 6977,
      "អាណិក": 6978,
      "ក្រឹត្យ": 6979,
      "ស្នេហាជាតិ": 6980,
      "ចំណាប់អារម្មណ៍": 6981,
      "sổ": 6982,
      "ប្រក្រតី": 6983,
      "lus": 6984,
      "Mario": 6985,
      "ព្រឹទ្ធសភា": 6986,
      "Dao": 6987,
      "IL": 6988,
      "TX": 6989,
      "eh": 6990,
      "nhạy": 6991,
      "nhựa": 6992,
      "trông": 6993,
      "ការផលិត": 6994,
      "ជាធម្មតា": 6995,
      "Phóng": 6996,
      "huỷ": 6997,
      "kara": 6998,
      "Por": 6999,
      "ê": 7000,
      "ìa": 7001,
      "សច្ច": 7002,
      "thép": 7003,
      "ការប្រកួត": 7004,
      "ការថែរក្សា": 7005,
      "ជាសារ": 7006,
      "ស្ទីន": 7007,
      "គ្របដ": 7008,
      "សម្ភា": 7009,
      "គុណសម្បត្តិ": 7010,
      "កាំភ្លើង": 7011,
      "សុភមង្គល": 7012,
      "ទេពកោសល្យ": 7013,
      "Hill": 7014,
      "Vai": 7015,
      "jan": 7016,
      "pa": 7017,
      "អាក": 7018,
      "tròn": 7019,
      "តិក": 7020,
      "ឆ្នើម": 7021,
      "មនុស្សធម៌": 7022,
      "សហគ្រិន": 7023,
      "ការរំពឹង": 7024,
      "Pra": 7025,
      "Ru": 7026,
      "ការស្វែងរក": 7027,
      "eron": 7028,
      "Ankara": 7029,
      "thoáng": 7030,
      "azon": 7031,
      "បងប្អូន": 7032,
      "thơm": 7033,
      "Amazon": 7034,
      "ឧក្រិដ្ឋកម្ម": 7035,
      "EAS": 7036,
      "Lang": 7037,
      "Pi": 7038,
      "Sho": 7039,
      "aw": 7040,
      "kov": 7041,
      "tị": 7042,
      "កេរ": 7043,
      "Trái": 7044,
      "ប្រតិភ": 7045,
      "ទឹកដោះ": 7046,
      "2005": 7047,
      "មហិ": 7048,
      "67": 7049,
      "QH": 7050,
      "khái": 7051,
      "ប្រជាមតិ": 7052,
      "ជ្រៀត": 7053,
      "hỗn": 7054,
      "អឺរ៉ូ": 7055,
      "តិកភ": 7056,
      "Hoàn": 7057,
      "Đạt": 7058,
      "ឱស": 7059,
      "ភាពខុសគ្នា": 7060,
      "១៩៦": 7061,
      "អ៊ីស្លាម": 7062,
      "បេតិកភ": 7063,
      "ទូរគមនាគមន៍": 7064,
      "ស្ទើរតែ": 7065,
      "Căng": 7066,
      "zambi": 7067,
      "đam": 7068,
      "គំន": 7069,
      "វណ្": 7070,
      "nhắn": 7071,
      "ការបន្ត": 7072,
      "tim": 7073,
      "ting": 7074,
      "តាមពិត": 7075,
      "ជូនពរ": 7076,
      "គីម": 7077,
      "Mozambi": 7078,
      "កក់ក្តៅ": 7079,
      "ប្រតិភូវៀត": 7080,
      "វណ្ណៈ": 7081,
      "97": 7082,
      "Mas": 7083,
      "nới": 7084,
      "rửa": 7085,
      "រិយា": 7086,
      "អ័រ": 7087,
      "Chan": 7088,
      "ជ្រួច": 7089,
      "ហូបនីយកម្ម": 7090,
      "duro": 7091,
      "ស្នើរ": 7092,
      "ចម្លើយ": 7093,
      "លុបបំបាត់": 7094,
      "Macri": 7095,
      "គន្លឹះ": 7096,
      "58": 7097,
      "Mc": 7098,
      "cắm": 7099,
      "ll": 7100,
      "lậu": 7101,
      "rim": 7102,
      "xá": 7103,
      "កិរ": 7104,
      "សិប": 7105,
      "វិទ្យាសាស្រ្ត": 7106,
      "សន្និដ្ឋាន": 7107,
      "Yong": 7108,
      "nồng": 7109,
      "Điển": 7110,
      "កក្កដា": 7111,
      "ភស្តុតាង": 7112,
      "ា៍": 7113,
      "giàn": 7114,
      "ភាពជោគជ័យ": 7115,
      "ដូង": 7116,
      "សំបុត្រ": 7117,
      "សិស្សានុ": 7118,
      "រូបិយវត្ថុ": 7119,
      "អាជីវករ": 7120,
      "ប្រតិភូវៀតណាម": 7121,
      "កិរិយា": 7122,
      "Del": 7123,
      "Mat": 7124,
      "OM": 7125,
      "nấu": 7126,
      "ទ័រ": 7127,
      "៊ុយ": 7128,
      "Thiếu": 7129,
      "ន្តរាយ": 7130,
      "មហន្តរាយ": 7131,
      "Lav": 7132,
      "vua": 7133,
      "ប៉ាឡេ": 7134,
      "ខ្យល់": 7135,
      "សិស្សានុសិស្ស": 7136,
      "EVN": 7137,
      "IEL": 7138,
      "xưng": 7139,
      "កោ": 7140,
      "គុក": 7141,
      "ឹន": 7142,
      "trội": 7143,
      "enko": 7144,
      "ែក្លាយ": 7145,
      "មហាជន": 7146,
      "Shang": 7147,
      "គតិយុត្ត": 7148,
      "អធិការកិច្ច": 7149,
      "រមួត": 7150,
      "ក្លែងក្លាយ": 7151,
      "ក្រុមប្រឹក្សាភិបាល": 7152,
      "អ័រគី": 7153,
      "IELTS": 7154,
      "Lắk": 7155,
      "Mon": 7156,
      "Ya": 7157,
      "túi": 7158,
      "ẫy": 7159,
      "che": 7160,
      "giết": 7161,
      "េស្ទី": 7162,
      "hoạ": 7163,
      "giáp": 7164,
      "ដាំដុះ": 7165,
      "ចង្អ": 7166,
      "រស់រវើក": 7167,
      "េស្ទីន": 7168,
      "Cái": 7169,
      "Cap": 7170,
      "đập": 7171,
      "đán": 7172,
      "ការអនុម័ត": 7173,
      "ខាងក្រោម": 7174,
      "ព័ន": 7175,
      "ដាក់ពាក្យ": 7176,
      "ការធ្វើដំណើរ": 7177,
      "Mosul": 7178,
      "កែតម្រូវ": 7179,
      "រំពឹងទុក": 7180,
      "ការរំពឹងទុក": 7181,
      "UAE": 7182,
      "កង់": 7183,
      "cơm": 7184,
      "Cameron": 7185,
      "ជើងហោះហើរ": 7186,
      "កំហិត": 7187,
      "Morsi": 7188,
      "bếp": 7189,
      "car": 7190,
      "ចន្ល": 7191,
      "quát": 7192,
      "ការប្រកាស": 7193,
      "Tra": 7194,
      "របួស": 7195,
      "ប្រជាកសិករ": 7196,
      "ប្ដ": 7197,
      "ព្រោះថា": 7198,
      "អ៊ីនធឺណែត": 7199,
      "UPR": 7200,
      "Lavrov": 7201,
      "ចន្លោះ": 7202,
      "sót": 7203,
      "uel": 7204,
      "ឡាញ": 7205,
      "ម្យ៉ាង": 7206,
      "coron": 7207,
      "សម្ដែង": 7208,
      "huyết": 7209,
      "uss": 7210,
      "corona": 7211,
      "Loc": 7212,
      "WB": 7213,
      "tám": 7214,
      "ការបាញ់": 7215,
      "ការផ្ទេរ": 7216,
      "ប្រៃ": 7217,
      "Tháp": 7218,
      "បំរួល": 7219,
      "មុខតំណែង": 7220,
      "សុក្រ": 7221,
      "Haiy": 7222,
      "វិធានការណ៍": 7223,
      "Maduro": 7224,
      "២០០៨": 7225,
      "Erdo": 7226,
      "ឧស្សាហូបនីយកម្ម": 7227,
      "68": 7228,
      "Hiếu": 7229,
      "៥ឆ្នាំ": 7230,
      "សញ្ញាបត្រ": 7231,
      "វិលត្រឡប់មក": 7232,
      "ប៉ាឡេស្ទីន": 7233,
      "VCCI": 7234,
      "ឱសថ": 7235,
      "Ad": 7236,
      "Cảng": 7237,
      "Sản": 7238,
      "trứng": 7239,
      "២០០០": 7240,
      "សារសំខាន់": 7241,
      "Phuoc": 7242,
      "Modi": 7243,
      "វ៉ាក់": 7244,
      "Hamas": 7245,
      "សម្ភាស": 7246,
      "អ័រគីដេ": 7247,
      "03": 7248,
      "TM": 7249,
      "cẩn": 7250,
      "vắc": 7251,
      "តូ": 7252,
      "ទៀង": 7253,
      "Chưa": 7254,
      "thua": 7255,
      "បង្កឡើង": 7256,
      "ក្រុមការងារ": 7257,
      "Anton": 7258,
      "ស្នើឲ្យ": 7259,
      "ថ្នាំ": 7260,
      "Erdogan": 7261,
      "cúng": 7262,
      "វន្ត": 7263,
      "ការអញ្ជើញ": 7264,
      "ម្យ": 7265,
      "Chinh": 7266,
      "Phải": 7267,
      "hoại": 7268,
      "đoạt": 7269,
      "logistics": 7270,
      "ការរិះគន់": 7271,
      "ចំហរ": 7272,
      "Shangri": 7273,
      "ប្ដេជ្ញ": 7274,
      "វ៉ាក់សាំង": 7275,
      "Cải": 7276,
      "You": 7277,
      "lận": 7278,
      "po": 7279,
      "ធ្ម": 7280,
      "សសរ": 7281,
      "ការរៀនសូត្រ": 7282,
      "ជាសាធារណៈ": 7283,
      "amin": 7284,
      "ប៉ារី": 7285,
      "សិប្ប": 7286,
      "ខ្លាច": 7287,
      "អ្នកណា": 7288,
      "Ving": 7289,
      "បម្រុង": 7290,
      "បូរណភាព": 7291,
      "Guter": 7292,
      "moon": 7293,
      "Cor": 7294,
      "pe": 7295,
      "ray": 7296,
      "ver": 7297,
      "ជុល": 7298,
      "ប្រែក្លាយ": 7299,
      "ផ្កាយ": 7300,
      "បន្លំ": 7301,
      "Macron": 7302,
      "ប៉ារីស": 7303,
      "250": 7304,
      "sâm": 7305,
      "star": 7306,
      "ដេរ": 7307,
      "ទង់": 7308,
      "ốp": 7309,
      "ការទូទាត់": 7310,
      "Phía": 7311,
      "els": 7312,
      "ផលិតភាព": 7313,
      "2001": 7314,
      "លេខាធិការដ្ឋាន": 7315,
      "បូជា": 7316,
      "ៀកបំពាក់": 7317,
      "Vingroup": 7318,
      "Reu": 7319,
      "dào": 7320,
      "នគ": 7321,
      "ngập": 7322,
      "thăng": 7323,
      "ការចែករំលែក": 7324,
      "khoáng": 7325,
      "អាចនឹង": 7326,
      "យកមក": 7327,
      "Azer": 7328,
      "ទឹកដោះគោ": 7329,
      "Bar": 7330,
      "tá": 7331,
      "giãn": 7332,
      "ចំណី": 7333,
      "nhiêu": 7334,
      "ប្រាជ្ញ": 7335,
      "Hassan": 7336,
      "Pen": 7337,
      "2022": 7338,
      "អភិវឌ្": 7339,
      "ស្វាយ": 7340,
      "ឌីត": 7341,
      "កំហុស": 7342,
      "ស្ងួត": 7343,
      "ពន្យល់": 7344,
      "62": 7345,
      "PD": 7346,
      "Yo": 7347,
      "ft": 7348,
      "ten": 7349,
      "wit": 7350,
      "Đã": 7351,
      "Ứng": 7352,
      "ក្រឡ": 7353,
      "Viễn": 7354,
      "អាជ្ញា": 7355,
      "បញ្ចេញមតិ": 7356,
      "baijan": 7357,
      "Azerbaijan": 7358,
      "Độc": 7359,
      "៍មាន": 7360,
      "របាល": 7361,
      "ដំណែង": 7362,
      "ima": 7363,
      "cker": 7364,
      "ួសជុល": 7365,
      "Boe": 7366,
      "ពូកែ": 7367,
      "ដេអូ": 7368,
      "Damas": 7369,
      "Ge": 7370,
      "Min": 7371,
      "buồn": 7372,
      "mắn": 7373,
      "៣៤": 7374,
      "៦៥": 7375,
      "ការៈ": 7376,
      "ការធានារ៉ាប់រង": 7377,
      "ការចោទប្រកាន់": 7378,
      "ប្រាប់": 7379,
      "tiếc": 7380,
      "សំឡ": 7381,
      "វិស្វ": 7382,
      "ម្ភះ": 7383,
      "ការលុប": 7384,
      "អនឡាញ": 7385,
      "72": 7386,
      "Cựu": 7387,
      "Vận": 7388,
      "der": 7389,
      "hani": 7390,
      "vấp": 7391,
      "ភ្នែក": 7392,
      "ngõ": 7393,
      "ការគិត": 7394,
      "Nhiệm": 7395,
      "thuần": 7396,
      "អនុសាសន៍": 7397,
      "ដាច់ខាត": 7398,
      "Vovworld": 7399,
      "IV": 7400,
      "Tờ": 7401,
      "mỏi": 7402,
      "nắng": 7403,
      "xích": 7404,
      "ឈូង": 7405,
      "ន្យា": 7406,
      "រត់": 7407,
      "ស័": 7408,
      "chênh": 7409,
      "ការយោគយល់": 7410,
      "hoang": 7411,
      "tion": 7412,
      "ទៅវិញ": 7413,
      "សាច់ប្រាក់": 7414,
      "ព្រៃឈើ": 7415,
      "Kovid": 7416,
      "ទម្លាប់": 7417,
      "57": 7418,
      "nô": 7419,
      "vẽ": 7420,
      "ាករ": 7421,
      "ស្នាល": 7422,
      "eda": 7423,
      "វីដេអូ": 7424,
      "នគរបាល": 7425,
      "08": 7426,
      "900": 7427,
      "ST": 7428,
      "bri": 7429,
      "hô": 7430,
      "ជំរ": 7431,
      "យុគ": 7432,
      "video": 7433,
      "ast": 7434,
      "ព័ត៍មាន": 7435,
      "បូក": 7436,
      "បែកបាក់": 7437,
      "សមរម្យ": 7438,
      "ED": 7439,
      "cú": 7440,
      "les": 7441,
      "ze": 7442,
      "đền": 7443,
      "ត្": 7444,
      "បោក": 7445,
      "អន់": 7446,
      "phồn": 7447,
      "សមាស": 7448,
      "ខែមិនា": 7449,
      "អន្តរាគមន៍": 7450,
      "ជួយសង្គ្រោះ": 7451,
      "បដិស": 7452,
      "bert": 7453,
      "សច្ចា": 7454,
      "Guterres": 7455,
      "CB": 7456,
      "Khoảng": 7457,
      "Tác": 7458,
      "តារ": 7459,
      "chút": 7460,
      "thiêng": 7461,
      "កើតមាន": 7462,
      "PTNT": 7463,
      "បូកស": 7464,
      "សេចក្ដីព្រាង": 7465,
      "Vuong": 7466,
      "73": 7467,
      "Id": 7468,
      "Plus": 7469,
      "SAR": 7470,
      "អើ": 7471,
      "៣២": 7472,
      "trần": 7473,
      "សម្អាត": 7474,
      "យុគសម័យ": 7475,
      "Sri": 7476,
      "kín": 7477,
      "lưng": 7478,
      "móng": 7479,
      "៣៨": 7480,
      "trốn": 7481,
      "ការគំរាមកំហែង": 7482,
      "khúc": 7483,
      "លើង": 7484,
      "១៩៥": 7485,
      "lip": 7486,
      "HĐND": 7487,
      "រូបី": 7488,
      "Hãy": 7489,
      "App": 7490,
      "Geo": 7491,
      "fa": 7492,
      "gle": 7493,
      "ីភាព": 7494,
      "ការចាប់": 7495,
      "ការកែលម្អ": 7496,
      "ត្រាំ": 7497,
      "Phung": 7498,
      "អ្នកតំណាង": 7499,
      "ការប្រឈម": 7500,
      "បូកសរុប": 7501,
      "Jun": 7502,
      "cơn": 7503,
      "htt": 7504,
      "nia": 7505,
      "ិនិយម": 7506,
      "និម្ម": 7507,
      "ឯកតោ": 7508,
      "បោះបង់": 7509,
      "ប្បកិរិយា": 7510,
      "ទម្លាក់": 7511,
      "បន្សាំ": 7512,
      "បោះពុម្ព": 7513,
      "កង្វះ": 7514,
      "ទៀងទាត់": 7515,
      "Damascus": 7516,
      "http": 7517,
      "និម្មិត": 7518,
      "130": 7519,
      "64": 7520,
      "mũi": 7521,
      "គាំង": 7522,
      "ណ៏": 7523,
      "៣៧": 7524,
      "៤០០": 7525,
      "អ្នកនិពន្ធ": 7526,
      "Vinam": 7527,
      "ពន្លឺ": 7528,
      "បន្ធូ": 7529,
      "Nỗ": 7530,
      "QT": 7531,
      "bal": 7532,
      "កល": 7533,
      "ល្ម": 7534,
      "៤៦": 7535,
      "្តិ៍": 7536,
      "khiêu": 7537,
      "គណៈប្រតិភូវៀតណាម": 7538,
      "សាលក្រម": 7539,
      "Lee": 7540,
      "HO": 7541,
      "Kong": 7542,
      "cc": 7543,
      "dọc": 7544,
      "gei": 7545,
      "sánh": 7546,
      "អាណា": 7547,
      "រុស": 7548,
      "ចុះផ្សាយ": 7549,
      "usk": 7550,
      "ប្រព្រឹត្តិ": 7551,
      "Mauricio": 7552,
      "Cát": 7553,
      "HH": 7554,
      "Nói": 7555,
      "តវ៉ា": 7556,
      "អ្នកកាសែត": 7557,
      "Huân": 7558,
      "lib": 7559,
      "បញ្ជាការ": 7560,
      "oud": 7561,
      "Mali": 7562,
      "Arab": 7563,
      "សង្កេតការណ៍": 7564,
      "កេរ្តិ៍": 7565,
      "Mozambique": 7566,
      "CD": 7567,
      "Ci": 7568,
      "Pak": 7569,
      "hát": 7570,
      "chấn": 7571,
      "ការទទួលបាន": 7572,
      "già": 7573,
      "ជាយ": 7574,
      "Char": 7575,
      "oni": 7576,
      "បញ្ជ": 7577,
      "ក្តីសង្ឃឹម": 7578,
      "Hillary": 7579,
      "Bác": 7580,
      "Per": 7581,
      "né": 7582,
      "đẫm": 7583,
      "Thêm": 7584,
      "នៅក្រោម": 7585,
      "ការធ្វើឱ្យ": 7586,
      "ឃ្លាំង": 7587,
      "េដ្ឋី": 7588,
      "Sergei": 7589,
      "Geun": 7590,
      "SARS": 7591,
      "rối": 7592,
      "toà": 7593,
      "បត់": 7594,
      "មុទ្រ": 7595,
      "chùa": 7596,
      "ការរាតត្បាត": 7597,
      "កិច្ចចរចា": 7598,
      "មហាសេដ្ឋី": 7599,
      "បេឡារ": 7600,
      "ខ្មែរ": 7601,
      "សំឡេង": 7602,
      "ACM": 7603,
      "Goo": 7604,
      "Hạnh": 7605,
      "Lúc": 7606,
      "P5": 7607,
      "hái": 7608,
      "ភោគ": 7609,
      "រណៈ": 7610,
      "ngủ": 7611,
      "trôi": 7612,
      "ames": 7613,
      "end": 7614,
      "khuẩn": 7615,
      "យ៉ាវ": 7616,
      "ជ្រាប": 7617,
      "bas": 7618,
      "សុទិដ្ឋ": 7619,
      "CPP": 7620,
      "លំហូរ": 7621,
      "ក្រឡេក": 7622,
      "89": 7623,
      "BĐ": 7624,
      "Cà": 7625,
      "Cầu": 7626,
      "ៀបរ": 7627,
      "វិញ្ញ": 7628,
      "មូលធន": 7629,
      "កាត់ដេរ": 7630,
      "វិលត្រឡប់": 7631,
      "ទ្រឹស្តី": 7632,
      "ប្ដេជ្ញាចិត្ត": 7633,
      "Idlib": 7634,
      "Tel": 7635,
      "Uni": 7636,
      "by": 7637,
      "den": 7638,
      "̣i": 7639,
      "អូប": 7640,
      "អោន": 7641,
      "៤៨": 7642,
      "chạm": 7643,
      "ការត្រៀម": 7644,
      "ការលើកទឹកចិត្ត": 7645,
      "ស្រ្ត": 7646,
      "ពេលណា": 7647,
      "អ្នកដំណើរ": 7648,
      "ផែនការអភិវឌ្ឍន៍": 7649,
      "មហាសមុទ្រ": 7650,
      "mart": 7651,
      "វីរុស": 7652,
      "TNHH": 7653,
      "វិញ្ញាបនប័ត្រ": 7654,
      "ភ័ស្តុតាង": 7655,
      "Vinamilk": 7656,
      "Cong": 7657,
      "mảnh": 7658,
      "vải": 7659,
      "ចម្ល": 7660,
      "ល្ង": 7661,
      "សំន": 7662,
      "ិសម": 7663,
      "្ទេស": 7664,
      "trưa": 7665,
      "ការដឹកជញ្ជូន": 7666,
      "ការឃ្លាំមើល": 7667,
      "Thí": 7668,
      "ECS": 7669,
      "ជាប់គាំង": 7670,
      "ធិប្បាយ": 7671,
      "Lanka": 7672,
      "Thuỵ": 7673,
      "សេចក្ដីប្រកាស": 7674,
      "អតីតកាល": 7675,
      "CEO": 7676,
      "xoa": 7677,
      "ពានរង្វាន់": 7678,
      "Nico": 7679,
      "bot": 7680,
      "អេកូឡូ": 7681,
      "អាកប្បកិរិយា": 7682,
      "GMS": 7683,
      "PV": 7684,
      "SN": 7685,
      "shi": 7686,
      "zone": 7687,
      "ដុំ": 7688,
      "ភរិយា": 7689,
      "លប់": 7690,
      "Nhu": 7691,
      "បោះជំហាន": 7692,
      "ក្រោយមក": 7693,
      "ឆ្ងាញ់": 7694,
      "បន្សល់": 7695,
      "តម្លើង": 7696,
      "Bien": 7697,
      "Har": 7698,
      "OP": 7699,
      "jet": 7700,
      "vos": 7701,
      "za": 7702,
      "ក្វ": 7703,
      "បាំង": 7704,
      "សក្ខ": 7705,
      "ិល": 7706,
      "nho": 7707,
      "chel": 7708,
      "tha": 7709,
      "Chuy": 7710,
      "ិក្ខ": 7711,
      "Tum": 7712,
      "កែប្រែ": 7713,
      "Vietjet": 7714,
      "១៩៧៥": 7715,
      "សាមញ្ញ": 7716,
      "ត្ថា": 7717,
      "អេកូឡូស៊ី": 7718,
      "Căn": 7719,
      "miếng": 7720,
      "rg": 7721,
      "វរ": 7722,
      "៤៩": 7723,
      "ប្រពន្ធ": 7724,
      "និមិត្ត": 7725,
      "HĐQT": 7726,
      "Google": 7727,
      "FPT": 7728,
      "IAE": 7729,
      "dấy": 7730,
      "mòn": 7731,
      "ងាក": 7732,
      "ាត្រ": 7733,
      "៤១": 7734,
      "ការថយចុះ": 7735,
      "ស្ដាប់": 7736,
      "សម្បទ": 7737,
      "សំណាង": 7738,
      "ney": 7739,
      "ACMECS": 7740,
      "IAEA": 7741,
      "IN": 7742,
      "Jor": 7743,
      "Tú": 7744,
      "bơ": 7745,
      "mát": 7746,
      "ua": 7747,
      "wan": 7748,
      "តាក់": 7749,
      "លម្អ": 7750,
      "អត្ថា": 7751,
      "៣៣": 7752,
      "កម្មុយ": 7753,
      "អ្នកលក់": 7754,
      "បរិក្ខ": 7755,
      "បត្យ": 7756,
      "ters": 7757,
      "ស្ថាបត្យ": 7758,
      "Huaw": 7759,
      "CSVN": 7760,
      "រសជាតិ": 7761,
      "ប៊ិញ": 7762,
      "Huawei": 7763,
      "Ahm": 7764,
      "Bạc": 7765,
      "Crim": 7766,
      "dinh": 7767,
      "Đam": 7768,
      "អេស្": 7769,
      "៩៩": 7770,
      "ការខាតបង់": 7771,
      "ជាបន្ទាន់": 7772,
      "រប៉": 7773,
      "Ngãi": 7774,
      "សមាម": 7775,
      "Nhạ": 7776,
      "អន្តរប៉": 7777,
      "មហិច្ឆ": 7778,
      "វិញ្ញាស": 7779,
      "អេស្ប៉": 7780,
      "Bao": 7781,
      "Bến": 7782,
      "Hiền": 7783,
      "KH": 7784,
      "LC": 7785,
      "kì": 7786,
      "wai": 7787,
      "គគុក": 7788,
      "ឈឺ": 7789,
      "បួន": 7790,
      "ឹប": 7791,
      "ការប្រតិបត្តិ": 7792,
      "ការផ្តើម": 7793,
      "ការរំលោភ": 7794,
      "ការជះឥទ្ធិពល": 7795,
      "ការស៊ើបអង្កេត": 7796,
      "និមួយ": 7797,
      "Trả": 7798,
      "អាឡ": 7799,
      "បង្គោល": 7800,
      "Hoai": 7801,
      "ជំនួញ": 7802,
      "បរិភោគ": 7803,
      "Barak": 7804,
      "អត្ថាធិប្បាយ": 7805,
      "LDP": 7806,
      "jamin": 7807,
      "siết": 7808,
      "បែន": 7809,
      "អម": 7810,
      "khống": 7811,
      "ជ្រុល": 7812,
      "អង្គុយ": 7813,
      "ចុងបញ្ចប់": 7814,
      "អាទិត្យ": 7815,
      "បុព្វបទ": 7816,
      "Boeing": 7817,
      "សមាមាត្រ": 7818,
      "Cương": 7819,
      "Cro": 7820,
      "World": 7821,
      "bụng": 7822,
      "rệt": 7823,
      "đeo": 7824,
      "ជុង": 7825,
      "យថា": 7826,
      "៩៨": 7827,
      "nhở": 7828,
      "thầu": 7829,
      "ការយក": 7830,
      "ការបែងចែក": 7831,
      "នាំយក": 7832,
      "Bruss": 7833,
      "អូស្រ្ត": 7834,
      "ម៉ូស្គូ": 7835,
      "សុទិដ្ឋិនិយម": 7836,
      "អូស្រ្តាលី": 7837,
      "07": 7838,
      "Bá": 7839,
      "Blo": 7840,
      "CĐ": 7841,
      "ជួន": 7842,
      "បង្វ": 7843,
      "បង្កឱ្យ": 7844,
      "ជំនន់": 7845,
      "សំណុំ": 7846,
      "Cán": 7847,
      "Fin": 7848,
      "bề": 7849,
      "dốc": 7850,
      "̣t": 7851,
      "ដង់": 7852,
      "Chứng": 7853,
      "tour": 7854,
      "2003": 7855,
      "Thuan": 7856,
      "Huong": 7857,
      "ការទទួលស្គាល់": 7858,
      "ផ្ដួច": 7859,
      "សិទ្ឋ": 7860,
      "សុក្រិត": 7861,
      "អើពើ": 7862,
      "បត់បែន": 7863,
      "69": 7864,
      "Bầu": 7865,
      "Bill": 7866,
      "Hien": 7867,
      "JI": 7868,
      "dã": 7869,
      "lính": 7870,
      "men": 7871,
      "ww": 7872,
      "xướng": 7873,
      "ខុ": 7874,
      "thuyền": 7875,
      "trắc": 7876,
      "ការប្រជុំ": 7877,
      "ការសួរ": 7878,
      "ទំនៀម": 7879,
      "១៩៤៥": 7880,
      "ghép": 7881,
      "1994": 7882,
      "inea": 7883,
      "យឺតយ៉ាវ": 7884,
      "បន្សល់ទុក": 7885,
      "Es": 7886,
      "Rất": 7887,
      "Sch": 7888,
      "SOM": 7889,
      "per": 7890,
      "tte": 7891,
      "ye": 7892,
      "យូ": 7893,
      "ឡាំ": 7894,
      "Thiết": 7895,
      "ក្រូច": 7896,
      "rani": 7897,
      "chiêu": 7898,
      "2004": 7899,
      "សំណាក់": 7900,
      "Vua": 7901,
      "ADB": 7902,
      "Sco": 7903,
      "lưỡi": 7904,
      "កោល": 7905,
      "លង្": 7906,
      "ẳn": 7907,
      "ngạc": 7908,
      "ការដាក់ទណ្ឌកម្ម": 7909,
      "វាទ": 7910,
      "កោះសមុទ្រ": 7911,
      "Robert": 7912,
      "គំនូរ": 7913,
      "Haiyang": 7914,
      "ធ្មត់": 7915,
      "សំនួរ": 7916,
      "ក្វាង": 7917,
      "Crimea": 7918,
      "Gra": 7919,
      "Mông": 7920,
      "Raul": 7921,
      "Ton": 7922,
      "hoài": 7923,
      "đồn": 7924,
      "đám": 7925,
      "គរុក": 7926,
      "្ក": 7927,
      "ấc": 7928,
      "dom": 7929,
      "ការវិវឌ្ឍន៍": 7930,
      "Hãng": 7931,
      "Dầu": 7932,
      "HR": 7933,
      "Jin": 7934,
      "Khai": 7935,
      "ve": 7936,
      "ជួសជុល": 7937,
      "ណារី": 7938,
      "nhang": 7939,
      "ការនាំចូល": 7940,
      "សេណារី": 7941,
      "ដំណាំ": 7942,
      "Doan": 7943,
      "អត់ធ្មត់": 7944,
      "Benjamin": 7945,
      "Delhi": 7946,
      "Antonio": 7947,
      "សច្ចាប័ន": 7948,
      "59": 7949,
      "OR": 7950,
      "Sách": 7951,
      "cổng": 7952,
      "gon": 7953,
      "ể": 7954,
      "̀i": 7955,
      "́ng": 7956,
      "តបត": 7957,
      "សិល": 7958,
      "អ្នកនេសាទ": 7959,
      "baba": 7960,
      "កាត់ទោស": 7961,
      "ផ្ទាំង": 7962,
      "Thịnh": 7963,
      "១០ឆ្នាំ": 7964,
      "ley": 7965,
      "សមរភូមិ": 7966,
      "ឧទ្ទេស": 7967,
      "ចំណីអាហារ": 7968,
      "សក្ខីភាព": 7969,
      "Jes": 7970,
      "Twit": 7971,
      "Vượng": 7972,
      "chìa": 7973,
      "thánh": 7974,
      "Tha": 7975,
      "Chris": 7976,
      "ក្រដ": 7977,
      "សេនា": 7978,
      "ផ្ទាត់": 7979,
      "tup": 7980,
      "Luong": 7981,
      "សេចក្តីប្រាថ្នា": 7982,
      "គ្រោះមហន្តរាយ": 7983,
      "សុខទុក្ខ": 7984,
      "omberg": 7985,
      "1973": 7986,
      "ផ្ញើរ": 7987,
      "ផ្ទុយទៅវិញ": 7988,
      "អន្តរប៉ាស៊ីហ្វិក": 7989,
      "Bloomberg": 7990,
      "Qa": 7991,
      "SD": 7992,
      "Tp": 7993,
      "vắng": 7994,
      "ថ្វី": 7995,
      "ទន់": 7996,
      "យេន": 7997,
      "trệ": 7998,
      "ប្រុងប្រយ័ត្ន": 7999,
      "Thưởng": 8000,
      "Thừa": 8001,
      "ini": 8002,
      "là": 8003,
      "NAFTA": 8004,
      "គុយបា": 8005,
      "ដំឡើង": 8006,
      "គ្របដណ្ត": 8007,
      "Pakistan": 8008,
      "Qaeda": 8009,
      "Ros": 8010,
      "hẳn": 8011,
      "ku": 8012,
      "me": 8013,
      "vỏ": 8014,
      "ចេតនា": 8015,
      "៤៧": 8016,
      "Thầy": 8017,
      "ទី៦": 8018,
      "rak": 8019,
      "ថ្កោល": 8020,
      "luân": 8021,
      "អ្នកនយោបាយ": 8022,
      "màn": 8023,
      "tou": 8024,
      "ova": 8025,
      "ood": 8026,
      "សតវត្សរ៍": 8027,
      "Boris": 8028,
      "Geor": 8029,
      "ការប្រឈមមុខ": 8030,
      "Hay": 8031,
      "HTX": 8032,
      "Lĩnh": 8033,
      "cười": 8034,
      "hồng": 8035,
      "of": 8036,
      "uli": 8037,
      "yi": 8038,
      "ចូលនិវត្តន៍": 8039,
      "បត្តិហេតុ": 8040,
      "បំភ្លឺ": 8041,
      "hộp": 8042,
      "Bogor": 8043,
      "ញ៉ាំ": 8044,
      "លាតត្រដាង": 8045,
      "ផ្ទៀងផ្ទាត់": 8046,
      "Reuters": 8047,
      "មហិច្ឆតា": 8048,
      "Dia": 8049,
      "MM": 8050,
      "Mười": 8051,
      "Un": 8052,
      "bon": 8053,
      "bứt": 8054,
      "nòng": 8055,
      "nảy": 8056,
      "រត": 8057,
      "nhịp": 8058,
      "ការដក": 8059,
      "ទីប្រឹក្សា": 8060,
      "Phái": 8061,
      "ម៉ត់ចត់": 8062,
      "ពួកយើង": 8063,
      "Jack": 8064,
      "Pomp": 8065,
      "អក្សរសាស្ត្រ": 8066,
      "Cố": 8067,
      "Dak": 8068,
      "PP": 8069,
      "cống": 8070,
      "dĩ": 8071,
      "van": 8072,
      "xưa": 8073,
      "đáy": 8074,
      "លាប់": 8075,
      "ីក": 8076,
      "យ៉ូ": 8077,
      "អ្នកស្រាវជ្រាវ": 8078,
      "កាល័យ": 8079,
      "សម្ង": 8080,
      "សមាជិកាស": 8081,
      "ក្លាហ": 8082,
      "liêng": 8083,
      "Muốn": 8084,
      "ការជជែក": 8085,
      "គណះកម្មាធិការ": 8086,
      "desh": 8087,
      "ខ្ទង់": 8088,
      "ក្លាហាន": 8089,
      "81": 8090,
      "86": 8091,
      "Lập": 8092,
      "Mùa": 8093,
      "Ste": 8094,
      "dồn": 8095,
      "Đáp": 8096,
      "សោ": 8097,
      "ការរំ": 8098,
      "ព្រហ្ម": 8099,
      "អ្នកសារព័ត៌មាន": 8100,
      "សាសនិក": 8101,
      "viet": 8102,
      "ដាច់ដោយឡែក": 8103,
      "Guinea": 8104,
      "លំនៅដ្ឋាន": 8105,
      "ILO": 8106,
      "Đạo": 8107,
      "ងន់": 8108,
      "ឈ្ន": 8109,
      "មុត": 8110,
      "ាការ": 8111,
      "របាំង": 8112,
      "កម្សាន្ត": 8113,
      "Quận": 8114,
      "ឧប្": 8115,
      "រក្សាទុក": 8116,
      "2002": 8117,
      "ការធ្វើតេស្ត": 8118,
      "1993": 8119,
      "បណ្ឌិត្យ": 8120,
      "ចងចាំ": 8121,
      "Techcombank": 8122,
      "Twitter": 8123,
      "LD": 8124,
      "Viết": 8125,
      "lít": 8126,
      "rem": 8127,
      "sho": 8128,
      "វាស": 8129,
      "ះបង់": 8130,
      "ការឯកភាព": 8131,
      "បង្កង": 8132,
      "Kha": 8133,
      "Khối": 8134,
      "ប្រជុំជន": 8135,
      "ចង់ឲ្យ": 8136,
      "សាធារណមតិ": 8137,
      "ព្រះអាទិត្យ": 8138,
      "គ្របដណ្តប់": 8139,
      "Pompeo": 8140,
      "CH": 8141,
      "hùm": 8142,
      "̀nh": 8143,
      "សូវ": 8144,
      "សង្រ": 8145,
      "thả": 8146,
      "Thao": 8147,
      "Phone": 8148,
      "ដំណាច់": 8149,
      "សំលេង": 8150,
      "ale": 8151,
      "Giai": 8152,
      "យុទ្ឋ": 8153,
      "គំហ": 8154,
      "គុណូប": 8155,
      "VNA": 8156,
      "បញ្ញើ": 8157,
      "sip": 8158,
      "រដ្ធ": 8159,
      "Ash": 8160,
      "អាហ្វហ្គានីស្ថាន": 8161,
      "Samsung": 8162,
      "ប៉ាន់ប្រមាណ": 8163,
      "ឈ្លាន": 8164,
      "ល្ងាច": 8165,
      "ឧប្បត្តិហេតុ": 8166,
      "AFP": 8167,
      "St": 8168,
      "ឿយ": 8169,
      "ការឆ្លង": 8170,
      "ស្នង": 8171,
      "ពន្ធនាគារ": 8172,
      "Vietcombank": 8173,
      "នីតិរដ្ឋ": 8174,
      "Abbas": 8175,
      "វេជ្ជបណ្ឌិត": 8176,
      "Pany": 8177,
      "Nicolas": 8178,
      "dũng": 8179,
      "lọt": 8180,
      "tây": 8181,
      "xi": 8182,
      "៤៣": 8183,
      "chai": 8184,
      "ការបំពេញ": 8185,
      "giục": 8186,
      "Trải": 8187,
      "សាអូ": 8188,
      "Huu": 8189,
      "180": 8190,
      "ចង់បាន": 8191,
      "ក្តាប់": 8192,
      "Abdu": 8193,
      "Davos": 8194,
      "Techo": 8195,
      "លេចចេញ": 8196,
      "ប្រកាន់ខ្ជាប់": 8197,
      "VietnamPlus": 8198,
      "្យូទ័រ": 8199,
      "Glo": 8200,
      "Nar": 8201,
      "Sỹ": 8202,
      "TC": 8203,
      "Vùng": 8204,
      "WHO": 8205,
      "đòn": 8206,
      "ឌ័រ": 8207,
      "ណាល់": 8208,
      "បាល់": 8209,
      "អនាម": 8210,
      "nha": 8211,
      "trống": 8212,
      "Ngài": 8213,
      "Nhằm": 8214,
      "អ្នកទិញ": 8215,
      "កាលវិភាគ": 8216,
      "bul": 8217,
      "Vien": 8218,
      "អ៊ុន": 8219,
      "ght": 8220,
      "កុំព": 8221,
      "សម្លៀកបំពាក់": 8222,
      "ល្បាញ": 8223,
      "HDBank": 8224,
      "ស្និទ្ធស្នាល": 8225,
      "សមាជិការ": 8226,
      "សម្ភាសន៍": 8227,
      "គរុកោសល្យ": 8228,
      "BO": 8229,
      "Bai": 8230,
      "Dan": 8231,
      "QĐ": 8232,
      "lí": 8233,
      "mến": 8234,
      "mảng": 8235,
      "ទ្ទ": 8236,
      "ការចុះឈ្មោះ": 8237,
      "ការរំលោភបំពាន": 8238,
      "ស្រែ": 8239,
      "ala": 8240,
      "១៥០": 8241,
      "ruộng": 8242,
      "ការជួញដូរ": 8243,
      "ទសវត្សរ៍": 8244,
      "bạ": 8245,
      "h30": 8246,
      "iPhone": 8247,
      "tùng": 8248,
      "Đảm": 8249,
      "ពូន": 8250,
      "ộm": 8251,
      "យល់ស្រប": 8252,
      "រួចផុត": 8253,
      "អ៊ីនធឺណេត": 8254,
      "ល្បីល្បាញ": 8255,
      "Peru": 8256,
      "BĐS": 8257,
      "លម្អិត": 8258,
      "Kiều": 8259,
      "ky": 8260,
      "lồng": 8261,
      "điệu": 8262,
      "́p": 8263,
      "ឆ្គ": 8264,
      "ធារ": 8265,
      "thói": 8266,
      "ការអះអាង": 8267,
      "Thạch": 8268,
      "ថាញ": 8269,
      "ស្អំ": 8270,
      "Nhơn": 8271,
      "ំព័": 8272,
      "ដូណាល់": 8273,
      "chuối": 8274,
      "chith": 8275,
      "ស្លឹក": 8276,
      "chael": 8277,
      "សក្តានុភាព": 8278,
      "ស្អាតស្អំ": 8279,
      "Eurozone": 8280,
      "VietinBank": 8281,
      "Yatho": 8282,
      "តាក់តែង": 8283,
      "ជ្រុលនិយម": 8284,
      "Sóc": 8285,
      "chìm": 8286,
      "ការសាងសង់": 8287,
      "ការបញ្ចុះ": 8288,
      "្យាង": 8289,
      "ខ្ច": 8290,
      "ម៉្យាង": 8291,
      "គម្រូ": 8292,
      "គម្រាមកំហែង": 8293,
      "ម្ចាស់ការ": 8294,
      "dez": 8295,
      "លំហ": 8296,
      "អាណាព្យាបាល": 8297,
      "ឈ្លានពាន": 8298,
      "កុំព្យូទ័រ": 8299,
      "74": 8300,
      "dọn": 8301,
      "lô": 8302,
      "̃ng": 8303,
      "̉i": 8304,
      "មួន": 8305,
      "សត្រូវ": 8306,
      "េខ": 8307,
      "ោគម": 8308,
      "ngặt": 8309,
      "លោម": 8310,
      "Khó": 8311,
      "លក្ខខ័ណ្ឌ": 8312,
      "រងរបួស": 8313,
      "Thuế": 8314,
      "អតិបរមា": 8315,
      "បង់ប្រាក់": 8316,
      "xoay": 8317,
      "manuel": 8318,
      "Emmanuel": 8319,
      "Alibaba": 8320,
      "សក្ដានុភាព": 8321,
      "Kuwai": 8322,
      "ឈ្នួល": 8323,
      "សង្រ្គ": 8324,
      "Kuwait": 8325,
      "Dược": 8326,
      "ET": 8327,
      "Vati": 8328,
      "bông": 8329,
      "tường": 8330,
      "vết": 8331,
      "Đơn": 8332,
      "đọng": 8333,
      "កៅ": 8334,
      "តួល": 8335,
      "ការឃោសនា": 8336,
      "ាក្ស": 8337,
      "Tranh": 8338,
      "ស្រយ": 8339,
      "អ្នកប្រាជ្ញ": 8340,
      "ori": 8341,
      "សរឲ្យ": 8342,
      "រណែត": 8343,
      "សំណង": 8344,
      "ផ្តល់ឱ្យ": 8345,
      "Dioxin": 8346,
      "មហាក្ស": 8347,
      "Michael": 8348,
      "អរិយ": 8349,
      "ដូច្នោះហើយ": 8350,
      "អនាម័យ": 8351,
      "Vatican": 8352,
      "តួលេខ": 8353,
      "92": 8354,
      "Her": 8355,
      "Kien": 8356,
      "Rou": 8357,
      "Tung": 8358,
      "Vừa": 8359,
      "dép": 8360,
      "mùi": 8361,
      "tem": 8362,
      "túy": 8363,
      "ầu": 8364,
      "Đỏ": 8365,
      "đệ": 8366,
      "វង់": 8367,
      "trọt": 8368,
      "vich": 8369,
      "កំពុងតែ": 8370,
      "បន្ទាត់": 8371,
      "អគ្គី": 8372,
      "1990": 8373,
      "Huyện": 8374,
      "1979": 8375,
      "ការប្រមូលផ្តុំ": 8376,
      "អេស្ប៉ាញ": 8377,
      "យេនឌ័រ": 8378,
      "61": 8379,
      "AB": 8380,
      "AU": 8381,
      "Liêm": 8382,
      "Xê": 8383,
      "llah": 8384,
      "Đô": 8385,
      "ដុត": 8386,
      "នឹក": 8387,
      "ការផ្សាយ": 8388,
      "យកឈ្នះ": 8389,
      "rand": 8390,
      "pua": 8391,
      "ខុសពី": 8392,
      "cụm": 8393,
      "មហោ": 8394,
      "tech": 8395,
      "រាជការ": 8396,
      "Wall": 8397,
      "ចង្អុល": 8398,
      "សាអូឌីត": 8399,
      "78": 8400,
      "CC": 8401,
      "Cung": 8402,
      "Ves": 8403,
      "đụng": 8404,
      "កញ្ច": 8405,
      "យដ្ឋាន": 8406,
      "លាយ": 8407,
      "ីប": 8408,
      "ẩu": 8409,
      "phiến": 8410,
      "ការចូលរៀន": 8411,
      "ការទប់ទល់": 8412,
      "ទីប្រជុំជន": 8413,
      "khiêm": 8414,
      "ខ្ជាយ": 8415,
      "សំចៃ": 8416,
      "បណ្តើរ": 8417,
      "Thuong": 8418,
      "ភ្លេច": 8419,
      "1991": 8420,
      "ព្រះមហាក្ស": 8421,
      "Boun": 8422,
      "Chuẩn": 8423,
      "សក្តិសម": 8424,
      "បណ្ដាលអោយ": 8425,
      "​​​​": 8426,
      "ឆ្លាតវៃ": 8427,
      "Brussels": 8428,
      "Avi": 8429,
      "Ale": 8430,
      "EA": 8431,
      "Mình": 8432,
      "Tsip": 8433,
      "Val": 8434,
      "Xuyên": 8435,
      "Zh": 8436,
      "del": 8437,
      "mú": 8438,
      "ren": 8439,
      "ពន្យា": 8440,
      "ភើប": 8441,
      "រៀងរាល់": 8442,
      "សឹក": 8443,
      "ớc": 8444,
      "treo": 8445,
      "pháo": 8446,
      "ភាពស្មុគស្មាញ": 8447,
      "សមភាគី": 8448,
      "ទីនោះ": 8449,
      "Phản": 8450,
      "Nhat": 8451,
      "ច្រាន": 8452,
      "ខ្ជះ": 8453,
      "1946": 8454,
      "Hoi": 8455,
      "វេណី": 8456,
      "ក្រោយពេល": 8457,
      "140": 8458,
      "ក្តាម": 8459,
      "Rod": 8460,
      "អ៊ិនធឺណ": 8461,
      "ឧទ្ទេសនាម": 8462,
      "De": 8463,
      "Vậy": 8464,
      "đúc": 8465,
      "thợ": 8466,
      "thấu": 8467,
      "khiển": 8468,
      "ướp": 8469,
      "េសប៊": 8470,
      "នុយ": 8471,
      "សហករណ៍": 8472,
      "សិការ": 8473,
      "មូលបត្រ": 8474,
      "tuỳ": 8475,
      "khía": 8476,
      "Vanua": 8477,
      "ពាក់កណ្ដាល": 8478,
      "Bangla": 8479,
      "Vanuatu": 8480,
      "Clau": 8481,
      "Nữ": 8482,
      "mệt": 8483,
      "តូក": 8484,
      "ប្តី": 8485,
      "សិន": 8486,
      "សុប": 8487,
      "៦០០": 8488,
      "ានុម": 8489,
      "ការបង្ហាញ": 8490,
      "Nhan": 8491,
      "អ្នកចូលរួម": 8492,
      "Giấy": 8493,
      "ស្ថានការណ៍": 8494,
      "ស្វាង": 8495,
      "មនសិការ": 8496,
      "Mahm": 8497,
      "២០០៦": 8498,
      "២០០៧": 8499,
      "ដាច់ស្រយ": 8500,
      "ល្មើស": 8501,
      "ស្ថាបត្យកម្ម": 8502,
      "ក្រដាស": 8503,
      "Global": 8504,
      "Bounnhang": 8505,
      "Mahmoud": 8506,
      "82": 8507,
      "Biến": 8508,
      "Tới": 8509,
      "dáng": 8510,
      "mộ": 8511,
      "site": 8512,
      "ất": 8513,
      "ស្វី": 8514,
      "nhắm": 8515,
      "Chẳng": 8516,
      "អភិវឌ្ឍន៌": 8517,
      "ino": 8518,
      "TPHCM": 8519,
      "ផែនដី": 8520,
      "adan": 8521,
      "ស្លោក": 8522,
      "Michel": 8523,
      "và": 8524,
      "Papua": 8525,
      "Tiêu": 8526,
      "tream": 8527,
      "អាឡឺម៉ង់": 8528,
      "សេណារីយ៉ូ": 8529,
      "ឆ្គង": 8530,
      "ខ្ចោះ": 8531,
      "ខ្ជះខ្ជាយ": 8532,
      "Fi": 8533,
      "Lạt": 8534,
      "VS": 8535,
      "dừa": 8536,
      "fe": 8537,
      "viếng": 8538,
      "ward": 8539,
      "ច័ន្ទ": 8540,
      "ពិក": 8541,
      "សឲ្យ": 8542,
      "៧០០": 8543,
      "khốc": 8544,
      "giận": 8545,
      "្សី": 8546,
      "អ្នកគ្រប់គ្រង": 8547,
      "bana": 8548,
      "្វីក": 8549,
      "ពន្ធដារ": 8550,
      "បង្រួញ": 8551,
      "កុម្ភៈ": 8552,
      "ព័ន្ឋ": 8553,
      "កញ្ចក់": 8554,
      "Tsipras": 8555,
      "Bái": 8556,
      "Kar": 8557,
      "LB": 8558,
      "Mác": 8559,
      "Wi": 8560,
      "ctor": 8561,
      "liêm": 8562,
      "lốp": 8563,
      "my": 8564,
      "vạch": 8565,
      "̣ng": 8566,
      "កាប": 8567,
      "khử": 8568,
      "ក្ដៅ": 8569,
      "ព្រឹត្ត": 8570,
      "ហ្វេសប៊": 8571,
      "vacc": 8572,
      "ភ្លឺស្វាង": 8573,
      "Busan": 8574,
      "ស័ក": 8575,
      "គុណូបការៈ": 8576,
      "ហ្វេសប៊ុក": 8577,
      "Ak": 8578,
      "GP": 8579,
      "lắm": 8580,
      "lle": 8581,
      "nạp": 8582,
      "nom": 8583,
      "ដង្ហ": 8584,
      "តទៅ": 8585,
      "រិះ": 8586,
      "ការភ្ញាក់ផ្អើល": 8587,
      "ប្រេស៊ី": 8588,
      "បង្ហូរ": 8589,
      "ប៉ាស៊ីហ": 8590,
      "ដូន": 8591,
      "សមាគមន៍": 8592,
      "1997": 8593,
      "ប្រមុខរដ្ឋ": 8594,
      "ដាច់ស្រយាល": 8595,
      "ស្វីស": 8596,
      "Tạ": 8597,
      "cỡ": 8598,
      "urani": 8599,
      "đèn": 8600,
      "ពត": 8601,
      "ឹស": 8602,
      "៦៣": 8603,
      "មានអារម្មណ៍": 8604,
      "ភាពយន្ត": 8605,
      "របៀង": 8606,
      "ព្រលាន": 8607,
      "មនុស្សជាតិ": 8608,
      "Colo": 8609,
      "ហ៊ុ": 8610,
      "សំណាល": 8611,
      "មនោស": 8612,
      "អញ្ច": 8613,
      "Andr": 8614,
      "Shop": 8615,
      "ខុទ្ទ": 8616,
      "សម្ងាត់": 8617,
      "Fid": 8618,
      "Mong": 8619,
      "xả": 8620,
      "ឃ្ម": 8621,
      "ង៉": 8622,
      "តៃ": 8623,
      "nhọn": 8624,
      "ការចូល": 8625,
      "សមយុទ្ធ": 8626,
      "Quỳnh": 8627,
      "្វេង": 8628,
      "sốt": 8629,
      "ទទួលរង": 8630,
      "Khẳng": 8631,
      "Com": 8632,
      "បច្ចុប្បន្នភាព": 8633,
      "សាក្សី": 8634,
      "ឥណ្ឌូ": 8635,
      "ខែកុម្ភះ": 8636,
      "កាហ្ស": 8637,
      "កូដ": 8638,
      "និមិត្តរូប": 8639,
      "Fidel": 8640,
      "Sức": 8641,
      "Vật": 8642,
      "vây": 8643,
      "̀y": 8644,
      "ង្ស": 8645,
      "ធូ": 8646,
      "quạt": 8647,
      "ការទាមទារ": 8648,
      "ប្រែប្រួល": 8649,
      "ត្រលប់": 8650,
      "មុខជំនាញ": 8651,
      "ម៉ាស": 8652,
      "hye": 8653,
      "តុណ្": 8654,
      "ការតាំងពិព័រណ៍": 8655,
      "vaccine": 8656,
      "350": 8657,
      "76": 8658,
      "HS": 8659,
      "JC": 8660,
      "James": 8661,
      "Noi": 8662,
      "VA": 8663,
      "clip": 8664,
      "ler": 8665,
      "ping": 8666,
      "Đi": 8667,
      "ទាយ": 8668,
      "នះ": 8669,
      "ពោ": 8670,
      "ựng": 8671,
      "thước": 8672,
      "trọn": 8673,
      "ប្រិយ": 8674,
      "ភាពច្នៃប្រឌិត": 8675,
      "aya": 8676,
      "Hou": 8677,
      "ជ្រុំ": 8678,
      "tah": 8679,
      "ការចូលរួមចំណែក": 8680,
      "ics": 8681,
      "Times": 8682,
      "ជាសារវ័ន្ត": 8683,
      "ប្រេស៊ីល": 8684,
      "ខុទ្ទកាល័យ": 8685,
      "កាហ្សាក់": 8686,
      "IF": 8687,
      "SPD": 8688,
      "Tạp": 8689,
      "ci": 8690,
      "odom": 8691,
      "sốc": 8692,
      "vạn": 8693,
      "đậu": 8694,
      "ដន្យ": 8695,
      "ớp": 8696,
      "ពីសំណាក់": 8697,
      "ទីលាន": 8698,
      "ទី១០": 8699,
      "រដ្ឋប្ប": 8700,
      "Nhấn": 8701,
      "giá": 8702,
      "1950": 8703,
      "Giờ": 8704,
      "Giáng": 8705,
      "តម្លឹង": 8706,
      "ទស្សនាវ": 8707,
      "Annan": 8708,
      "ដំណើរការធ្វើ": 8709,
      "អូឡាំ": 8710,
      "Norodom": 8711,
      "Thonglo": 8712,
      "Alexand": 8713,
      "Juncker": 8714,
      "Rouhani": 8715,
      "តូក្យូ": 8716,
      "ានុម័ត": 8717,
      "រដ្ឋប្បវេណី": 8718,
      "110": 8719,
      "ឆ្ម": 8720,
      "ហៃ": 8721,
      "ុជ": 8722,
      "៨៥": 8723,
      "Thăng": 8724,
      "Cham": 8725,
      "ទី៥": 8726,
      "ស្រង់": 8727,
      "ស្រាប": 8728,
      "ក៏ប៉ុន្តែ": 8729,
      "មីន": 8730,
      "ខុសប្លែក": 8731,
      "ចំណូលចិត្ត": 8732,
      "Liêu": 8733,
      "អេឡា": 8734,
      "១៩៩៥": 8735,
      "ចៃដន្យ": 8736,
      "រុក្ខជាតិ": 8737,
      "ព្រលានយន្តហោះ": 8738,
      "ហ៊ុំព័": 8739,
      "AID": 8740,
      "IT": 8741,
      "Star": 8742,
      "bơi": 8743,
      "hỏng": 8744,
      "mấu": 8745,
      "tẩy": 8746,
      "vất": 8747,
      "zi": 8748,
      "đỗ": 8749,
      "̉ng": 8750,
      "̣̂": 8751,
      "ចត្តា": 8752,
      "ឆ្វេង": 8753,
      "មូ": 8754,
      "ហាយ": 8755,
      "អើង": 8756,
      "ការព្រមព្រៀង": 8757,
      "ការរស់": 8758,
      "ភាយ": 8759,
      "អនុលោម": 8760,
      "Hoan": 8761,
      "ដំណើរការចរចា": 8762,
      "សំណេះ": 8763,
      "ព្យុះ": 8764,
      "សីតុណ្": 8765,
      "ល្បិច": 8766,
      "our": 8767,
      "ទំនើបកម្ម": 8768,
      "្ដរ": 8769,
      "Mohamm": 8770,
      "សិទ្ឋិ": 8771,
      "ទស្សនាវដ": 8772,
      "Ted": 8773,
      "mồ": 8774,
      "vả": 8775,
      "Ưu": 8776,
      "ឡី": 8777,
      "៣៩": 8778,
      "chọi": 8779,
      "trạm": 8780,
      "ាស្ទ": 8781,
      "អាហ": 8782,
      "lov": 8783,
      "app": 8784,
      "keting": 8785,
      "អន្ដរ": 8786,
      "បំរែ": 8787,
      "ជំពូក": 8788,
      "សមាសភាព": 8789,
      "ចង្អុលបង្ហាញ": 8790,
      "ព្រះមហាក្សត្រ": 8791,
      "Bangladesh": 8792,
      "Claude": 8793,
      "Ag": 8794,
      "Bờ": 8795,
      "Kyo": 8796,
      "OEC": 8797,
      "Sử": 8798,
      "VP": 8799,
      "eg": 8800,
      "hán": 8801,
      "mì": 8802,
      "ơ": 8803,
      "săn": 8804,
      "Đảo": 8805,
      "ngọn": 8806,
      "chè": 8807,
      "ប្រញាប់": 8808,
      "ane": 8809,
      "កន្លះ": 8810,
      "aku": 8811,
      "lũy": 8812,
      "ការរួមបញ្ចូល": 8813,
      "Bạch": 8814,
      "sưu": 8815,
      "xói": 8816,
      "ញា": 8817,
      "បាញ": 8818,
      "khép": 8819,
      "Ngược": 8820,
      "ស្រព": 8821,
      "eon": 8822,
      "ប្រជាប្រិយ": 8823,
      "ហាវ": 8824,
      "មកកាន់": 8825,
      "អន្តរសភា": 8826,
      "ជិតស្និ": 8827,
      "ប្រវែង": 8828,
      "Top": 8829,
      "Habana": 8830,
      "Vina": 8831,
      "website": 8832,
      "ស្ដេច": 8833,
      "ទង់ជាតិ": 8834,
      "City": 8835,
      "Chuyển": 8836,
      "Vesak": 8837,
      "សំណេះសំណាល": 8838,
      "អន្ដរជាតិ": 8839,
      "Gre": 8840,
      "MTT": 8841,
      "Pray": 8842,
      "Sha": 8843,
      "Vệ": 8844,
      "cành": 8845,
      "gợi": 8846,
      "tọa": 8847,
      "ឆៅ": 8848,
      "សណ្": 8849,
      "ហ៊ាន": 8850,
      "៤៤": 8851,
      "chinh": 8852,
      "ទី៨": 8853,
      "រួប": 8854,
      "រួចរ": 8855,
      "អ្នកជំងឺ": 8856,
      "ទំនងជា": 8857,
      "barak": 8858,
      "ធិការ": 8859,
      "startup": 8860,
      "ព្រហ្មទណ្ឌ": 8861,
      "MTTQ": 8862,
      "រួចរាល់": 8863,
      "Ken": 8864,
      "Tận": 8865,
      "Xin": 8866,
      "hàn": 8867,
      "đấy": 8868,
      "គេច": 8869,
      "បេះ": 8870,
      "វែក": 8871,
      "អី": 8872,
      "ឥន្ធ": 8873,
      "ការបង្ក": 8874,
      "ការព្រមាន": 8875,
      "ថ្លា": 8876,
      "usse": 8877,
      "បំពុល": 8878,
      "lộn": 8879,
      "បូរី": 8880,
      "បង្ខំឱ្យ": 8881,
      "ពុទ្ធសាសនា": 8882,
      "សម្បទាន": 8883,
      "Jordan": 8884,
      "ប៉ាស៊ីហ្វីក": 8885,
      "ស្រាបៀរ": 8886,
      "OECD": 8887,
      "91": 8888,
      "lam": 8889,
      "ts": 8890,
      "Áo": 8891,
      "̉a": 8892,
      "ល័យ": 8893,
      "សូវៀត": 8894,
      "សណ្ដ": 8895,
      "៨០០": 8896,
      "thính": 8897,
      "ភាពរឹងមាំ": 8898,
      "ទ្រូង": 8899,
      "ន្ធិ": 8900,
      "ាវី": 8901,
      "use": 8902,
      "រលំ": 8903,
      "បញ្ជាទិញ": 8904,
      "លេចឡើង": 8905,
      "ញ្ចេតនា": 8906,
      "Penh": 8907,
      "981": 8908,
      "Mohamed": 8909,
      "បេតិកភណ្ឌ": 8910,
      "បដិសន្ធិ": 8911,
      "Dấu": 8912,
      "Sáu": 8913,
      "cất": 8914,
      "hôn": 8915,
      "ùy": 8916,
      "đựng": 8917,
      "ការ៉េ": 8918,
      "ភាពចាំបាច់": 8919,
      "Chất": 8920,
      "Nhung": 8921,
      "ona": 8922,
      "មុខមាត់": 8923,
      "បារ៉": 8924,
      "មនោគម": 8925,
      "ឡាទីន": 8926,
      "ប៊ុល": 8927,
      "Nik": 8928,
      "ADMM": 8929,
      "ចំណងជើង": 8930,
      "តម្បាញ": 8931,
      "បំរើ": 8932,
      "កម្មុយនីស្ត": 8933,
      "Jinping": 8934,
      "សីតុណ្ហភាព": 8935,
      "Prayu": 8936,
      "Bam": 8937,
      "Bích": 8938,
      "Cze": 8939,
      "Dani": 8940,
      "kí": 8941,
      "xỉ": 8942,
      "xưởng": 8943,
      "កំប": 8944,
      "កកើត": 8945,
      "ទាល់": 8946,
      "រូវ": 8947,
      "thở": 8948,
      "khán": 8949,
      "có": 8950,
      "ាហាប់": 8951,
      "ស្នាម": 8952,
      "សេចក្តីសំរេចចិត្ត": 8953,
      "Ant": 8954,
      "អារ៉": 8955,
      "ម្តេច": 8956,
      "សកលវិទ្យាល័យ": 8957,
      "yaw": 8958,
      "៊ុយអេឡា": 8959,
      "ថាញ់": 8960,
      "Aviv": 8961,
      "ឥន្ធនៈ": 8962,
      "Czech": 8963,
      "Kiến": 8964,
      "SH": 8965,
      "UND": 8966,
      "bin": 8967,
      "lân": 8968,
      "mãn": 8969,
      "ចៀសវាង": 8970,
      "ុរស": 8971,
      "៥៤": 8972,
      "ការបំ": 8973,
      "ការកែសម្រួល": 8974,
      "2045": 8975,
      "ខាងក្នុង": 8976,
      "ពលី": 8977,
      "ពេញនិយម": 8978,
      "Sacombank": 8979,
      "ស្វាហាប់": 8980,
      "រណប": 8981,
      "Loi": 8982,
      "ហ្គារី": 8983,
      "មាគា៍": 8984,
      "អ៊ិនធឺរណែត": 8985,
      "ៀបរាប់": 8986,
      "Grab": 8987,
      "ថ្វីត្បិត": 8988,
      "GR": 8989,
      "PL": 8990,
      "Sar": 8991,
      "Tức": 8992,
      "Vị": 8993,
      "Xác": 8994,
      "hồn": 8995,
      "lụt": 8996,
      "tụt": 8997,
      "Ánh": 8998,
      "ខក": 8999,
      "ីន": 9000,
      "១០០០": 9001,
      "ủa": 9002,
      "chéo": 9003,
      "ការស្តារ": 9004,
      "ទំនាប": 9005,
      "តំរូវ": 9006,
      "ផ្សះ": 9007,
      "Khủng": 9008,
      "សេចក្តីណែនាំ": 9009,
      "TTg": 9010,
      "សន្ទរកថា": 9011,
      "1996": 9012,
      "EVIPA": 9013,
      "Martin": 9014,
      "1977": 9015,
      "កេរ្តិ៍ឈ្មោះ": 9016,
      "រួបរួម": 9017,
      "71": 9018,
      "Gat": 9019,
      "Loại": 9020,
      "dy": 9021,
      "dội": 9022,
      "dai": 9023,
      "dập": 9024,
      "manh": 9025,
      "ថី": 9026,
      "អសកម្ម": 9027,
      "ឱន": 9028,
      "វិថី": 9029,
      "កិច្ចសហ": 9030,
      "Phnom": 9031,
      "chuyền": 9032,
      "ជ្រែក": 9033,
      "ើសអើង": 9034,
      "ទន្ទ្រ": 9035,
      "Tur": 9036,
      "CPI": 9037,
      "មហាផ្ទៃ": 9038,
      "ពិន័យ": 9039,
      "ក្បែរ": 9040,
      "បកស្រាយ": 9041,
      "Apple": 9042,
      "Diaz": 9043,
      "Fast": 9044,
      "Hee": 9045,
      "NĐ": 9046,
      "ah": 9047,
      "hòn": 9048,
      "sụp": 9049,
      "vard": 9050,
      "wi": 9051,
      "៥២": 9052,
      "ការថែទាំ": 9053,
      "វិហារ": 9054,
      "ត្រាយ": 9055,
      "eri": 9056,
      "banon": 9057,
      "estream": 9058,
      "ភូត": 9059,
      "Lebanon": 9060,
      "oshi": 9061,
      "1967": 9062,
      "endra": 9063,
      "ហ៊ុំព័ទ្ធ": 9064,
      "UNDP": 9065,
      "ទន្ទ្រាន": 9066,
      "Ex": 9067,
      "Ji": 9068,
      "gam": 9069,
      "pi": 9070,
      "sầu": 9071,
      "đứt": 9072,
      "ជិះ": 9073,
      "ធុង": 9074,
      "លទ្ឋ": 9075,
      "័ន": 9076,
      "៩៥": 9077,
      "ាម៉ា": 9078,
      "Trưng": 9079,
      "ត្រួស": 9080,
      "Phượng": 9081,
      "ដំណាង": 9082,
      "Luu": 9083,
      "ចល័ត": 9084,
      "ពន្យារ": 9085,
      "ការបញ្ជាទិញ": 9086,
      "Pence": 9087,
      "Yathotou": 9088,
      "សង្រ្គាម": 9089,
      "VSIP": 9090,
      "Lời": 9091,
      "Rio": 9092,
      "VII": 9093,
      "WOR": 9094,
      "Yu": 9095,
      "bê": 9096,
      "bội": 9097,
      "bột": 9098,
      "hảo": 9099,
      "nở": 9100,
      "rộ": 9101,
      "ròng": 9102,
      "ới": 9103,
      "ឈុត": 9104,
      "លាង": 9105,
      "៦៧": 9106,
      "ការផ្តួចផ្តើម": 9107,
      "ការប៉ាន់ស្មាន": 9108,
      "ដូចម្តេច": 9109,
      "1930": 9110,
      "ចំរ": 9111,
      "esla": 9112,
      "CLV": 9113,
      "សួរសុខទុក្ខ": 9114,
      "ផ្ទុយទៅនឹង": 9115,
      "Bermú": 9116,
      "Sunni": 9117,
      "តេជ": 9118,
      "Hảo": 9119,
      "Ke": 9120,
      "LV": 9121,
      "bận": 9122,
      "cas": 9123,
      "rạn": 9124,
      "tiệc": 9125,
      "ន្ថ": 9126,
      "រៀបរាប់": 9127,
      "វេស": 9128,
      "សោក": 9129,
      "tháp": 9130,
      "quầy": 9131,
      "Trăng": 9132,
      "Chang": 9133,
      "ទីលំនៅ": 9134,
      "វិទ្យាធិការ": 9135,
      "ថ្នាក់រៀន": 9136,
      "ចាប់ខ្លួន": 9137,
      "ស្តុក": 9138,
      "ាក់ទាក់": 9139,
      "សាកលវិទ្យាធិការ": 9140,
      "អធិការបតី": 9141,
      "George": 9142,
      "WORLD": 9143,
      "Bưu": 9144,
      "Ed": 9145,
      "Nu": 9146,
      "Sông": 9147,
      "Say": 9148,
      "Xanh": 9149,
      "cớ": 9150,
      "táo": 9151,
      "đới": 9152,
      "̉n": 9153,
      "ធូរ": 9154,
      "១២០": 9155,
      "៤២": 9156,
      "trỗi": 9157,
      "ការប្ដេជ្ញាចិត្ត": 9158,
      "giấu": 9159,
      "Trình": 9160,
      "ពីលើ": 9161,
      "ណាមិញ": 9162,
      "យ៉ាងណាមិញ": 9163,
      "ចំណង់": 9164,
      "សារពើ": 9165,
      "Giữa": 9166,
      "រំភើប": 9167,
      "ល្អិត": 9168,
      "Victor": 9169,
      "Lak": 9170,
      "các": 9171,
      "Hieu": 9172,
      "Bush": 9173,
      "Saigon": 9174,
      "ដាណឺម៉": 9175,
      "bơm": 9176,
      "សណ្ដាប់": 9177,
      "ត្រួសត្រាយ": 9178,
      "ន្ថយ": 9179,
      "84": 9180,
      "BA": 9181,
      "heo": 9182,
      "kiệt": 9183,
      "lặn": 9184,
      "ram": 9185,
      "បោស": 9186,
      "ល័": 9187,
      "សប្ប": 9188,
      "ែស": 9189,
      "ngẫu": 9190,
      "ការចាំបាច់": 9191,
      "្លង់": 9192,
      "របន្ថយ": 9193,
      "ពិធ": 9194,
      "ពិភាគ": 9195,
      "អនុគណៈកម្មាធិការ": 9196,
      "ួលរលំ": 9197,
      "ខ្ជួន": 9198,
      "sor": 9199,
      "រ៉ាវ": 9200,
      "កូរ៉": 9201,
      "ital": 9202,
      "ភ្លៀង": 9203,
      "1998": 9204,
      "osh": 9205,
      "កាតា": 9206,
      "Kofi": 9207,
      "ក្លែងបន្លំ": 9208,
      "livestream": 9209,
      "វិស្វកម្ម": 9210,
      "បន្ធូរបន្ថយ": 9211,
      "CDU": 9212,
      "មនោសញ្ចេតនា": 9213,
      "Cổng": 9214,
      "Ju": 9215,
      "Nova": 9216,
      "xen": 9217,
      "ម៏": 9218,
      "រាក់ទាក់": 9219,
      "អប្ប": 9220,
      "tru": 9221,
      "trộn": 9222,
      "ការងើប": 9223,
      "ប្រាំ": 9224,
      "ưởi": 9225,
      "khoăn": 9226,
      "ចំណែកឯ": 9227,
      "Ana": 9228,
      "thoải": 9229,
      "THA": 9230,
      "កសិដ្ឋាន": 9231,
      "260": 9232,
      "VinFast": 9233,
      "ូតលាស់": 9234,
      "therine": 9235,
      "អន់ខ្សោយ": 9236,
      "តារាង": 9237,
      "Narendra": 9238,
      "មហោស្រព": 9239,
      "Cứ": 9240,
      "CFTA": 9241,
      "Hel": 9242,
      "Sân": 9243,
      "VIII": 9244,
      "Ying": 9245,
      "dặn": 9246,
      "gom": 9247,
      "kề": 9248,
      "lay": 9249,
      "sợi": 9250,
      "xạ": 9251,
      "xương": 9252,
      "ធាវី": 9253,
      "នរ": 9254,
      "ល្វ": 9255,
      "phone": 9256,
      "Trách": 9257,
      "Chú": 9258,
      "ស្រម": 9259,
      "ពិពិធ": 9260,
      "Nguyệt": 9261,
      "សញ្ញាប័ត្រ": 9262,
      "ាប៊ី": 9263,
      "មេធាវី": 9264,
      "NDT": 9265,
      "Toan": 9266,
      "1980": 9267,
      "ប្រហាក់": 9268,
      "News": 9269,
      "Para": 9270,
      "អភិវឌ្ឈ": 9271,
      "INF": 9272,
      "ចត្តាឡី": 9273,
      "Daniel": 9274,
      "Au": 9275,
      "CG": 9276,
      "Pol": 9277,
      "cặp": 9278,
      "gặt": 9279,
      "kép": 9280,
      "lữ": 9281,
      "lấn": 9282,
      "đôn": 9283,
      "́nh": 9284,
      "ង្សា": 9285,
      "ឆ័ន្ទ": 9286,
      "យិន": 9287,
      "២ឆ្នាំ": 9288,
      "ốm": 9289,
      "nhầm": 9290,
      "giấc": 9291,
      "ព្រល": 9292,
      "ធ្វើតេស្ត": 9293,
      "muộn": 9294,
      "គណៈបក្ស": 9295,
      "Nghia": 9296,
      "រាប់បញ្ចូល": 9297,
      "ឈរឈ្មោះ": 9298,
      "ការរត់": 9299,
      "AfCFTA": 9300,
      "ក្មេងស្រី": 9301,
      "លីប៊ី": 9302,
      "បណ្ដាលឲ្យ": 9303,
      "Airw": 9304,
      "ស្វ័យប្រវត្តិ": 9305,
      "Vora": 9306,
      "NHNN": 9307,
      "សមាជិការសភា": 9308,
      "អរិយធម៌": 9309,
      "បេះដូង": 9310,
      "ល័ក្ខ": 9311,
      "04": 9312,
      "Fu": 9313,
      "Sou": 9314,
      "bọc": 9315,
      "côi": 9316,
      "cưỡng": 9317,
      "mít": 9318,
      "vez": 9319,
      "you": 9320,
      "Đóng": 9321,
      "បនិក": 9322,
      "thổi": 9323,
      "ការចិញ្ចឹម": 9324,
      "ការប្តេជ្ញា": 9325,
      "khan": 9326,
      "iếp": 9327,
      "វិទូ": 9328,
      "ក្រោក": 9329,
      "Nhi": 9330,
      "mạch": 9331,
      "េរ៉": 9332,
      "សំបក": 9333,
      "សុឆន្ទៈ": 9334,
      "ស្ថាបនិក": 9335,
      "ជើងទឹក": 9336,
      "រឿងរ៉ាវ": 9337,
      "ឯករាជ្យភាព": 9338,
      "េីង": 9339,
      "អូឡាំពិក": 9340,
      "ពិភាគ្សា": 9341,
      "66": 9342,
      "94": 9343,
      "96": 9344,
      "BI": 9345,
      "NG": 9346,
      "Nổi": 9347,
      "PG": 9348,
      "QL": 9349,
      "Sanh": 9350,
      "Wh": 9351,
      "cướp": 9352,
      "kei": 9353,
      "mậu": 9354,
      "đằng": 9355,
      "đừng": 9356,
      "đạp": 9357,
      "កាក": 9358,
      "ញឹក": 9359,
      "ការវិភាគ": 9360,
      "giặt": 9361,
      "tis": 9362,
      "etsk": 9363,
      "ស្តម្ភ": 9364,
      "ស្មើរ": 9365,
      "ឧបាយ": 9366,
      "chúa": 9367,
      "VOVWORLD": 9368,
      "ឈ្មួញ": 9369,
      "រមណី": 9370,
      "Ashton": 9371,
      "Rodri": 9372,
      "តៃវ៉ាន់": 9373,
      "ទស្សនាវដ្តី": 9374,
      "ប្រហាក់ប្រហែល": 9375,
      "AG": 9376,
      "BM": 9377,
      "Bây": 9378,
      "Cẩm": 9379,
      "Ethi": 9380,
      "Tom": 9381,
      "gas": 9382,
      "tiệm": 9383,
      "មរត": 9384,
      "អណ្ត": 9385,
      "៦៨": 9386,
      "thạc": 9387,
      "ការសេដ្ឋកិច្ច": 9388,
      "ការតម្រង់": 9389,
      "khe": 9390,
      "អ្នកជិតខាង": 9391,
      "បណ្តេញ": 9392,
      "សនី": 9393,
      "ចរន្ត": 9394,
      "សុក្រិដ្ឋ": 9395,
      "រងចាំ": 9396,
      "akia": 9397,
      "កូនប្រុស": 9398,
      "Armen": 9399,
      "ានិគម": 9400,
      "បញ្ញាត្តិ": 9401,
      "ហុងកុង": 9402,
      "សក្ដានុពល": 9403,
      "Houthi": 9404,
      "Bamboo": 9405,
      "oshenko": 9406,
      "Airways": 9407,
      "Vorachith": 9408,
      "Ethiop": 9409,
      "Armenia": 9410,
      "One": 9411,
      "nếp": 9412,
      "ជូរ": 9413,
      "ភៀស": 9414,
      "៥៣": 9415,
      "ngã": 9416,
      "ការរីក": 9417,
      "ការដោះ": 9418,
      "ការបង្រួបបង្រួម": 9419,
      "Trở": 9420,
      "ក្រង": 9421,
      "គ្រស្មាញ": 9422,
      "សម្រុះ": 9423,
      "បង្ខូច": 9424,
      "សង្ខេ": 9425,
      "ស្តេច": 9426,
      "ខុសឆ្គង": 9427,
      "ដំណើរការអភិវឌ្ឍន៍": 9428,
      "ស៊ិន": 9429,
      "បាតុក": 9430,
      "ហ្វឹក": 9431,
      "អាណានិគម": 9432,
      "ចម្បាំង": 9433,
      "កោណ": 9434,
      "Lim": 9435,
      "Từng": 9436,
      "mẻ": 9437,
      "ពាស": 9438,
      "រិយ": 9439,
      "ើច": 9440,
      "iệng": 9441,
      "ការបាត់បង់": 9442,
      "អ្នកដទៃ": 9443,
      "ins": 9444,
      "អង្គប្រជុំ": 9445,
      "មនុស្សលោក": 9446,
      "ក្លឹប": 9447,
      "robot": 9448,
      "Donetsk": 9449,
      "160": 9450,
      "CSU": 9451,
      "ព្រួយបារម្មណ៍": 9452,
      "Mubarak": 9453,
      "gawa": 9454,
      "ស្ងាត់": 9455,
      "Romania": 9456,
      "Romney": 9457,
      "រាងកាយ": 9458,
      "Hanoi": 9459,
      "អាហ្រ": 9460,
      "សណ្ដាប់ធ្នាប់": 9461,
      "ពិពិធកម្ម": 9462,
      "ភៀសខ្លួន": 9463,
      "សង្ខេប": 9464,
      "AA": 9465,
      "Hanh": 9466,
      "Hợi": 9467,
      "Kyaw": 9468,
      "Lượng": 9469,
      "Mô": 9470,
      "bón": 9471,
      "dời": 9472,
      "kĩ": 9473,
      "pro": 9474,
      "pol": 9475,
      "sy": 9476,
      "ún": 9477,
      "́ch": 9478,
      "ញែក": 9479,
      "តួក": 9480,
      "ហ្ក": 9481,
      "ឧទ្យ": 9482,
      "៧៧": 9483,
      "chay": 9484,
      "khuyên": 9485,
      "ប្រញ": 9486,
      "Chữ": 9487,
      "ូលិក": 9488,
      "សហគម": 9489,
      "អនុញ្ញា": 9490,
      "chua": 9491,
      "uni": 9492,
      "illi": 9493,
      "២០០៥": 9494,
      "Kara": 9495,
      "យានយន្ត": 9496,
      "Poroshenko": 9497,
      "អប្បបរមា": 9498,
      "Yinglu": 9499,
      "Ethiopia": 9500,
      "ឧទ្យាន": 9501,
      "83": 9502,
      "Lau": 9503,
      "Sto": 9504,
      "Stan": 9505,
      "TB": 9506,
      "VAS": 9507,
      "din": 9508,
      "lờ": 9509,
      "liều": 9510,
      "lim": 9511,
      "miệng": 9512,
      "sút": 9513,
      "ខួង": 9514,
      "បោរ": 9515,
      "រេ": 9516,
      "៨៨": 9517,
      "tiêm": 9518,
      "យ៉ាងតិច": 9519,
      "viêm": 9520,
      "ព័ត៌មានវិទ្យា": 9521,
      "ទឹកកក": 9522,
      "Abdel": 9523,
      "ស្មុគ្រស្មាញ": 9524,
      "កីឡ": 9525,
      "រុករក": 9526,
      "វិញ្ញាបនបត្រ": 9527,
      "Chavez": 9528,
      "បេឡារុស": 9529,
      "Harvard": 9530,
      "Bin": 9531,
      "Nho": 9532,
      "Res": 9533,
      "Xét": 9534,
      "dưa": 9535,
      "xách": 9536,
      "zania": 9537,
      "ãng": 9538,
      "ឃាត": 9539,
      "ជជែក": 9540,
      "ទម្": 9541,
      "វាស់": 9542,
      "ការបែកបាក់": 9543,
      "ប្រល័យ": 9544,
      "dor": 9545,
      "ប៉ាល់": 9546,
      "អនុប្រធានាធិបតី": 9547,
      "ទ្រី": 9548,
      "Hor": 9549,
      "muối": 9550,
      "Khuyến": 9551,
      "ទំលាប់": 9552,
      "Tanzania": 9553,
      "សាច់ញា": 9554,
      "កាតូលិក": 9555,
      "ទាមទា": 9556,
      "Noda": 9557,
      "OPEC": 9558,
      "ការរស់នៅ": 9559,
      "SHB": 9560,
      "ចំណង់ចំណូលចិត្ត": 9561,
      "យិនស៊ិន": 9562,
      "ឧបាយកល": 9563,
      "សម្រុះសម្រួល": 9564,
      "បាតុករ": 9565,
      "ទម្ងន់": 9566,
      "09": 9567,
      "1000": 9568,
      "Les": 9569,
      "Slov": 9570,
      "cro": 9571,
      "ráp": 9572,
      "Ước": 9573,
      "វង្ស": 9574,
      "អិន": 9575,
      "៥១": 9576,
      "ngu": 9577,
      "ការចេញ": 9578,
      "ប្រអប់": 9579,
      "ក្រិត្យ": 9580,
      "rad": 9581,
      "Hos": 9582,
      "ម៉ាស់": 9583,
      "rid": 9584,
      "ring": 9585,
      "បណ្តាលឲ្យ": 9586,
      "Ind": 9587,
      "ឈប់សម្រាក": 9588,
      "ប្លាស្ទ": 9589,
      "ដកស្រង់": 9590,
      "ដំណើការ": 9591,
      "ខ្ជាប់ខ្ជួន": 9592,
      "អគ្គីសនី": 9593,
      "Colom": 9594,
      "GRDP": 9595,
      "Bermúdez": 9596,
      "រមណីយដ្ឋាន": 9597,
      "តួកគី": 9598,
      "Slovakia": 9599,
      "Bốn": 9600,
      "Cây": 9601,
      "Ghi": 9602,
      "Kông": 9603,
      "Lạc": 9604,
      "MD": 9605,
      "Mẫn": 9606,
      "Tướng": 9607,
      "Vài": 9608,
      "Yến": 9609,
      "hư": 9610,
      "kẹ": 9611,
      "lôi": 9612,
      "ok": 9613,
      "Đồn": 9614,
      "đan": 9615,
      "ណាត់": 9616,
      "ន័រ": 9617,
      "រាលដាល": 9618,
      "លះបង់": 9619,
      "៥៦": 9620,
      "trượt": 9621,
      "ការលើក": 9622,
      "Thích": 9623,
      "của": 9624,
      "tựa": 9625,
      "ទុកឲ្យ": 9626,
      "souli": 9627,
      "ចម្រូង": 9628,
      "ដេញថ្លៃ": 9629,
      "Sisouli": 9630,
      "Cairo": 9631,
      "អនុស្សរណៈ": 9632,
      "ការលុបចោល": 9633,
      "Sisoulith": 9634,
      "Hán": 9635,
      "KT": 9636,
      "Kam": 9637,
      "lứa": 9638,
      "mét": 9639,
      "xóm": 9640,
      "ខឹង": 9641,
      "ញូវ": 9642,
      "phẫn": 9643,
      "ans": 9644,
      "េរី": 9645,
      "Kham": 9646,
      "ស្វឹន": 9647,
      "បើកបរ": 9648,
      "ចន្ទី": 9649,
      "អនុស្សារ": 9650,
      "ស្វ័យភាព": 9651,
      "Cari": 9652,
      "ឈឺចាប់": 9653,
      "មុតមាំ": 9654,
      "អភិវឌ្ឈន៏": 9655,
      "មរតក": 9656,
      "កីឡាករ": 9657,
      "Dựa": 9658,
      "Mạng": 9659,
      "băn": 9660,
      "net": 9661,
      "ning": 9662,
      "ranh": 9663,
      "ế": 9664,
      "Đàm": 9665,
      "បៀវ": 9666,
      "សៅ": 9667,
      "សឺន": 9668,
      "៩៧": 9669,
      "nghiệt": 9670,
      "tết": 9671,
      "វិសាលភាព": 9672,
      "មុខរបរ": 9673,
      "ក្លិន": 9674,
      "riz": 9675,
      "វាយន": 9676,
      "omics": 9677,
      "ធ្យូង": 9678,
      "1999": 9679,
      "២០០១": 9680,
      "Lich": 9681,
      "ម៉ូតូ": 9682,
      "រក្សារ": 9683,
      "ពូជសាសន៍": 9684,
      "រូបថតៈ": 9685,
      "ែលហ្សេ": 9686,
      "បេតិកភ័ណ្ឌ": 9687,
      "បង្វឹក": 9688,
      "yip": 9689,
      "វាសនា": 9690,
      "ដាណឺម៉ាក": 9691,
      "េរ៉ង់": 9692,
      "ចម្រូងចម្រ": 9693,
      "Cảm": 9694,
      "Gs": 9695,
      "Ic": 9696,
      "PA": 9697,
      "Uông": 9698,
      "Uyên": 9699,
      "Yêu": 9700,
      "Yoshi": 9701,
      "bar": 9702,
      "gai": 9703,
      "áz": 9704,
      "ំង": 9705,
      "nhẫn": 9706,
      "phớt": 9707,
      "ការឡើង": 9708,
      "chool": 9709,
      "Chợ": 9710,
      "luồng": 9711,
      "សំគាល់": 9712,
      "ក្ដាប់": 9713,
      "Diáz": 9714,
      "យល់ឃើញ": 9715,
      "រំលំ": 9716,
      "ទន្ទឹង": 9717,
      "Mah": 9718,
      "ហ្គោល": 9719,
      "gue": 9720,
      "Tayyip": 9721,
      "គូសបញ្ជាក់": 9722,
      "អាជ្ញាប័ណ្ណ": 9723,
      "អូបាម៉ា": 9724,
      "តំរូវការ": 9725,
      "ញឹកញាប់": 9726,
      "បៀវត្ស": 9727,
      "ែលហ្សេឡង់": 9728,
      "Iceland": 9729,
      "79": 9730,
      "Ful": 9731,
      "Mộc": 9732,
      "SA": 9733,
      "bấy": 9734,
      "nin": 9735,
      "rm": 9736,
      "tam": 9737,
      "tóm": 9738,
      "ញៀន": 9739,
      "ដ្ធ": 9740,
      "អុក": 9741,
      "អគារ": 9742,
      "៧២": 9743,
      "chừng": 9744,
      "ការផ្ទុះឡើង": 9745,
      "Trẻ": 9746,
      "វិញ្ញាណ": 9747,
      "២០២២": 9748,
      "អាត្រា": 9749,
      "ដំណាល": 9750,
      "ប្តឹង": 9751,
      "los": 9752,
      "កំដៅ": 9753,
      "ade": 9754,
      "មេបញ្ជាការ": 9755,
      "ប៉ះទ": 9756,
      "1986": 9757,
      "1989": 9758,
      "Asia": 9759,
      "Boliv": 9760,
      "បូពា៍": 9761,
      "អាយុជីវិត": 9762,
      "Siham": 9763,
      "ស្វាយចន្ទី": 9764,
      "Vienti": 9765,
      "Shopee": 9766,
[...]
