{
  "version": "1.0",
  "truncation": null,
  "padding": null,
  "added_tokens": [
    {
      "id": 0,
      "content": "<s>",
      "single_word": false,
      "lstrip": false,
      "rstrip": false,
      "normalized": false,
      "special": true
    },
    {
      "id": 1,
      "content": "<pad>",
      "single_word": false,
      "lstrip": false,
      "rstrip": false,
      "normalized": false,
      "special": true
    },
    {
      "id": 2,
      "content": "</s>",
      "single_word": false,
      "lstrip": false,
      "rstrip": false,
      "normalized": false,
      "special": true
    },
    {
      "id": 3,
      "content": "<unk>",
      "single_word": false,
      "lstrip": false,
      "rstrip": false,
      "normalized": false,
      "special": true
    }
  ],
  "normalizer": null,
  "pre_tokenizer": {
    "type": "ByteLevel",
    "add_prefix_space": true,
    "trim_offsets": true,
    "use_regex": true
  },
  "post_processor": {
    "type": "TemplateProcessing",
    "single": [
      {
        "SpecialToken": {
          "id": "<s>",
          "type_id": 0
        }
      },
      {
        "Sequence": {
          "id": "A",
          "type_id": 0
        }
      },
      {
        "SpecialToken": {
          "id": "</s>",
          "type_id": 0
        }
      }
    ],
    "pair": [
      {
        "SpecialToken": {
          "id": "<s>",
          "type_id": 0
        }
      },
      {
        "Sequence": {
          "id": "A",
          "type_id": 0
        }
      },
      {
        "SpecialToken": {
          "id": "</s>",
          "type_id": 0
        }
      },
      {
        "Sequence": {
          "id": "B",
          "type_id": 1
        }
      },
      {
        "SpecialToken": {
          "id": "</s>",
          "type_id": 1
        }
      }
    ],
    "special_tokens": {
      "</s>": {
        "id": "</s>",
        "ids": [
          2
        ],
        "tokens": [
          "</s>"
        ]
      },
      "<s>": {
        "id": "<s>",
        "ids": [
          0
        ],
        "tokens": [
          "<s>"
        ]
      }
    }
  },
  "decoder": {
    "type": "ByteLevel",
    "add_prefix_space": true,
    "trim_offsets": true,
    "use_regex": true
  },
  "model": {
    "type": "BPE",
    "dropout": null,
    "unk_token": null,
    "continuing_subword_prefix": null,
    "end_of_word_suffix": null,
    "fuse_unk": false,
    "vocab": {
      "<s>": 0,
      "<pad>": 1,
      "</s>": 2,
      "<unk>": 3,
      "!": 4,
      "\"": 5,
      "#": 6,
      "$": 7,
      "%": 8,
      "&": 9,
      "'": 10,
      "(": 11,
      ")": 12,
      "*": 13,
      "+": 14,
      ",": 15,
      "-": 16,
      ".": 17,
      "/": 18,
      "0": 19,
      "1": 20,
      "2": 21,
      "3": 22,
      "4": 23,
      "5": 24,
      "6": 25,
      "7": 26,
      "8": 27,
      "9": 28,
      ":": 29,
      ";": 30,
      "<": 31,
      "=": 32,
      ">": 33,
      "?": 34,
      "@": 35,
      "A": 36,
      "B": 37,
      "C": 38,
      "D": 39,
      "E": 40,
      "F": 41,
      "G": 42,
      "H": 43,
      "I": 44,
      "J": 45,
      "K": 46,
      "L": 47,
      "M": 48,
      "N": 49,
      "O": 50,
      "P": 51,
      "Q": 52,
      "R": 53,
      "S": 54,
      "T": 55,
      "U": 56,
      "V": 57,
      "W": 58,
      "X": 59,
      "Y": 60,
      "Z": 61,
      "[": 62,
      "\\": 63,
      "]": 64,
      "_": 65,
      "`": 66,
      "a": 67,
      "b": 68,
      "c": 69,
      "d": 70,
      "e": 71,
      "f": 72,
      "g": 73,
      "h": 74,
      "i": 75,
      "j": 76,
      "k": 77,
      "l": 78,
      "m": 79,
      "n": 80,
      "o": 81,
      "p": 82,
      "q": 83,
      "r": 84,
      "s": 85,
      "t": 86,
      "u": 87,
      "v": 88,
      "w": 89,
      "x": 90,
      "y": 91,
      "z": 92,
      "|": 93,
      "~": 94,
      "¡": 95,
      "¢": 96,
      "£": 97,
      "¤": 98,
      "¥": 99,
      "¦": 100,
      "§": 101,
      "¨": 102,
      "©": 103,
      "ª": 104,
      "«": 105,
      "¬": 106,
      "®": 107,
      "¯": 108,
      "°": 109,
      "±": 110,
      "²": 111,
      "³": 112,
      "´": 113,
      "µ": 114,
      "¶": 115,
      "·": 116,
      "¸": 117,
      "¹": 118,
      "º": 119,
      "»": 120,
      "¼": 121,
      "½": 122,
      "¾": 123,
      "¿": 124,
      "Â": 125,
      "Ã": 126,
      "Ä": 127,
      "Å": 128,
      "Æ": 129,
      "Ç": 130,
      "Ì": 131,
      "á": 132,
      "â": 133,
      "ä": 134,
      "å": 135,
      "æ": 136,
      "é": 137,
      "ï": 138,
      "Ĉ": 139,
      "Ġ": 140,
      "Ģ": 141,
      "ģ": 142,
      "Ĥ": 143,
      "ĥ": 144,
      "Ħ": 145,
      "ħ": 146,
      "Ĩ": 147,
      "ĩ": 148,
      "Ī": 149,
      "ī": 150,
      "Ĭ": 151,
      "ĭ": 152,
      "Į": 153,
      "į": 154,
      "İ": 155,
      "ı": 156,
      "Ĳ": 157,
      "ĳ": 158,
      "Ĵ": 159,
      "ĵ": 160,
      "Ķ": 161,
      "ķ": 162,
      "ĸ": 163,
      "Ĺ": 164,
      "ĺ": 165,
      "Ļ": 166,
      "ļ": 167,
      "Ľ": 168,
      "ľ": 169,
      "Ŀ": 170,
      "ŀ": 171,
      "Ł": 172,
      "ł": 173,
      "Ń": 174,
      "áŀ": 175,
      "áŁ": 176,
      "Ġáŀ": 177,
      "á»": 178,
      "áŁĴ": 179,
      "áŀ¶": 180,
      "áº": 181,
      "Ġt": 182,
      "ng": 183,
      "Ġc": 184,
      "áŀļ": 185,
      "áŀĵ": 186,
      "ĠÄ": 187,
      "ĠÄĳ": 188,
      "nh": 189,
      "Ãł": 190,
      "áŀĦ": 191,
      "áŀĢ": 192,
      "áŀ·": 193,
      "áŀı": 194,
      "áŀĺ": 195,
      "há»": 196,
      "Ġv": 197,
      "iá»": 198,
      "áŀŁ": 199,
      "Æ°": 200,
      "áŀĶ": 201,
      "Ã¡": 202,
      "Ġ,": 203,
      "áŀĽ": 204,
      "áŁĭ": 205,
      "ĠáŀĶ": 206,
      "Ġtr": 207,
      "Ġl": 208,
      "áŁĨ": 209,
      "Ġáŀĵ": 210,
      "ĠáŀĢ": 211,
      "áŀ»": 212,
      "áŀĻ": 213,
      "Æ°á»": 214,
      "Ġk": 215,
      "áº¿": 216,
      "áŀ¸": 217,
      "Ġth": 218,
      "iá»ĩ": 219,
      "áŁģ": 220,
      "ĠáŀŁ": 221,
      "Ġn": 222,
      "Ġh": 223,
      "Ġb": 224,
      "Ġ.": 225,
      "ĠÄĳá»": 226,
      "áº¡": 227,
      "Ġnh": 228,
      "Ġs": 229,
      "áŀħ": 230,
      "ĠT": 231,
      "áŀ¾": 232,
      "Ġm": 233,
      "Ġch": 234,
      "áŀĸ": 235,
      "áŀĳ": 236,
      "ĠáŁ": 237,
      "áº£": 238,
      "Ġg": 239,
      "áŁĦ": 240,
      "Ã¡c": 241,
      "Ġd": 242,
      "áŀİ": 243,
      "Ġp": 244,
      "ĠN": 245,
      "Ġng": 246,
      "Ãª": 247,
      "qu": 248,
      "Ġqu": 249,
      "áŀľ": 250,
      "ĠáŀĬ": 251,
      "Ã´": 252,
      "ĠvÃł": 253,
      "áŀ¼": 254,
      "Ã¢": 255,
      "Ġáŀ¢": 256,
      "Ġáŀļ": 257,
      "Ġcá»": 258,
      "Ġvá»": 259,
      "áŀĩ": 260,
      "áŁĤ": 261,
      "Ġhá»": 262,
      "Ġáŀĳ": 263,
      "Ġph": 264,
      "Ġkh": 265,
      "Ã³": 266,
      "á»ĳ": 267,
      "Ġáŀĺ": 268,
      "áº¥": 269,
      "á»Ļ": 270,
      "Ġáŀĩ": 271,
      "Ãªn": 272,
      "áŀĬ": 273,
      "áŀ½": 274,
      "áŁĩ": 275,
      "Ġthá»": 276,
      "Ã´ng": 277,
      "Ġcá»§": 278,
      "Ġtá»": 279,
      "ĠV": 280,
      "Ġcá»§a": 281,
      "Æ¡": 282,
      "an": 283,
      "Ġgi": 284,
      "Äĥ": 285,
      "ĠcÃ¡c": 286,
      "ĠC": 287,
      "áºŃ": 288,
      "ÃŃ": 289,
      "Ľi": 290,
      "ĠáŁĶ": 291,
      "áŀĤ": 292,
      "am": 293,
      "ong": 294,
      "áŀĹ": 295,
      "áº§": 296,
      "áŀī": 297,
      "Ġáŀĸ": 298,
      "áŀ¶áŁĨ": 299,
      "áŀĴ": 300,
      "áŁħ": 301,
      "áº¡i": 302,
      "Ġáŀħ": 303,
      "Æ°á»Ľ": 304,
      "iáº¿": 305,
      "Ã¬": 306,
      "ĠáŀĤ": 307,
      "ĠáŀĽ": 308,
      "uy": 309,
      "Ã¢n": 310,
      "Ġáŀı": 311,
      "iá»ĩt": 312,
      "á»±": 313,
      "ĠlÃł": 314,
      "Ġáŀľ": 315,
      "Ã£": 316,
      "ĠH": 317,
      "inh": 318,
      "Æ°á»Ŀ": 319,
      "Æ°á»£": 320,
      "áŀ¹": 321,
      "áŁĢ": 322,
      "áŀł": 323,
      "ĠÄĲ": 324,
      "ĠNam": 325,
      "iá»ĥ": 326,
      "áº¥t": 327,
      "ĠViá»ĩt": 328,
      "Æ°á»Ľc": 329,
      "ĠB": 330,
      "á»ĳc": 331,
      "Ġx": 332,
      "Ġchá»": 333,
      "Ġtrong": 334,
      "Ġr": 335,
      "ch": 336,
      "ĠáŀĲ": 337,
      "áŁĥ": 338,
      "ĠTr": 339,
      "Ġáŀģ": 340,
      "iÃªn": 341,
      "Ã¬nh": 342,
      "iá»ĩn": 343,
      "Ġ2": 344,
      "iá»ģ": 345,
      "áŀĭ": 346,
      "ĠcÃ³": 347,
      "ĠphÃ¡": 348,
      "Æ°Æ¡": 349,
      "Ãłnh": 350,
      "Æ°Æ¡ng": 351,
      "Ġvá»Ľi": 352,
      "Äĥm": 353,
      "áŁī": 354,
      "Æ°á»£c": 355,
      "ai": 356,
      "Ġ-": 357,
      "±c": 358,
      "áŁĦáŁĩ": 359,
      "Ãły": 360,
      "ĠáŀļáŀĶ": 361,
      "ĠnÆ°á»Ľc": 362,
      "ĠÄĳÃ£": 363,
      "Ġtrá»": 364,
      "Ãº": 365,
      "Ġmá»": 366,
      "Ġcho": 367,
      "ĠNg": 368,
      "ao": 369,
      "ÃŃnh": 370,
      "oÃł": 371,
      "áŀģ": 372,
      "ĠM": 373,
      "Ġáŀķ": 374,
      "Ġ1": 375,
      "ung": 376,
      "ĠáŀļáŀĶáŀŁ": 377,
      "áŁĲ": 378,
      "Ġlá»": 379,
      "áº§u": 380,
      "Ġá»": 381,
      "ĠáŀŁáŀĺ": 382,
      "¯ng": 383,
      "ĠÄĳÆ°á»£c": 384,
      "iá»ģu": 385,
      "Ġhá»Ļ": 386,
      "Ġtáº¿": 387,
      "©c": 388,
      "áº§n": 389,
      "Æ°á»Ŀng": 390,
      "áº¿t": 391,
      "Ġngh": 392,
      "©ng": 393,
      "ĠQ": 394,
      "áŀĢáŀĺ": 395,
      "ĠA": 396,
      "ĠP": 397,
      "Ġquan": 398,
      "ĠL": 399,
      "ĠÄĳá»Ļ": 400,
      "anh": 401,
      "há»§": 402,
      "áŀļáŀĳ": 403,
      "Ã²": 404,
      "iá»ĥn": 405,
      "áŁģáŁĩ": 406,
      "ĠnÄĥm": 407,
      "á»Ļt": 408,
      "áŁį": 409,
      "ĠQu": 410,
      "iáº¿n": 411,
      "ĠTh": 412,
      "Ġhá»Ļi": 413,
      "áŁł": 414,
      "Ġ20": 415,
      "ĠÄĳá»ĭ": 416,
      "Ġquy": 417,
      "áŀıáŀİ": 418,
      "ang": 419,
      "áŀĲ": 420,
      "á»ģ": 421,
      "áº£i": 422,
      "ĠáŀĻ": 423,
      "Ġmá»Ļt": 424,
      "Äĥng": 425,
      "áº·": 426,
      "Ġnhá»": 427,
      "Ġquá»ĳc": 428,
      "ĠáŀĨ": 429,
      "Ġgiá»": 430,
      "áº£n": 431,
      "áŀ¢": 432,
      "ĵng": 433,
      "ĠcÃ´ng": 434,
      "áŀļáŀĩ": 435,
      "Ã¢y": 436,
      "á»ģn": 437,
      "áºŃn": 438,
      "áŁĬ": 439,
      "ĠS": 440,
      "Ġvá»ģ": 441,
      "ĠK": 442,
      "áŀļáŀĶ": 443,
      "ĠáŀĴ": 444,
      "ĠÄĳá»ĥ": 445,
      "Ã¹": 446,
      "¥c": 447,
      "Ġ(": 448,
      "áº¿n": 449,
      "Ġ)": 450,
      "ĠPh": 451,
      "£p": 452,
      "áºŃp": 453,
      "oÃłn": 454,
      "ĠáŀļáŀĬ": 455,
      "ĠtÃ¡c": 456,
      "Ġnhá»¯ng": 457,
      "ĠÄĳá»ĭnh": 458,
      "Ġsáº": 459,
      "ay": 460,
      "iá»ĩc": 461,
      "ĠCh": 462,
      "iá»ĩp": 463,
      "Ġdá»": 464,
      "áŀķ": 465,
      "ĠphÃ¡t": 466,
      "ĠchÃŃnh": 467,
      "Ġtriá»ĥn": 468,
      "áŀº": 469,
      "Æ°á»Ŀi": 470,
      "âĢ": 471,
      "Ġhá»£p": 472,
      "ĠD": 473,
      "Ġdo": 474,
      "ĠQuá»ĳc": 475,
      "Ġkinh": 476,
      "ĭch": 477,
      "áº©": 478,
      "ĠdÃ¢n": 479,
      "Ġhá»į": 480,
      "ĠÄĳÃ³": 481,
      "Å©ng": 482,
      "Ġsá»": 483,
      "ĠÄĳá»Ļng": 484,
      "ĠngÆ°á»Ŀi": 485,
      "Ġviá»ĩc": 486,
      "ĠkhÃ´ng": 487,
      "áº¡o": 488,
      "Ġsá»±": 489,
      "Ġho": 490,
      "ĠÄĳá»ĵng": 491,
      "ĠâĢ": 492,
      "Ãłng": 493,
      "ĳi": 494,
      "áŁĪ": 495,
      "Ã½": 496,
      "Ġ/": 497,
      "ĠgiÃ¡": 498,
      "ĠnÃły": 499,
      "ĠthÃłnh": 500,
      "ĠáŁ¢": 501,
      "ĠáŀĹ": 502,
      "áº¯": 503,
      "ĠÄĳáº§u": 504,
      "áº£ng": 505,
      "á»Ļc": 506,
      "Ġhiá»ĩn": 507,
      "Ġdá»±": 508,
      "áº±": 509,
      "Ġgia": 510,
      "Ŀi": 511,
      "áºŃt": 512,
      "Ġtáº¡i": 513,
      "uyá»": 514,
      "áŀļáŀĢ": 515,
      "Ġnghá»": 516,
      "áº¡t": 517,
      "Ġáŀł": 518,
      "áº£o": 519,
      "Ã¡ch": 520,
      "ĠnhÆ°": 521,
      "á»ķ": 522,
      "Ġthu": 523,
      "áŀļáŀŁ": 524,
      "Æ¡n": 525,
      "Æ°á»Ł": 526,
      "Æ°á»Łng": 527,
      "ĠNh": 528,
      "Ġtá»«": 529,
      "ĠvÃło": 530,
      "įng": 531,
      "Ġáŀ¢áŀĵ": 532,
      "á»Ļi": 533,
      "ĠcÅ©ng": 534,
      "in": 535,
      "Ġnghiá»ĩp": 536,
      "Ã¡n": 537,
      "áŁı": 538,
      "Ġ201": 539,
      "ĳng": 540,
      "Ġsáº½": 541,
      "á»±c": 542,
      "áŁīáŀ¶": 543,
      "áº¥n": 544,
      "¡áŁ": 545,
      "Ġá»Ł": 546,
      "ĠnhÃ¢n": 547,
      "ĠÄĳá»ĳi": 548,
      "Ġthá»±c": 549,
      "ĠâĢľ": 550,
      "ĠÄĳá»ģ": 551,
      "áŀĮ": 552,
      "ħn": 553,
      "Ġsá»ĳ": 554,
      "on": 555,
      "Ġnhiá»ģu": 556,
      "Ãªu": 557,
      "ĠÄĳáº¿n": 558,
      "áŀĶáŀı": 559,
      "Ġhá»ĩ": 560,
      "Ġra": 561,
      "ĠtrÃªn": 562,
      "Ġcáº£": 563,
      "áŀĶáŀĵ": 564,
      "Ġthá»ĥ": 565,
      "Ġhá»įc": 566,
      "áº¥p": 567,
      "Ã¡ng": 568,
      "Ã¹ng": 569,
      "eo": 570,
      "iáº¿t": 571,
      "Ġvá»±c": 572,
      "Ä©": 573,
      "áŀĵáŀĢ": 574,
      "iá»ĩu": 575,
      "Ġbá»": 576,
      "Æ°á»Ľng": 577,
      "Ġcao": 578,
      "ĠcÆ¡": 579,
      "ĠtrÆ°á»Ŀng": 580,
      "Ġká»": 581,
      "ĠG": 582,
      "á»ĳi": 583,
      "ĠtÄĥng": 584,
      "Ġmáº¡": 585,
      "áŀļáŀİ": 586,
      "Ġkáº¿t": 587,
      "ÃŃch": 588,
      "ĠTrung": 589,
      "Ġtiáº¿": 590,
      "Ãºc": 591,
      "Ġlu": 592,
      "Ġhai": 593,
      "Ġcu": 594,
      "áŀ¡": 595,
      "Ġphá»": 596,
      "Ġnháº¥t": 597,
      "áŀļáŀĸ": 598,
      "ĠáŀĶáŀĦ": 599,
      "ĠáŁ¢áŁł": 600,
      "ĠphÃ¡p": 601,
      "uyÃªn": 602,
      "au": 603,
      "Äĥn": 604,
      "áŀľáŀı": 605,
      "áº±ng": 606,
      "ĠtÆ°": 607,
      "¯a": 608,
      "áŀļáŀı": 609,
      "ĠngÃły": 610,
      "áŀĩáŀĵ": 611,
      "Ġ:": 612,
      "Æ°á»£ng": 613,
      "en": 614,
      "ĠhÆ¡n": 615,
      "ĠhÃłng": 616,
      "Ġmá»Ľi": 617,
      "Ġdoanh": 618,
      "iá»ĩm": 619,
      "Ġlá»±c": 620,
      "Ġthá»Ŀi": 621,
      "Ġtrá»įng": 622,
      "Ġkhi": 623,
      "áŀĺáŀĵ": 624,
      "Ã´i": 625,
      "iá»ĥm": 626,
      "Ã¢u": 627,
      "ĠáŀŁáŀł": 628,
      "ĠnhÃł": 629,
      "áŀļáŀĴ": 630,
      "Ġnghá»ĭ": 631,
      "Ġ%": 632,
      "Ã¡o": 633,
      "Ġchá»§": 634,
      "ĠviÃªn": 635,
      "Ġ3": 636,
      "Ãłi": 637,
      "ĠÃ": 638,
      "Ġtiáº¿p": 639,
      "ia": 640,
      "oáº¡i": 641,
      "áŁĬáŀ¸": 642,
      "ĠMá»": 643,
      "Ã´n": 644,
      "Ġtháº¿": 645,
      "Ġtá»ķ": 646,
      "áŁīáŀ»": 647,
      "Ġquyá»ģn": 648,
      "00": 649,
      "ĠtoÃłn": 650,
      "Ġqua": 651,
      "ĠlÃłm": 652,
      "Ġkhu": 653,
      "ĠáŀĶáŀİ": 654,
      "ĠáŁ¢áŁłáŁ": 655,
      "Ãło": 656,
      "Ġthá»ĳng": 657,
      "ĠTá»ķ": 658,
      "Ġchá»©c": 659,
      "Ġchá»ī": 660,
      "ĠÄĳang": 661,
      "áŀ»áŁĨ": 662,
      "ĠBá»Ļ": 663,
      "Ġxu": 664,
      "Ġgiá»Ľi": 665,
      "Ġcuá»Ļc": 666,
      "áº¡n": 667,
      "áŀļáŀĺ": 668,
      "áº£m": 669,
      "á»ĵ": 670,
      "ĠtrÆ°á»Łng": 671,
      "áº·c": 672,
      "ĠAS": 673,
      "Ġlá»Ľ": 674,
      "ĠÄĳá»ķ": 675,
      "ĠhÃłnh": 676,
      "Ġsáº£n": 677,
      "ĠthÃ´ng": 678,
      "ĠASE": 679,
      "Ġquyáº¿t": 680,
      "ĠáŀĶáŀĵ": 681,
      "áŀĻáŀĢ": 682,
      "Ġpháº£i": 683,
      "AN": 684,
      "áº·t": 685,
      "Ġ5": 686,
      "ĠÄĳá»ķi": 687,
      "iá»ĥu": 688,
      "Ġmáº¡nh": 689,
      "ĠtrÃ¬nh": 690,
      "Ġtáº¡o": 691,
      "ĠASEAN": 692,
      "ĠMá»¹": 693,
      "áº«": 694,
      "Ã²ng": 695,
      "Ã¢m": 696,
      "ĠáŀĢáŀĺ": 697,
      "ĠI": 698,
      "Ã¡i": 699,
      "Ġ\"": 700,
      "Ġláº¡i": 701,
      "Ġquáº£": 702,
      "Ġná»": 703,
      "Ġgiá»¯a": 704,
      "ĠáŀĶáŀī": 705,
      "áŀľáŀĶ": 706,
      "iÃªu": 707,
      "áŀļáŀĦ": 708,
      "Ġphá»§": 709,
      "ĠNguyá»": 710,
      "ĠáŀŁáŀĵ": 711,
      "ĠChá»§": 712,
      "ĠNguyá»ħn": 713,
      "áŀĭáŀĢ": 714,
      "Ġdá»±ng": 715,
      "Ġbáº£o": 716,
      "Ġvá»¥": 717,
      "ĠxÃ£": 718,
      "Ġsinh": 719,
      "ĠTrong": 720,
      "Ġkho": 721,
      "áŀį": 722,
      "ĠU": 723,
      "Ġtá»ĭch": 724,
      "ĠtÆ°á»Ľng": 725,
      "áŀľáŀĮ": 726,
      "áº«n": 727,
      "Ġtrá»ĭ": 728,
      "ĠÄĳáº¡i": 729,
      "ĠTá»ķng": 730,
      "Ãºng": 731,
      "Ġxuáº¥t": 732,
      "Æ°a": 733,
      "ĠÄĳáº¡o": 734,
      "ĠX": 735,
      "ĠxÃ¢y": 736,
      "Ġlá»Ľn": 737,
      "Ã²n": 738,
      "ĠThá»§": 739,
      "Ġcáº¥p": 740,
      "Ġnhiá»ĩm": 741,
      "á»Ļng": 742,
      "ĠChÃŃnh": 743,
      "áŀ»áŁĩ": 744,
      "Ġbá»Ļ": 745,
      "Ġ4": 746,
      "ĠphÆ°Æ¡ng": 747,
      "áº³": 748,
      "ĠtiÃªu": 749,
      "Ġtá»¥c": 750,
      "ĠáŁĹ": 751,
      "ĠE": 752,
      "áº³ng": 753,
      "ĠlÃ£": 754,
      "Ġ19": 755,
      "ĠHá»Ļi": 756,
      "ĠáŁ¡áŁ": 757,
      "£i": 758,
      "Ġgiáº£i": 759,
      "Ġváº¥n": 760,
      "Ġtá»±": 761,
      "ĠÄĳiá»ģu": 762,
      "Ġgiao": 763,
      "ĠlÆ°á»£ng": 764,
      "áº©y": 765,
      "Ġtheo": 766,
      "Ã¡nh": 767,
      "Ġráº±ng": 768,
      "Ġtá»Ľi": 769,
      "Ãłn": 770,
      "ĠbÃ¬nh": 771,
      "ĠthÆ°Æ¡ng": 772,
      "ĠáŀŁáŀĦ": 773,
      "Ã¡t": 774,
      "ĠmÃł": 775,
      "ĠsÃ¡ch": 776,
      "ĠÄĲáº£ng": 777,
      "Ġthá»ĭ": 778,
      "ĠcÃ¡ch": 779,
      "Ġnay": 780,
      "ĠÄĳáº©y": 781,
      "īnh": 782,
      "ĠáŁ¢áŁłáŁ¡áŁ": 783,
      "áŀŁáŀĵ": 784,
      "ar": 785,
      "áŀļáŀ¢": 786,
      "Ġbiáº¿t": 787,
      "ĠÄĲá»": 788,
      "áº¯c": 789,
      "ĠThá»": 790,
      "áŀļáŀħ": 791,
      "Ġcáº§u": 792,
      "Ġtham": 793,
      "ĠÄĳiá»ĥm": 794,
      "er": 795,
      "ĠláºŃp": 796,
      "ĠlÃ½": 797,
      "ĠcÃ²n": 798,
      "ĠhÃ¬nh": 799,
      "Ġhiá»ĩu": 800,
      "ĠáŀĬáŀĽ": 801,
      "Ġláº§n": 802,
      "Ġáŀ¢áŀĦ": 803,
      "ĠnháºŃn": 804,
      "Ġtá»ĳ": 805,
      "ĠgiÃ¡o": 806,
      "Ġthá»©c": 807,
      "Ġan": 808,
      "Ġchiáº¿n": 809,
      "áŀĸáŀŁ": 810,
      "ĠthÃ¡ng": 811,
      "Ġsá»Ń": 812,
      "ĠnÄĥng": 813,
      "Ġáŀ¡": 814,
      "Ġy": 815,
      "áŀĢáŀļ": 816,
      "ĠgÃ³": 817,
      "Ġlá»£i": 818,
      "ĠtÃ¢m": 819,
      "Ġáŀĳáŀĳ": 820,
      "Ġhoáº¡t": 821,
      "Ġáŀ§": 822,
      "Ġtin": 823,
      "áº¡ch": 824,
      "al": 825,
      "Ã©": 826,
      "Ġmáº¡i": 827,
      "ĥn": 828,
      "oÃłi": 829,
      "Ġdá»¥": 830,
      "áŀĭáŀĺáŀĵ": 831,
      "Ġdá»ĭch": 832,
      "Ġkhá»": 833,
      "iá»ħn": 834,
      "áŁĮ": 835,
      "áŀĨ": 836,
      "Ä©nh": 837,
      "Ġbiá»ĩt": 838,
      "áŀĸáŀĽ": 839,
      "ĠÄĳáº¡t": 840,
      "Ġbá»ĭ": 841,
      "áŀ¿": 842,
      "Ġthá»©": 843,
      "Ġcáº§n": 844,
      "ĠHo": 845,
      "áº¥y": 846,
      "Ġcá»Ń": 847,
      "uyáº¿n": 848,
      "Ġdá»¥ng": 849,
      "iá»ģn": 850,
      "ĠáŀĤáŀİ": 851,
      "ĠlÃ£nh": 852,
      "Ã³a": 853,
      "ĠcÃ¹ng": 854,
      "ĠtÃŃch": 855,
      "áŀĽáŀĶ": 856,
      "áŀħáŀĢ": 857,
      "ĠKh": 858,
      "Ġ202": 859,
      "ĠnÃ³": 860,
      "Ġ;": 861,
      "áŁĸ": 862,
      "Ġcháº¿": 863,
      "ĠluáºŃt": 864,
      "áŀįáŀĵ": 865,
      "ĠÄĳÃ¢y": 866,
      "ĠnháºŃp": 867,
      "ĠgÃ³p": 868,
      "Ġ6": 869,
      "Ġsau": 870,
      "ĠtrÆ°á»Ľc": 871,
      "ĠlÄ©nh": 872,
      "ĠÃ½": 873,
      "áŀĵáŀĦ": 874,
      "ĠÄĳoÃłn": 875,
      "áº¥u": 876,
      "įi": 877,
      "áŀĪ": 878,
      "ĠthÃºc": 879,
      "ĠbÃªn": 880,
      "ĠLiÃªn": 881,
      "Ġbiá»ĥu": 882,
      "ĠtÃ¬nh": 883,
      "Ġáŀĺáŀĵ": 884,
      "Ã¡p": 885,
      "ĠÄĳáº¥t": 886,
      "Ġká»³": 887,
      "áŀļáŀĹ": 888,
      "ĠbÃ¡o": 889,
      "áŀŁáŀĺ": 890,
      "Ġtá»·": 891,
      "Ġgian": 892,
      "ĠliÃªn": 893,
      "ĠÃ´ng": 894,
      "Ġbá»ĳ": 895,
      "Ġráº¥t": 896,
      "áº±m": 897,
      "ĠKá»": 898,
      "ĠáŀĵáŀĻ": 899,
      "Ġtranh": 900,
      "áŀĦáŀĢ": 901,
      "Ġmu": 902,
      "Ġtá»īnh": 903,
      "ĠÄĳáº·c": 904,
      "áŀļáŀĻ": 905,
      "ĠáŀŁáŀĢáŀĺ": 906,
      "em": 907,
      "Ġtrung": 908,
      "Ġ7": 909,
      "ĠlÃªn": 910,
      "ĠphÃ²ng": 911,
      "áº¡m": 912,
      "ĠÄĲáº¡i": 913,
      "Ġpháº§n": 914,
      "ĠÄĲÃ´ng": 915,
      "áŀĽáŀĬ": 916,
      "Ġáŀļáŀľ": 917,
      "ĠkhÃ¡c": 918,
      "ĠthÄĥm": 919,
      "áŀķáŀĽ": 920,
      "Ġáŀıáŀĺ": 921,
      "Ġáŀ±": 922,
      "ĠTheo": 923,
      "ĠáŀĶáŀĢ": 924,
      "ĠáŀļáŀĻ": 925,
      "ĠÃ¡n": 926,
      "Ġtá»ĳt": 927,
      "áŀļáŀĬ": 928,
      "Ãªm": 929,
      "ĠtáºŃp": 930,
      "áŀĦáŀĺ": 931,
      "Ġkhai": 932,
      "áŀĤáŀĺ": 933,
      "Ġgiáº£m": 934,
      "áº¿u": 935,
      "Ġtrá»Ł": 936,
      "Ġáŀ¢áŀĹ": 937,
      "ĠGi": 938,
      "Ã²a": 939,
      "Ġcon": 940,
      "ĠÄĳi": 941,
      "Ġban": 942,
      "Ġtrá»£": 943,
      "Ġkiáº¿n": 944,
      "Ġáŀ¯": 945,
      "uyá»ĥn": 946,
      "Ġná»ģn": 947,
      "Ġá»©ng": 948,
      "Ãµ": 949,
      "ĠR": 950,
      "ĠáŀĶáŀħ": 951,
      "ĠnhÆ°ng": 952,
      "ĠthuáºŃn": 953,
      "áŀıáŀļáŀĩ": 954,
      "Ġcháº¥t": 955,
      "Ġtiáº¿n": 956,
      "el": 957,
      "ĠhÆ°á»Ľng": 958,
      "ĠvÃ¬": 959,
      "ĠtiÃªn": 960,
      "Ġsá»Ł": 961,
      "Ġmá»¥c": 962,
      "Ġchung": 963,
      "Ġlá»ĭch": 964,
      "Ġcá»±c": 965,
      "Ġkiá»ĩn": 966,
      "ĠcÆ°á»Ŀng": 967,
      "Ġkháº³ng": 968,
      "ĠKá»³": 969,
      "Ġthiáº¿t": 970,
      "Ġnháº±m": 971,
      "uyen": 972,
      "ĠCÃ´ng": 973,
      "áº¯t": 974,
      "ĠÄĳá»ĭa": 975,
      "áºŃy": 976,
      "Ġmá»Ł": 977,
      "ĠáŀŁáŀłáŀĤ": 978,
      "im": 979,
      "ĠÄĳáº£m": 980,
      "ĠHÃł": 981,
      "áŁĬáŀ¶": 982,
      "Æ°u": 983,
      "ĠáŀĪ": 984,
      "Ġváº«n": 985,
      "ĠtÃ´i": 986,
      "ĠáŁ¡": 987,
      "áŀħáŀĶ": 988,
      "áŀ¶áŁĸ": 989,
      "ĠáŁ£": 990,
      "Ġ8": 991,
      "Ġáŀ¢áŀı": 992,
      "ĠvÄĥn": 993,
      "Ġgá»": 994,
      "ĠnÃ³i": 995,
      "et": 996,
      "uyá»ģn": 997,
      "Ġchu": 998,
      "Ġdiá»ĩn": 999,
      "ĠEU": 1000,
      "or": 1001,
      "Ġso": 1002,
      "Ġthi": 1003,
      "ĠXu": 1004,
      "ĠNguyen": 1005,
      "Ġkháº©": 1006,
      "ĠhÃ³a": 1007,
      "Ġngoáº¡i": 1008,
      "Ġcá»Ļ": 1009,
      "ĠáŀķáŀĽ": 1010,
      "Ġ10": 1011,
      "ĠMinh": 1012,
      "ĠnghÄ©": 1013,
      "ĠF": 1014,
      "ĠngoÃłi": 1015,
      "«a": 1016,
      "ĠÄĳÃ¡nh": 1017,
      "Ġ9": 1018,
      "áŀĽáŀļ": 1019,
      "áŀħáŀĩ": 1020,
      "ĠmÃ¬nh": 1021,
      "áŀŁáŀĹ": 1022,
      "ĠtÃłi": 1023,
      "ĠkÃ½": 1024,
      "Ã¢ng": 1025,
      "Ġhoáº¡ch": 1026,
      "ĠngÃłnh": 1027,
      "Ġtriá»ĩu": 1028,
      "áº©m": 1029,
      "ĠchÃ¢u": 1030,
      "ĠNga": 1031,
      "ĠÄĳÆ°a": 1032,
      "Ġbáº£n": 1033,
      "áº½": 1034,
      "ĠchÃºng": 1035,
      "áŁĬáŀ»": 1036,
      "ĠNhÃł": 1037,
      "á»ķi": 1038,
      "Ġ2020": 1039,
      "ĠBÃ¬nh": 1040,
      "ĠnÃ´ng": 1041,
      "«ng": 1042,
      "Ġdiá»ħn": 1043,
      "áº»": 1044,
      "id": 1045,
      "ĠHoa": 1046,
      "áŀłáŀĶ": 1047,
      "ĠtrÃ²": 1048,
      "Ġbiáº¿n": 1049,
      "ov": 1050,
      "Ġvá»ĭ": 1051,
      "ĠáŀĺáŀĢ": 1052,
      "Ġkháº©u": 1053,
      "áŀĩáŀĢáŀĺ": 1054,
      "áº©n": 1055,
      "ĠáŀĢáŀŁ": 1056,
      "áŀĢáŀŁ": 1057,
      "Ġrá»Ļng": 1058,
      "ĠhÃ²a": 1059,
      "ĠCÃ¡c": 1060,
      "ĠÄĳÃ³ng": 1061,
      "Ġvá»¯ng": 1062,
      "ĠáŀķáŀĦ": 1063,
      "ĠkhÃ³": 1064,
      "áº¯n": 1065,
      "ĠUS": 1066,
      "áŀľáŀĢáŀĺ": 1067,
      "ĠnÃ¢ng": 1068,
      "Ġbáº±ng": 1069,
      "Ġninh": 1070,
      "áŀĺáŀĹ": 1071,
      "Ġcá»Ļng": 1072,
      "Ġgáº§n": 1073,
      "ĠNá»Ļi": 1074,
      "á»ĵn": 1075,
      "Ġchá»ĳng": 1076,
      "Å©": 1077,
      "es": 1078,
      "Ġnghá»ĩ": 1079,
      "uyá»ĩ": 1080,
      "ĠlÆ°á»£c": 1081,
      "Ġtiá»ģn": 1082,
      "áŀĢáŀĵ": 1083,
      "ĠAnh": 1084,
      "áº¡nh": 1085,
      "áŀĢáŀħ": 1086,
      "Ġcáº£nh": 1087,
      "Ġmá»©c": 1088,
      "ĠluáºŃn": 1089,
      "Âł": 1090,
      "Ġminh": 1091,
      "Ġáŀ²": 1092,
      "Ġá»ķ": 1093,
      "uá»ĵn": 1094,
      "ĠUSD": 1095,
      "ĠthÃ¬": 1096,
      "Ġcá»©": 1097,
      "áŀĶáŀħ": 1098,
      "ĠJ": 1099,
      "ĩnh": 1100,
      "áŀĹáŀĸáŀĽ": 1101,
      "Łi": 1102,
      "Ġvai": 1103,
      "Ġá»ķn": 1104,
      "¯u": 1105,
      "ĠthÆ°": 1106,
      "Ġáŀĩáŀĵ": 1107,
      "áº¹": 1108,
      "ĠnghÄ©a": 1109,
      "Ġtu": 1110,
      "Ġhá»Ĺ": 1111,
      "ĠCá»Ļng": 1112,
      "Ġmáº·t": 1113,
      "ĠchÃŃ": 1114,
      "Ġtháº£o": 1115,
      "Ġáŀİ": 1116,
      "áº§m": 1117,
      "Ĺi": 1118,
      "Ġtá»Ļc": 1119,
      "Ġtruyá»ģn": 1120,
      "Ãłm": 1121,
      "ĠPhÃ³": 1122,
      "áŀĺáŀĢ": 1123,
      "áŀħáŀŁ": 1124,
      "áº£nh": 1125,
      "Ġthá»§": 1126,
      "iáº¿u": 1127,
      "ĠáŁ¥": 1128,
      "ĠáŀĽáŀĢ": 1129,
      "Ġnguá»ĵn": 1130,
      "ĠhoÃłn": 1131,
      "ĠquÃ¢n": 1132,
      "áŀļáŀ¢áŀĹ": 1133,
      "Ġmá»įi": 1134,
      "ĠHá»": 1135,
      "ĠÄĳo": 1136,
      "ĠÃģ": 1137,
      "áŀĴáŀĺ": 1138,
      "ĠnhiÃªn": 1139,
      "Ġvá»ĩ": 1140,
      "ĠnguyÃªn": 1141,
      "áŀĢáŀĽ": 1142,
      "Ġphá»ĳ": 1143,
      "ĠnÃªn": 1144,
      "ĠrÃµ": 1145,
      "Ġsá»©c": 1146,
      "Ã¬n": 1147,
      "áŀĤáŀĢ": 1148,
      "Ġtháº¥y": 1149,
      "ĠáŀĶáŀļ": 1150,
      "ĠkhÃ¡ch": 1151,
      "000": 1152,
      "ĠváºŃy": 1153,
      "Ġhá»įp": 1154,
      "ĠVá»": 1155,
      "áŀħáŀŁáŀłáŀĶ": 1156,
      "ĠáŀĢáŀĵ": 1157,
      "ĠÆ°Æ¡ng": 1158,
      "Ġmáº¡ng": 1159,
      "Ġchuáº©n": 1160,
      "áŀĻáŀŁ": 1161,
      "ĠÄĳÆ°á»Ŀng": 1162,
      "áŀĺáŀı": 1163,
      "áŀĭáŀŁáŀĹ": 1164,
      "ĠthÆ°á»Ŀng": 1165,
      "as": 1166,
      "Ġtá»ķng": 1167,
      "ĠáŀķáŀĦáŀĬ": 1168,
      "Ġá»§": 1169,
      "Ġáŀ¥": 1170,
      "ĠquÃ¡": 1171,
      "Ġtáº¥t": 1172,
      "áŁīáŁģ": 1173,
      "ĠchÆ°a": 1174,
      "áŀļáŀļ": 1175,
      "Ġta": 1176,
      "ĠáŁ¢áŁ": 1177,
      "hi": 1178,
      "ĠÃĤ": 1179,
      "ĠchÆ°Æ¡ng": 1180,
      "Ãºp": 1181,
      "áº¯ng": 1182,
      "Ġpháº©m": 1183,
      "Ãºt": 1184,
      "EC": 1185,
      "ĠÃĶ": 1186,
      "áŀļáŀĤ": 1187,
      "Ġná»Ļi": 1188,
      "Ġhá»¯u": 1189,
      "ĠvÃ¹ng": 1190,
      "ĠÄĳá»ģu": 1191,
      "ĠÃĤu": 1192,
      "ĠgiÃºp": 1193,
      "ĠHá»ĵ": 1194,
      "Ġchuyáº¿n": 1195,
      "Ġbáº¥t": 1196,
      "ĠphÃŃ": 1197,
      "Ġáº£nh": 1198,
      "áŀļáŀķ": 1199,
      "ĠÃĶng": 1200,
      "Ġ000": 1201,
      "ĠbÆ°á»Ľc": 1202,
      "ĠtÃŃnh": 1203,
      "ĠW": 1204,
      "ĠbÃ¡n": 1205,
      "Ġngá»": 1206,
      "Ġtrá»±c": 1207,
      "áŀĻáŀĵ": 1208,
      "ĠcÃłng": 1209,
      "ĠkhÃŃ": 1210,
      "Ġchuyá»ĥn": 1211,
      "ĠÄĳÃłm": 1212,
      "ĠtrÃŃ": 1213,
      "á»ĳn": 1214,
      "Ġnhau": 1215,
      "ĳn": 1216,
      "uyá»ĩn": 1217,
      "ĠsÃ¡ng": 1218,
      "Ġáŀ¢áŀĤ": 1219,
      "Ġdá»¥c": 1220,
      "Ġlao": 1221,
      "oi": 1222,
      "ĠáŁ¤": 1223,
      "áŀļáŀľ": 1224,
      "ĠyÃªu": 1225,
      "Ġbiá»ĥn": 1226,
      "ĠTru": 1227,
      "áŀĵáŀĶ": 1228,
      "áŀİáŀı": 1229,
      "áŀľáŀĢ": 1230,
      "áŀļáŀĽ": 1231,
      "Ġkáº¿": 1232,
      "ĠNháºŃt": 1233,
      "ıi": 1234,
      "Æ¡i": 1235,
      "Ġvá»«a": 1236,
      "Ã³ng": 1237,
      "Ġáº": 1238,
      "Ġháº¡n": 1239,
      "áŀĬáŀĽ": 1240,
      "Ġsá»ĳng": 1241,
      "Ġná»Ĺ": 1242,
      "ĠBiá»ĥn": 1243,
      "Ġphá»¥c": 1244,
      "at": 1245,
      "©áŁ": 1246,
      "ĠLu": 1247,
      "Ġthay": 1248,
      "ĠAP": 1249,
      "Ġvá»ĳn": 1250,
      "Ġkhoáº£ng": 1251,
      "ĠBan": 1252,
      "ĠtrÃ¡ch": 1253,
      "áŁłáŁł": 1254,
      "áŀļáŀĺáŀĸ": 1255,
      "ĠhoÃ¡": 1256,
      "Ġsáº¯": 1257,
      "ran": 1258,
      "áŀĢáŀĬ": 1259,
      "áŀħáŀĸ": 1260,
      "ĠsÃ¡t": 1261,
      "Ã¨": 1262,
      "ĠXuÃ¢n": 1263,
      "áŀıáŀĺ": 1264,
      "ĠáŁ¢áŁłáŁ¢": 1265,
      "áŀĦáŀı": 1266,
      "Ġáŀĺáŀĩ": 1267,
      "á»Ń": 1268,
      "ĠtÆ°Æ¡ng": 1269,
      "ÃŃn": 1270,
      "ovid": 1271,
      "Ġcá»©u": 1272,
      "ĠBáº£n": 1273,
      "Ġá»¦": 1274,
      "ĠáŀĶáŀĳ": 1275,
      "Ġá»¦y": 1276,
      "ĠtrÃ¬": 1277,
      "Ġcáº£i": 1278,
      "Ġquáº£n": 1279,
      "ĠÄĲÃ¢y": 1280,
      "Ġ12": 1281,
      "it": 1282,
      "ĠmÃ´i": 1283,
      "ĠhoÃł": 1284,
      "áŀĶáŀĬ": 1285,
      "Ġcáº¡nh": 1286,
      "áº¡ng": 1287,
      "Ġdu": 1288,
      "Ġháº¿t": 1289,
      "Æ°ng": 1290,
      "ĠkhÄĥn": 1291,
      "ĠnÃło": 1292,
      "ĠluÃ´n": 1293,
      "ĠhÆ°á»Łng": 1294,
      "ĠNgoáº¡i": 1295,
      "ĠY": 1296,
      "ĠTriá»ģu": 1297,
      "ĠÄĲá»ĵng": 1298,
      "ĠTuy": 1299,
      "ĠHÃłn": 1300,
      "Ġto": 1301,
      "us": 1302,
      "Ġcá»ĳ": 1303,
      "áºŃu": 1304,
      "ĠVÄĥn": 1305,
      "ĠO": 1306,
      "áŀĦáŀĵ": 1307,
      "ĠCovid": 1308,
      "áŀĺáŀł": 1309,
      "áŀĦáŀĳ": 1310,
      "ĠÄĳáº£o": 1311,
      "ĠÃŃch": 1312,
      "áŀļáŀĢáŀĶáŀĬ": 1313,
      "ĠGD": 1314,
      "Ġthiá»ĩn": 1315,
      "Ġáŀĩáŀĺ": 1316,
      "ĠáŀĸáŀĦ": 1317,
      "ĠÄĳiá»ĩn": 1318,
      "ĠphÃ¡n": 1319,
      "ĠcÃ¡o": 1320,
      "áŀ±": 1321,
      "Ġ11": 1322,
      "Ġká»·": 1323,
      "ĠAPEC": 1324,
      "Ã¬m": 1325,
      "mp": 1326,
      "Ġtá»«ng": 1327,
      "Ġmang": 1328,
      "Ġáŀ¯áŀĢ": 1329,
      "ĠÂł": 1330,
      "ĠBÃŃ": 1331,
      "Ġmuá»ĳn": 1332,
      "ĠThÃ¡i": 1333,
      "ĠÄĳáº·t": 1334,
      "ĠÄĳáº£ng": 1335,
      "ĠCam": 1336,
      "ĠPhu": 1337,
      "ra": 1338,
      "Ġsong": 1339,
      "ĠtÃ´n": 1340,
      "Ġkiá»ĥm": 1341,
      "Ġduy": 1342,
      "Ġhuy": 1343,
      "áŀļáŀĨ": 1344,
      "ĠÄĳa": 1345,
      "Ġpháº¡m": 1346,
      "Ġsu": 1347,
      "Ġ2019": 1348,
      "Ã©t": 1349,
      "ĠchuyÃªn": 1350,
      "ĠTrá»": 1351,
      "Ġvá»įng": 1352,
      "Ġná»¯a": 1353,
      "ĠCu": 1354,
      "Ġáŀĥ": 1355,
      "ĠÄĳoáº¡n": 1356,
      "ĠtuyÃªn": 1357,
      "ĠtÃŃn": 1358,
      "Ġmua": 1359,
      "ĠcÃ¡n": 1360,
      "ĠTiÃªn": 1361,
      "Ġbu": 1362,
      "Ġ2018": 1363,
      "Ġká»ĥ": 1364,
      "ĠáŀĽáŀĳ": 1365,
      "un": 1366,
      "ĠTrÆ°á»Ŀng": 1367,
      "iá»ģm": 1368,
      "áŀĶáŀĦ": 1369,
      "áŀĺáŀĳ": 1370,
      "Ã¡m": 1371,
      "Ġty": 1372,
      "Ġbá»ģn": 1373,
      "ĠngÃ¢n": 1374,
      "ĠtÃ¬m": 1375,
      "ĠHiá»ĩp": 1376,
      "ĠNhÃ¢n": 1377,
      "ĠsÃ¢u": 1378,
      "Ġvi": 1379,
      "Ġmá»ĳi": 1380,
      "áŀļáŀł": 1381,
      "pu": 1382,
      "įn": 1383,
      "áŀļáŀ¡": 1384,
      "Ġbiá»ĩn": 1385,
      "ĠLuáºŃt": 1386,
      "Ġcam": 1387,
      "ĠDo": 1388,
      "Ġdáº«n": 1389,
      "ĠTá»": 1390,
      "ĠáŀļáŀĢ": 1391,
      "ĠChÃŃ": 1392,
      "ĠmÃ´": 1393,
      "is": 1394,
      "Ġgiá»¯": 1395,
      "ad": 1396,
      "áŀĦáŀĶ": 1397,
      "Ġbáº¯t": 1398,
      "Ġhá»ĵ": 1399,
      "ĠNhá»": 1400,
      "ĠdÃłi": 1401,
      "áŀŁáŀĵáŀĢ": 1402,
      "iáº¿m": 1403,
      "ĠáŀĴáŀĵ": 1404,
      "áº·p": 1405,
      "Ġbao": 1406,
      "ĠNghá»": 1407,
      "puch": 1408,
      "ĠáŀĳáŀŁ": 1409,
      "Ġmáº½": 1410,
      "puchia": 1411,
      "ĠCampuchia": 1412,
      "Ġem": 1413,
      "Ġtinh": 1414,
      "Ġchia": 1415,
      "ĠphÃ¢n": 1416,
      "Ġkhoa": 1417,
      "Ġbáº§u": 1418,
      "ĠthÃªm": 1419,
      "Ġáŀĺáŀł": 1420,
      "Ġbá»ı": 1421,
      "ac": 1422,
      "Ġhay": 1423,
      "Ġnháº¥n": 1424,
      "ĠÄĲá»ĳi": 1425,
      "Ġviá»ĩn": 1426,
      "ĠAn": 1427,
      "áŀıáŀĳ": 1428,
      "ĠVá»Ľi": 1429,
      "áŀĥ": 1430,
      "Ġgiai": 1431,
      "Ġlo": 1432,
      "ĠDÆ°Æ¡ng": 1433,
      "Ġcoi": 1434,
      "ĠTP": 1435,
      "há»§ng": 1436,
      "Ġmá»Ĺi": 1437,
      "áŀĶáŀī": 1438,
      "áŀĢáŀĤ": 1439,
      "áŀĦáŀ¢": 1440,
      "áŀĶáŀĳ": 1441,
      "Ġchá»©ng": 1442,
      "áŀĻáŀĺ": 1443,
      "Ġtrao": 1444,
      "áŀĴáŀĹ": 1445,
      "áŀĺáŀħ": 1446,
      "Ġcháº¥p": 1447,
      "áŀļáŀ¢áŀĵ": 1448,
      "Ã¡y": 1449,
      "Ġgáº·p": 1450,
      "ĠTrump": 1451,
      "ĠPhÃºc": 1452,
      "ĠSa": 1453,
      "ĠáŀĶáŀļáŀĳ": 1454,
      "áŀĵáŀĹ": 1455,
      "iÃªm": 1456,
      "Ġtra": 1457,
      "įc": 1458,
      "ĠÄĳÆ¡n": 1459,
      "áº§y": 1460,
      "ĠáŁ¦": 1461,
      "Ġá»§ng": 1462,
      "Æ°á»£t": 1463,
      "áŀģáŀİ": 1464,
      "áŀĻáŀħ": 1465,
      "Ġlá»Ŀi": 1466,
      "Ġkhá»§ng": 1467,
      "Ġ2017": 1468,
      "om": 1469,
      "ĠphÃ¹": 1470,
      "Ġáŀ§áŀŁ": 1471,
      "ĠKim": 1472,
      "Ġthuá»Ļc": 1473,
      "ĠPhÃº": 1474,
      "Ġbáº¡n": 1475,
      "ĠÄĳÃłn": 1476,
      "ĠThá»ĭ": 1477,
      "áŁ¡": 1478,
      "Ġáŀ¬": 1479,
      "Ġphá»¥": 1480,
      "Ġloáº¡i": 1481,
      "ĠÄĲá»©c": 1482,
      "ĠHai": 1483,
      "ĠÆ°u": 1484,
      "áŀĶáŀİ": 1485,
      "ĠNÄĥm": 1486,
      "Ġáŀĳáŀĵ": 1487,
      "Ġáŀ±áŀĢ": 1488,
      "á»ĵm": 1489,
      "Ġtráº»": 1490,
      "áŀĴáŀķáŀĽ": 1491,
      "ĠNhá»¯ng": 1492,
      "Ġgá»ĵm": 1493,
      "ĠLÃło": 1494,
      "Ġchi": 1495,
      "Æ°á»¡": 1496,
      "Ġhoáº·c": 1497,
      "Ġbá»ĳi": 1498,
      "ĠáŀŁáŀłáŀĤáŀĺáŀĵ": 1499,
      "ĠÆ°á»Ľc": 1500,
      "áŀĽáŀĵ": 1501,
      "áº¥m": 1502,
      "áº¹p": 1503,
      "Ġáŀ¢áŀĶ": 1504,
      "il": 1505,
      "ĠÄĳÃło": 1506,
      "ĠxÃ¡c": 1507,
      "áŁ¥": 1508,
      "ĠNghá»ĭ": 1509,
      "ĠáŀĤáŀĺ": 1510,
      "ĭp": 1511,
      "Ġyáº¿u": 1512,
      "Ġbá»ĩnh": 1513,
      "áŀıáŀĽ": 1514,
      "Ġgá»įi": 1515,
      "áŀĵáŀ¡": 1516,
      "Ġtho": 1517,
      "ĠÄĲiá»ģu": 1518,
      "Ġnhanh": 1519,
      "ĠThanh": 1520,
      "ĠTáº¡i": 1521,
      "áŀıáŀĶ": 1522,
      "ĠÄĳÃ¡ng": 1523,
      "ĠháºŃu": 1524,
      "Ġ0": 1525,
      "Ġdung": 1526,
      "Ġ2016": 1527,
      "ĠÄĳá»ĳ": 1528,
      "ĠSy": 1529,
      "ĠÄĳá»§": 1530,
      "áŀĴáŀŁ": 1531,
      "Ã³m": 1532,
      "Ġnáº¿u": 1533,
      "Ġxá»Ń": 1534,
      "iÃª": 1535,
      "Ġ200": 1536,
      "áŀ²": 1537,
      "áŀĴáŀĵ": 1538,
      "Ġtháº§n": 1539,
      "ĠPhÃ¡p": 1540,
      "ĠbÃłi": 1541,
      "Ġchá»įn": 1542,
      "Ġcuá»ĳi": 1543,
      "Ġkhiáº¿n": 1544,
      "ĠtÆ°á»Łng": 1545,
      "áŀĻáŀĶ": 1546,
      "ĠViá»ĩc": 1547,
      "Ġsáº»": 1548,
      "Ġthuáº¿": 1549,
      "ĠIran": 1550,
      "áŀĺáŀİ": 1551,
      "ĠÄĳÃ´": 1552,
      "ĠáŁ¢áŁłáŁ¢áŁł": 1553,
      "ĠTrá»įng": 1554,
      "ĠÄĳá»Ļi": 1555,
      "Ġlá»ĩ": 1556,
      "ĠxÃ©t": 1557,
      "Ġsang": 1558,
      "áŀĺáŀĤ": 1559,
      "Æ°á»¡ng": 1560,
      "áŀıáŀĵ": 1561,
      "Ãłu": 1562,
      "OV": 1563,
      "ĠQuang": 1564,
      "ĠSyr": 1565,
      "ĠSau": 1566,
      "PT": 1567,
      "ĠáŁ§": 1568,
      "áŀļáŀĳáŀŁ": 1569,
      "ing": 1570,
      "ıa": 1571,
      "Ġchá»ĭ": 1572,
      "ĠmÃ¡y": 1573,
      "ĠÄĳá»Ļc": 1574,
      "ĠdÃ¹": 1575,
      "ĠSyria": 1576,
      "ro": 1577,
      "áŀĦáŀĩ": 1578,
      "Ġ2015": 1579,
      "TA": 1580,
      "ĠKinh": 1581,
      "Ġtáº§m": 1582,
      "ĠThÃłnh": 1583,
      "ĠgÃ¢y": 1584,
      "Ġphá»ĳi": 1585,
      "Ġsáº¯c": 1586,
      "ĠbiÃªn": 1587,
      "áŀĦáŀľ": 1588,
      "áŀĺáŀľ": 1589,
      "ĠÄĳáº¥u": 1590,
      "Ġná»ĳi": 1591,
      "ter": 1592,
      "ĠáŁ¡áŁ©áŁ": 1593,
      "áŀĢáŀľ": 1594,
      "Ġkháº£": 1595,
      "ĠMá»Ļt": 1596,
      "Ġnghiá»ĩm": 1597,
      "ĠÄĳá»ĳc": 1598,
      "áŀļáŀĶáŀĦ": 1599,
      "áŀĦáŀ¢áŀŁ": 1600,
      "Ġ30": 1601,
      "áŁ¢": 1602,
      "Ġlá»Ľp": 1603,
      "ĠáŀļáŀŁ": 1604,
      "Ġcá»Ńa": 1605,
      "ĠcÃ¡": 1606,
      "áº·ng": 1607,
      "áŀĽáŀĢ": 1608,
      "tin": 1609,
      "Ġháº¡t": 1610,
      "Ġpháº£n": 1611,
      "ĠhÃºt": 1612,
      "ĠnghiÃªn": 1613,
      "Ġcá»¥": 1614,
      "ĠÄĳÃ¬nh": 1615,
      "ĠthÃ¡ch": 1616,
      "Ġsá»©": 1617,
      "Ġcung": 1618,
      "áŀŁáŀħ": 1619,
      "Ġphiáº¿u": 1620,
      "áŀŁáŀļ": 1621,
      "ĠBáº¯c": 1622,
      "ĠThá»©": 1623,
      "Ġliá»ĩu": 1624,
      "áŀĢáŀĢáŀĺ": 1625,
      "ĠTrÆ°á»Ľc": 1626,
      "Ġgiá»Ŀ": 1627,
      "áº¡p": 1628,
      "ĠÃ¡p": 1629,
      "Ġnhu": 1630,
      "Ġhiá»ĩp": 1631,
      "Ġthoáº¡i": 1632,
      "áŀĦáŀļ": 1633,
      "ĠvÃłng": 1634,
      "ĠáŀŁáŀłáŀĶ": 1635,
      "Ġtuyá»ĥn": 1636,
      "áŀıáŀĹ": 1637,
      "iÃªng": 1638,
      "áŀĶáŀĢ": 1639,
      "áŀİáŀĦ": 1640,
      "ĠVÃ¬": 1641,
      "Ġtráº£": 1642,
      "ĠÄĳÃºng": 1643,
      "Ġáŀĸáŀĵ": 1644,
      "Ġrá»": 1645,
      "Ġsuáº¥t": 1646,
      "Ġmong": 1647,
      "Ġtiáº¿ng": 1648,
      "Ġtrang": 1649,
      "Ġsá»Ńa": 1650,
      "ic": 1651,
      "áŀŁáŀĩ": 1652,
      "Ġbá»ķ": 1653,
      "Ġtáº¯c": 1654,
      "Ġká»¹": 1655,
      "ĠáŁ¨": 1656,
      "ĠThÆ°Æ¡ng": 1657,
      "ĠÄĳá»Ŀi": 1658,
      "ĠÄĳáº¹p": 1659,
      "ĠTÃ¢y": 1660,
      "ĠsoÃ¡t": 1661,
      "Æ°á»Ľi": 1662,
      "ĠNgÃły": 1663,
      "ĠLan": 1664,
      "áŀĲáŀĽ": 1665,
      "áŀĲáŀĻ": 1666,
      "II": 1667,
      "ĠáŀĦ": 1668,
      "Ġhá»ĵi": 1669,
      "Ġáº¤": 1670,
      "Ġthanh": 1671,
      "ĠNgoÃłi": 1672,
      "Ġáº¤n": 1673,
      "ĠHoÃł": 1674,
      "Ã©p": 1675,
      "áŀĻáŀıáŀĺ": 1676,
      "á»·": 1677,
      "ĠPhÃ¡t": 1678,
      "ĠáŀŁáŀĹ": 1679,
      "ĠÄĲá»Ļ": 1680,
      "ĠNgÃ¢n": 1681,
      "Ġlai": 1682,
      "ĠáŀĸáŀĽ": 1683,
      "Ġba": 1684,
      "ĠváºŃn": 1685,
      "ĠTH": 1686,
      "Ġhiá»ĥu": 1687,
      "Ġ15": 1688,
      "áŀłáŀĢáŀĺ": 1689,
      "áŀĩáŀĺ": 1690,
      "ĠbÃły": 1691,
      "ĠÄĳÄĥng": 1692,
      "á»ĳng": 1693,
      "ĠdÃ¹ng": 1694,
      "ĠVi": 1695,
      "ĠâĢĵ": 1696,
      "ĠIn": 1697,
      "ĠVá»ģ": 1698,
      "áŀĺáŀĶ": 1699,
      "ĠvÆ°á»£t": 1700,
      "ĠnhÃ³m": 1701,
      "Ã¨o": 1702,
      "Ġáŀļáŀł": 1703,
      "Ġkhá»Łi": 1704,
      "áº¡y": 1705,
      "ĠbÃł": 1706,
      "ĠáŀļáŀĦ": 1707,
      "ĠMo": 1708,
      "ĠÄĳá»©ng": 1709,
      "Ġxem": 1710,
      "ĠHiáº¿n": 1711,
      "ba": 1712,
      "áŀļáŀĹáŀĸ": 1713,
      "ÄĲ": 1714,
      "ĠDon": 1715,
      "áŀŁáŀı": 1716,
      "ĠnÃªu": 1717,
      "ap": 1718,
      "áŀĦáŀĸ": 1719,
      "ĠÄĥn": 1720,
      "Ġáŀĺáŀı": 1721,
      "Ġanh": 1722,
      "áŀĻáŀĬ": 1723,
      "ĠtÃ¡i": 1724,
      "Ġtháº³ng": 1725,
      "áŀĤáŀĹ": 1726,
      "Ìģ": 1727,
      "ĠnghiÃªm": 1728,
      "ĠnhÃ¬n": 1729,
      "ĠnghÃ¨o": 1730,
      "ĠChÃ¢u": 1731,
      "ĠáŀĩáŀĶ": 1732,
      "ĠlÆ°u": 1733,
      "Ġtá»Ń": 1734,
      "ĠáŁł": 1735,
      "áº£y": 1736,
      "áº¡c": 1737,
      "Ġcháº·t": 1738,
      "áŀıáŀĢ": 1739,
      "Ġdáº¥u": 1740,
      "Ġhá»ıi": 1741,
      "ĠHáº£i": 1742,
      "ĠÄĲá»ĥ": 1743,
      "Ġtri": 1744,
      "Ġphong": 1745,
      "Ġcáº¥u": 1746,
      "ĠphÃª": 1747,
      "Ġnhá»ı": 1748,
      "ĠnÆ¡i": 1749,
      "ak": 1750,
      "ĠáŁ¡áŁł": 1751,
      "ĠgiÃ¡m": 1752,
      "ald": 1753,
      "ĠTráº§n": 1754,
      "áŀļáŀģ": 1755,
      "ĠÄĳáº§y": 1756,
      "ton": 1757,
      "ĠHoÃłng": 1758,
      "Ġbá»Łi": 1759,
      "áŀıáŀķáŀĽ": 1760,
      "ĠchÃº": 1761,
      "Ġtá»ı": 1762,
      "ĠthuáºŃt": 1763,
      "Ġtáº¥n": 1764,
      "áŀĳáŀĦ": 1765,
      "áŀıáŀģ": 1766,
      "Ġcáº£m": 1767,
      "ĠáŀħáŀĦ": 1768,
      "áºŃm": 1769,
      "ĠxuyÃªn": 1770,
      "áŀłáŀļáŀİ": 1771,
      "Ġ13": 1772,
      "ĠáŀķáŀĽáŀĶ": 1773,
      "Ġgáº¯n": 1774,
      "ĠÄĳá»Ļt": 1775,
      "ĠtÆ°á»£ng": 1776,
      "ĠphÃŃa": 1777,
      "Ġná»ķi": 1778,
      "ĠLong": 1779,
      "áŀŁáŀħáŀļáŀİ": 1780,
      "ĠsÄ©": 1781,
      "ĠTu": 1782,
      "ĠÄĳÃ¡p": 1783,
      "áŀĤáŀĩ": 1784,
      "ĠáŀŁáŀļ": 1785,
      "ol": 1786,
      "ĠÄĳá»īnh": 1787,
      "ĠriÃªng": 1788,
      "ĠDÅ©ng": 1789,
      "Ġthá»ıa": 1790,
      "ĠDu": 1791,
      "áŀĺáŀŁ": 1792,
      "áŀļáŀĶáŀļáŀĳ": 1793,
      "Ġmiá»ģn": 1794,
      "Ġghi": 1795,
      "áŀĻáŀĹ": 1796,
      "ĠáŀĻáŀĵ": 1797,
      "áŀĢáŀı": 1798,
      "ĠNhÆ°ng": 1799,
      "Ġáŀ¥áŀİ": 1800,
      "Ġngay": 1801,
      "ĠáŀĢáŀı": 1802,
      "Ġkhá»ķ": 1803,
      "re": 1804,
      "Ġnghá»ģ": 1805,
      "ĠDonald": 1806,
      "áŀħáŀħ": 1807,
      "áŀĺáŀļáŀĻ": 1808,
      "Ġbay": 1809,
      "ĠThu": 1810,
      "Ġhoáº£ng": 1811,
      "ĠlÃ²ng": 1812,
      "ĠHiá»ĩn": 1813,
      "Ġdi": 1814,
      "ĠthÃ¢n": 1815,
      "ĠáŀľáŀĶ": 1816,
      "ĠtoÃ¡n": 1817,
      "ĠPháº¡m": 1818,
      "ĠViet": 1819,
      "ĠGiÃ¡m": 1820,
      "Ġáº¢": 1821,
      "ĠGDP": 1822,
      "ĠlÃ¢u": 1823,
      "Ġkhoáº£n": 1824,
      "ĠbÃłn": 1825,
      "ĠnhÅ©ng": 1826,
      "ĠHá»£p": 1827,
      "ĠvÅ©": 1828,
      "áŀļáŀĪ": 1829,
      "ĠVOV": 1830,
      "áº§ng": 1831,
      "Ġcá»§ng": 1832,
      "Ġtáº§ng": 1833,
      "Ġniá»ĩm": 1834,
      "ĠLá»": 1835,
      "ĠSá»": 1836,
      "ĠXuan": 1837,
      "ND": 1838,
      "áŀĽáŀĦáŀĳ": 1839,
      "ĠLÃª": 1840,
      "ĠChá»": 1841,
      "áŀıáŀı": 1842,
      "ĠTá»«": 1843,
      "Ġ2013": 1844,
      "ÃŃt": 1845,
      "ĠáŀĶáŀĬ": 1846,
      "áŀĶáŀĴáŀĺ": 1847,
      "ĠváºŃt": 1848,
      "áº¯m": 1849,
      "Ġháº¡": 1850,
      "áŀĢáŀĽáŀľ": 1851,
      "ĠÄĲáº·c": 1852,
      "ĠáŀŁáŀĺáŀı": 1853,
      "ĠÄĲT": 1854,
      "ĠthÃŃch": 1855,
      "áŀĽáŀĸ": 1856,
      "á»±a": 1857,
      "Ġtráº¡ng": 1858,
      "ĠQuy": 1859,
      "ĠkÃ©": 1860,
      "Ġtiá»ģm": 1861,
      "áŀļáŀĵ": 1862,
      "ĠphÃ³ng": 1863,
      "ĠtráºŃn": 1864,
      "áŀļáŀľáŀı": 1865,
      "Ġtháº¯ng": 1866,
      "ĠÄĲH": 1867,
      "CM": 1868,
      "Ġhuyá»ĩn": 1869,
      "ĠlÆ°Æ¡ng": 1870,
      "Ġdanh": 1871,
      "ĠCá»": 1872,
      "Ġ2021": 1873,
      "áŀĲáŀĺ": 1874,
      "ĠTáº¥n": 1875,
      "Ã´m": 1876,
      "Ġtá»±u": 1877,
      "Ġcá»ķ": 1878,
      "and": 1879,
      "Ġáŀ¢áŀĴ": 1880,
      "Ġ14": 1881,
      "Ġná»¯": 1882,
      "VN": 1883,
      "áŀİáŀĹ": 1884,
      "Ġ25": 1885,
      "áŀĤáŀı": 1886,
      "áŀĮáŀĽ": 1887,
      "Ġkhá»ĳi": 1888,
      "ĠcÆ°": 1889,
      "ĠrÃłng": 1890,
      "ĠkÃªu": 1891,
      "áº¯p": 1892,
      "áŀıáŀĦ": 1893,
      "áŀĲáŀĹ": 1894,
      "áŀłáŀı": 1895,
      "Ġháº£i": 1896,
      "áŀłáŀļáŀİáŀĢáŀĺ": 1897,
      "Ġlá»ĩnh": 1898,
      "ĠThi": 1899,
      "ĠphiÃªn": 1900,
      "ÌĢ": 1901,
      "áŀŁáŀī": 1902,
      "Ġláº¥y": 1903,
      "ĠáŁ¢áŁłáŁ¡áŁ¨": 1904,
      "ĠáŁ¢áŁłáŁ¡áŁ©": 1905,
      "ĠHu": 1906,
      "Ġ100": 1907,
      "ĠgÃ¬": 1908,
      "ul": 1909,
      "Ġtuáº§n": 1910,
      "Ġtháº¥p": 1911,
      "Ġchiá»ģu": 1912,
      "ĠCuba": 1913,
      "Ńa": 1914,
      "Ġbuá»Ļc": 1915,
      "Ġtiáº¿t": 1916,
      "ĠxÃºc": 1917,
      "áŀļáŀĳáŀĳ": 1918,
      "ĠThÃ´ng": 1919,
      "áŀĻáŀĳ": 1920,
      "Ì£": 1921,
      "ĠáŀĺáŀĴ": 1922,
      "Ńi": 1923,
      "ĠtÃªn": 1924,
      "Ġthá»ķ": 1925,
      "ĠthÃ´n": 1926,
      "ĠTáº¿t": 1927,
      "áŀľáŀĹ": 1928,
      "ed": 1929,
      "Ġáŀ§áŀĶáŀı": 1930,
      "Ġlá»ħ": 1931,
      "tern": 1932,
      "Ġdá»ĭp": 1933,
      "Ġáŀ¢áŀŁ": 1934,
      "oc": 1935,
      "Ġ50": 1936,
      "Ġngá»«ng": 1937,
      "ĠkhuÃ´n": 1938,
      "áŀļáŀī": 1939,
      "ĠÄĲoÃłn": 1940,
      "ĠTT": 1941,
      "ĠTuyÃªn": 1942,
      "áŁīáŀ¼": 1943,
      "Ġná»£": 1944,
      "Ġgá»Ńi": 1945,
      "Ľm": 1946,
      "ĠmÃ´n": 1947,
      "ĠBáº£o": 1948,
      "áŀĤáŀĽ": 1949,
      "Ġ18": 1950,
      "Ġngáº¡i": 1951,
      "áŀıáŀ¡": 1952,
      "ĠdÆ°á»Ľi": 1953,
      "Ġthoáº£": 1954,
      "Ġkhá»ıi": 1955,
      "Ã£i": 1956,
      "Ġpháº¡t": 1957,
      "Ġtay": 1958,
      "áŀĽáŀľ": 1959,
      "ĠKhÃ´ng": 1960,
      "ĠlÃ£i": 1961,
      "ĠáŀĻáŀĢ": 1962,
      "tan": 1963,
      "Ġsá»Ľm": 1964,
      "áŀĵáŀĢáŀĶ": 1965,
      "ui": 1966,
      "ĠChÃºng": 1967,
      "Ġtuá»ķi": 1968,
      "ĠdÃłnh": 1969,
      "ĠCÃ¹ng": 1970,
      "áŀıáŀĸ": 1971,
      "OC": 1972,
      "ĠquÃ½": 1973,
      "Ġá»§y": 1974,
      "áŀĦáŀŁ": 1975,
      "Ġxung": 1976,
      "ĠáŁ©": 1977,
      "Ġáŀ¯áŀĢáŀŁ": 1978,
      "ĠSá»Ł": 1979,
      "áŀļáŀĢáŀŁ": 1980,
      "Ġ2012": 1981,
      "áŀĦáŀİ": 1982,
      "ĠthÆ°á»£ng": 1983,
      "ĠSÆ¡n": 1984,
      "Ġchá»īnh": 1985,
      "Ġtuyáº¿n": 1986,
      "Ġ199": 1987,
      "Ġtá»ĳi": 1988,
      "Ġcháº¯c": 1989,
      "co": 1990,
      "ĠtrÆ°Æ¡ng": 1991,
      "ĠáŀŁáŀī": 1992,
      "Ġxe": 1993,
      "ĠMáº·t": 1994,
      "ĠTHPT": 1995,
      "ternet": 1996,
      "ĵn": 1997,
      "ama": 1998,
      "ĠphÃ©p": 1999,
      "áº·n": 2000,
      "ĠkhÃ³a": 2001,
      "ĠthÃŃ": 2002,
      "Ġdáº§u": 2003,
      "ĠTiáº¿": 2004,
      "ĠÄĳÃ³n": 2005,
      "ĠcÃ´": 2006,
      "ĠcÃ¢y": 2007,
      "áŁ£": 2008,
      "ĠPhuc": 2009,
      "ĠÄĳáº³ng": 2010,
      "ĠáŁ¡áŁ¢": 2011,
      "áŀļáŀĪáŀĺ": 2012,
      "Ġdáº¡y": 2013,
      "áŀľáŀĵ": 2014,
      "áŀŁáŀĸ": 2015,
      "áŀļáŀ¡áŀĦ": 2016,
      "ĠÃŃt": 2017,
      "ĠâĢ¦": 2018,
      "ĠcÄĥng": 2019,
      "Ġchiáº¿m": 2020,
      "Ġáŀ§áŀĶ": 2021,
      "ĠkÃª": 2022,
      "ĠNhiá»ģu": 2023,
      "µn": 2024,
      "ou": 2025,
      "Ġtáº¡p": 2026,
      "ĠniÃªn": 2027,
      "ĠKho": 2028,
      "Ġ2014": 2029,
      "ĠTrÃªn": 2030,
      "ĠáŀŁáŀłáŀļáŀĬ": 2031,
      "áŀļáŀĺáŀĳ": 2032,
      "ĠTÃ´i": 2033,
      "ĠLe": 2034,
      "Ġáº¢nh": 2035,
      "ĠVan": 2036,
      "ĠOb": 2037,
      "áŀıáŀĢáŀĺ": 2038,
      "Ġáŀĩáŀĵáŀĩ": 2039,
      "ĠQuáº£ng": 2040,
      "ĠTiáº¿n": 2041,
      "Ġsáºµn": 2042,
      "Ġvay": 2043,
      "Ġcháº½": 2044,
      "ĠDÃ¢n": 2045,
      "ri": 2046,
      "ĠCÃ³": 2047,
      "áŀľáŀĩ": 2048,
      "áŁ¤": 2049,
      "Ġlá»±a": 2050,
      "ĠáŀĢáŀİ": 2051,
      "ĠphÃ³": 2052,
      "ĠáŁ¢áŁłáŁ¡áŁ§": 2053,
      "ĠHCM": 2054,
      "áŀħáŀĵ": 2055,
      "ĠTháº¿": 2056,
      "ĠBÃł": 2057,
      "ĠBÃªn": 2058,
      "ĠquÃ¡n": 2059,
      "Ã¡u": 2060,
      "áŀĽáŀģ": 2061,
      "ĠâĢĿ": 2062,
      "Ġthá»Ń": 2063,
      "áŀĦáŀĽ": 2064,
      "áŀħáŀı": 2065,
      "ĠáŀĻáŀĢáŀħ": 2066,
      "ĠBá»": 2067,
      "Ġáŀ¯áŀĢáŀĹ": 2068,
      "ĠUN": 2069,
      "ĠObama": 2070,
      "Ġhy": 2071,
      "ĠGiÃ¡o": 2072,
      "ore": 2073,
      "áŁ¦": 2074,
      "Ġnghá»ī": 2075,
      "ĠthÃ¡i": 2076,
      "Ġdá»ħ": 2077,
      "ĠIS": 2078,
      "ĠtrÃ¡i": 2079,
      "ĠáŀŁáŀĢáŀĽ": 2080,
      "ĠIs": 2081,
      "ĠDiá»ħn": 2082,
      "Ġmáº¥t": 2083,
      "ĠNáº¿u": 2084,
      "ĠáŁ¢áŁłáŁ¡áŁ¦": 2085,
      "áŀĽáŀĦ": 2086,
      "ĠcáºŃn": 2087,
      "Ġsung": 2088,
      "ĠDá»±": 2089,
      "ne": 2090,
      "os": 2091,
      "ĠTáºŃp": 2092,
      "áº¿p": 2093,
      "ĠáŀĴáŀĵáŀĴ": 2094,
      "ĠAl": 2095,
      "áŀĤáŀĦ": 2096,
      "ĠBinh": 2097,
      "ĠáŀĶáŀĺ": 2098,
      "ĠNgÆ°á»Ŀi": 2099,
      "ĠXII": 2100,
      "áŁīáŁĩ": 2101,
      "áŀıáŀŁ": 2102,
      "ir": 2103,
      "ĠNinh": 2104,
      "Ġphá»©c": 2105,
      "ĠáŀŁáŀłáŀĹ": 2106,
      "áŀĵáŀı": 2107,
      "ĠsÃłng": 2108,
      "áŀĽáŀĦáŀĺ": 2109,
      "Ġquáº§n": 2110,
      "ĠBa": 2111,
      "Ġ16": 2112,
      "áŀĽáŀĦáŀĺáŀĢ": 2113,
      "áŀľáŀķ": 2114,
      "Ġáŀħáŀĺ": 2115,
      "ĠMe": 2116,
      "ĠáŀĴáŀĺ": 2117,
      "Ġbuá»ķi": 2118,
      "ien": 2119,
      "ĠnghÃ¬n": 2120,
      "ĠtÃłu": 2121,
      "ĠChiáº¿n": 2122,
      "Ġthiáº¿u": 2123,
      "ĠcÃ¢u": 2124,
      "ĠGiang": 2125,
      "Ġdá»±a": 2126,
      "áŀļáŀŁáŀĺ": 2127,
      "áŀģáŀĩáŀĵ": 2128,
      "áŀīáŀľáŀı": 2129,
      "ĠNgá»": 2130,
      "ĠÄĳá»ĵ": 2131,
      "áŀĤáŀĺáŀĵ": 2132,
      "áŁ¨": 2133,
      "Ġhiá»ĥm": 2134,
      "áŀīáŀı": 2135,
      "ĠKhi": 2136,
      "Ġnáº¡n": 2137,
      "Ġtrá»«ng": 2138,
      "ĠViá»ĩn": 2139,
      "ĠngÄĥn": 2140,
      "ĠáŁ¢áŁłáŁ¡áŁ¥": 2141,
      "ĠSing": 2142,
      "ĠÄĳu": 2143,
      "Ġ?": 2144,
      "ĠdÆ°": 2145,
      "áŀ¯": 2146,
      "ĠQuan": 2147,
      "Ġ198": 2148,
      "ĠSh": 2149,
      "áŀĳáŀĵ": 2150,
      "ĠsÆ°": 2151,
      "ĠUá»·": 2152,
      "Ġbang": 2153,
      "áŀĻáŀĩ": 2154,
      "ĠSá»±": 2155,
      "FTA": 2156,
      "Ġáŀ¢áŀħ": 2157,
      "ĠÄĳÃ´ng": 2158,
      "Ġmá»«ng": 2159,
      "Ġtá»ĳc": 2160,
      "Ġtáº£ng": 2161,
      "Ġkiáº¿m": 2162,
      "áŁ§": 2163,
      "ĠbÃło": 2164,
      "Ġchá»ĭu": 2165,
      "ĠkÃ©o": 2166,
      "áŁĬáŀ¼": 2167,
      "ĠTo": 2168,
      "ĠTan": 2169,
      "Ġ24": 2170,
      "lin": 2171,
      "apore": 2172,
      "Ġxuá»ĳng": 2173,
      "áŀŁáŀĬ": 2174,
      "ĠVÅ©": 2175,
      "ĠáŀŁáŀĢ": 2176,
      "ĠáŁ¢áŁłáŁł": 2177,
      "ĠSingapore": 2178,
      "ĠáŀĻáŀĽ": 2179,
      "rael": 2180,
      "áŁĬáŁĤ": 2181,
      "ĠTrÆ°á»Łng": 2182,
      "Ġ17": 2183,
      "ev": 2184,
      "ĠáŀŁáŀĺáŀŁ": 2185,
      "Ġ40": 2186,
      "Ġtá»ĩ": 2187,
      "Ġláº«n": 2188,
      "Ġkhuyáº¿n": 2189,
      "áŀĵáŀĢáŀĩ": 2190,
      "ĠThÆ°á»Ŀng": 2191,
      "ĠBÃ¡o": 2192,
      "Ġnguy": 2193,
      "Ġáŀģáŀİ": 2194,
      "ĠIsrael": 2195,
      "ĠlÃºc": 2196,
      "ĠThÆ°á»£ng": 2197,
      "ĠTTX": 2198,
      "ank": 2199,
      "Ġ21": 2200,
      "ĠTTXVN": 2201,
      "âĢĿ": 2202,
      "ĠVÃł": 2203,
      "ew": 2204,
      "Ġgiáº£": 2205,
      "Ġla": 2206,
      "Ġkháº¯c": 2207,
      "á»ĵi": 2208,
      "Ġlan": 2209,
      "áŀĴáŀı": 2210,
      "Ġsao": 2211,
      "ĠáŀŁáŀİ": 2212,
      "Ġphá»ķ": 2213,
      "ah": 2214,
      "Ġ26": 2215,
      "áŀıáŀĬáŀĽ": 2216,
      "ĠÄĲÃ³": 2217,
      "ĠMy": 2218,
      "OS": 2219,
      "Ã³c": 2220,
      "ĠcÄĥn": 2221,
      "ĠKáº¿": 2222,
      "ĠChuyáº¿n": 2223,
      "av": 2224,
      "Ġtrá»ĵng": 2225,
      "han": 2226,
      "Ġthiá»ĥu": 2227,
      "ĠCÃ¡ch": 2228,
      "ĠInternet": 2229,
      "Ġkim": 2230,
      "ĠgiÃłnh": 2231,
      "ip": 2232,
      "ĠáŁłáŁłáŁł": 2233,
      "ID": 2234,
      "áŀĻáŀĤ": 2235,
      "Ġxáº£y": 2236,
      "áŀĸáŀĦ": 2237,
      "ĠKáº¿t": 2238,
      "ĠÄĲáº§u": 2239,
      "ĠngÃ´n": 2240,
      "ĠvÃ²ng": 2241,
      "Ã¹i": 2242,
      "áŀĽáŀŁ": 2243,
      "DI": 2244,
      "Ã¹a": 2245,
      "ĠDung": 2246,
      "Ġniá»ģm": 2247,
      "ĠPhÃ²ng": 2248,
      "TO": 2249,
      "Ġnáº¯m": 2250,
      "ĠkhÃ¡": 2251,
      "áŀĸáŀĢ": 2252,
      "ashi": 2253,
      "áŀĢáŀĳ": 2254,
      "©t": 2255,
      "ĠáŀŁáŀĶ": 2256,
      "Ġgá»¡": 2257,
      "ĠvÄ©": 2258,
      "áŀĭáŀĴáŀĺ": 2259,
      "ĠáŀĢáŀļáŀİ": 2260,
      "ĠáŀĪáŀļ": 2261,
      "Ġvui": 2262,
      "ĠkhÃŃch": 2263,
      "ĠFTA": 2264,
      "Ġmáº¹": 2265,
      "ĠAb": 2266,
      "áŀĢáŀĶ": 2267,
      "ĠáŁ£áŁł": 2268,
      "áŀĦáŀļáŀĢ": 2269,
      "ĠKhu": 2270,
      "ĠKhoa": 2271,
      "EF": 2272,
      "ot": 2273,
      "©a": 2274,
      "PP": 2275,
      "ĠNguyÃªn": 2276,
      "áŀķáŀĦ": 2277,
      "ei": 2278,
      "ĠrÃºt": 2279,
      "Ġxa": 2280,
      "ĠPhi": 2281,
      "Ġáŀļáŀħáŀĵ": 2282,
      "Ġáŀĸáŀł": 2283,
      "ĠcáºŃp": 2284,
      "og": 2285,
      "Ġngáº¡ch": 2286,
      "áŀĻáŀıáŀĶ": 2287,
      "áŀļáŀĮ": 2288,
      "áŀĵáŀĬ": 2289,
      "ĠFDI": 2290,
      "áŀĺáŀĢáŀļ": 2291,
      "ashing": 2292,
      "áŀıáŀķáŀĦ": 2293,
      "ĠWashing": 2294,
      "ĠThá»ķ": 2295,
      "ĠWashington": 2296,
      "rai": 2297,
      "Ġháº¡i": 2298,
      "Ġloáº¡t": 2299,
      "ĠáŀĢáŀĦáŀĳ": 2300,
      "ĠCáº¥p": 2301,
      "ĠJo": 2302,
      "ĠBar": 2303,
      "ĠáŀŁáŀı": 2304,
      "áŀĻáŀĢáŀĺ": 2305,
      "ĠsÃ´ng": 2306,
      "ĠchÃ³ng": 2307,
      "áŀĽáŀķ": 2308,
      "ĠhÃ´m": 2309,
      "ĠÂ": 2310,
      "á»ĳt": 2311,
      "ĠÄĳe": 2312,
      "mar": 2313,
      "Ġxáº¿p": 2314,
      "az": 2315,
      "Ġká»ĭp": 2316,
      "Ġ2011": 2317,
      "áŀĳáŀĺ": 2318,
      "á»¹": 2319,
      "ur": 2320,
      "ĠcÃ¡i": 2321,
      "ĠChá»ī": 2322,
      "Ġphi": 2323,
      "ack": 2324,
      "Ġlá»ĳi": 2325,
      "áŀŁáŀĽ": 2326,
      "tr": 2327,
      "ĠChÆ°Æ¡ng": 2328,
      "áŁ©": 2329,
      "áŀĵáŀĴ": 2330,
      "Ġngo": 2331,
      "ĠvÃ´": 2332,
      "uyá»ĩt": 2333,
      "ĠsÆ¡": 2334,
      "Ġnu": 2335,
      "ĠbáºŃt": 2336,
      "ĠáŁ¡áŁ¥": 2337,
      "ĭnh": 2338,
      "áŀĸáŀĩ": 2339,
      "ĠáŁ¡áŁ£": 2340,
      "Ġhoa": 2341,
      "áŀĭáŀĶ": 2342,
      "Ġsuy": 2343,
      "ĠCÆ¡": 2344,
      "ĠáŀĲáŀľ": 2345,
      "ĠThá»±c": 2346,
      "Ġcháº·n": 2347,
      "Ġnguyá»ĩn": 2348,
      "ĠEV": 2349,
      "ĠTran": 2350,
      "ĠNhÄ©": 2351,
      "Ġáº¥n": 2352,
      "ĠMar": 2353,
      "Ġtá»ĵn": 2354,
      "ld": 2355,
      "ĠVinh": 2356,
      "ĠPu": 2357,
      "ĠNgá»įc": 2358,
      "ĠNew": 2359,
      "Ìī": 2360,
      "áŁīáŁĤ": 2361,
      "alia": 2362,
      "áŀ¹áŁĩ": 2363,
      "ĠáŀĢáŀĦ": 2364,
      "ĠchÄĥm": 2365,
      "ĠáŀĤáŀİáŀĶáŀĢ": 2366,
      "uyáº¿t": 2367,
      "Ġcháº¥m": 2368,
      "ĠTruong": 2369,
      "Ġáŀľáŀı": 2370,
      "ĠSang": 2371,
      "io": 2372,
      "Ġ27": 2373,
      "ĠnuÃ´i": 2374,
      "Ġbinh": 2375,
      "Ã²i": 2376,
      "ĠtáºŃn": 2377,
      "Ġ28": 2378,
      "Ġu": 2379,
      "ĠTrÆ°Æ¡ng": 2380,
      "xit": 2381,
      "áŀļáŀĶáŀģ": 2382,
      "Ġliá»ĩt": 2383,
      "Ġthá»ĭnh": 2384,
      "Ġsá»¹": 2385,
      "áŀĪáŀĺáŀİ": 2386,
      "ĠUk": 2387,
      "orld": 2388,
      "Ãµi": 2389,
      "ĠHá»ĵi": 2390,
      "ĠTÃłi": 2391,
      "ĠáŀĬáŀĦ": 2392,
      "Ġviáº¿t": 2393,
      "ĠTPP": 2394,
      "áŀĵáŀĢáŀŁ": 2395,
      "ĠUkrai": 2396,
      "áŀĻáŀĽ": 2397,
      "ĠNgh": 2398,
      "ĠQuÃ¢n": 2399,
      "ĠHÃ¹ng": 2400,
      "Ġdáº¡ng": 2401,
      "ĠkÃŃch": 2402,
      "áŀĻáŀĢáŀĬ": 2403,
      "áŀĢáŀ¡": 2404,
      "ĠáŀĪáŀĶ": 2405,
      "áŀĴáŀĵáŀĢáŀĺ": 2406,
      "Ġ22": 2407,
      "Ġtháº¥t": 2408,
      "ĠWEF": 2409,
      "ĠcÃ¢n": 2410,
      "ĠvÆ°á»£ng": 2411,
      "ĠthÃ¡c": 2412,
      "ĠBre": 2413,
      "áŁīáŁĦ": 2414,
      "Ġlá»Ńa": 2415,
      "Ġáŀ¥áŀĳ": 2416,
      "ĠUkraine": 2417,
      "Ġnáº±m": 2418,
      "ĠMáº·c": 2419,
      "ĠBrexit": 2420,
      "ĠtrÃło": 2421,
      "ĠCháº¥p": 2422,
      "ĠHung": 2423,
      "Ġin": 2424,
      "áŀĸáŀļ": 2425,
      "ĠPar": 2426,
      "ĠÄĳÃŃch": 2427,
      "ĠPhong": 2428,
      "ib": 2429,
      "áŀıáŀļ": 2430,
      "ĠCá»¥c": 2431,
      "áŀĦáŀģ": 2432,
      "ĠPutin": 2433,
      "Ġnhá»Ľ": 2434,
      "ĠEVFTA": 2435,
      "ĠngÆ°á»¡ng": 2436,
      "Ġáŀ§áŀı": 2437,
      "áŁĮáŀ¶": 2438,
      "áŀĢáŀļáŀĽ": 2439,
      "eu": 2440,
      "ĠPham": 2441,
      "ĳt": 2442,
      "ĠhÃ£": 2443,
      "Ġtáº£i": 2444,
      "įt": 2445,
      "ĠkhoÃ¡": 2446,
      "ĠtuÃ¢n": 2447,
      "áŀļáŀħáŀļáŀħ": 2448,
      "kong": 2449,
      "Ch": 2450,
      "Ġcá»¥c": 2451,
      "ĠCuá»Ļc": 2452,
      "ĠÄĲÃł": 2453,
      "ĠcáºŃy": 2454,
      "Ã£nh": 2455,
      "ĠtháºŃt": 2456,
      "ĠVÆ°Æ¡ng": 2457,
      "ĠÃ´": 2458,
      "Ġtháº©m": 2459,
      "ĠUB": 2460,
      "ĠMal": 2461,
      "30": 2462,
      "ĠMekong": 2463,
      "Ġáŀ¢áŀī": 2464,
      "Ġthiá»ĩt": 2465,
      "Ġ70": 2466,
      "ĠáŁ¡áŁ¤": 2467,
      "á»ĩ": 2468,
      "ĠTe": 2469,
      "ĵi": 2470,
      "áŀļáŀĶáŀī": 2471,
      "Ġsáº¯p": 2472,
      "ĠCPT": 2473,
      "ĠLao": 2474,
      "istan": 2475,
      "Ġtá»Ļi": 2476,
      "Ġ500": 2477,
      "ĠáŁ¡áŁ¡": 2478,
      "ĠÄĳá»©c": 2479,
      "Ġchá»ĳt": 2480,
      "áŀĭáŀĳ": 2481,
      "ĠCan": 2482,
      "CL": 2483,
      "áŀŁáŀĴ": 2484,
      "Ġlá»¥c": 2485,
      "Ġsuá»ĳt": 2486,
      "ĠHoang": 2487,
      "le": 2488,
      "ĠÄĲáº¿n": 2489,
      "Ġmá»Ŀi": 2490,
      "Ġtá»©c": 2491,
      "ĠngÅ©": 2492,
      "ĠHa": 2493,
      "Ġngá»¯": 2494,
      "ĠMyan": 2495,
      "áŀļáŀĻáŀĢ": 2496,
      "ĠVu": 2497,
      "ĠMyanmar": 2498,
      "Ġtrá»¥": 2499,
      "ĠáŁ¢áŁłáŁ¡áŁ£": 2500,
      "ok": 2501,
      "áŀĢáŀĢ": 2502,
      "áº«u": 2503,
      "ĠÄĲÃłi": 2504,
      "áŀļáŀŁáŀĵ": 2505,
      "áŀıáŀĺáŀĢ": 2506,
      "ĠNA": 2507,
      "ĠLÃ£nh": 2508,
      "áŀĽáŀĩ": 2509,
      "eb": 2510,
      "Ġai": 2511,
      "ĠkiÃªn": 2512,
      "Ġxá»": 2513,
      "ĠCPTPP": 2514,
      "áŀĶáŀĽ": 2515,
      "Ġ197": 2516,
      "ĠHy": 2517,
      "up": 2518,
      "Ã£n": 2519,
      "áŁĬáŀ·": 2520,
      "ĠNai": 2521,
      "Ġgiáº£ng": 2522,
      "ĠáŀŁáŀłáŀĢ": 2523,
      "ĠáŀĶáŀĳáŀĸ": 2524,
      "áŀľáŀł": 2525,
      "ĠZ": 2526,
      "Ġcáº¥m": 2527,
      "Ġáŀ¯áŀĢáŀļ": 2528,
      "Ġhuynh": 2529,
      "ĠáŀĸáŀĽáŀĢáŀļ": 2530,
      "áŀĶáŀĴ": 2531,
      "ĠHá»įc": 2532,
      "Ġ60": 2533,
      "Ġcáº¯t": 2534,
      "ĠAf": 2535,
      "ĠthiÃªn": 2536,
      "ĠMai": 2537,
      "ĠtrÃ¡nh": 2538,
      "ĠtháºŃp": 2539,
      "Ġtiá»ĩn": 2540,
      "Ġlá»Ļ": 2541,
      "Ġxin": 2542,
      "Ġ1982": 2543,
      "Ġnáº·ng": 2544,
      "ĠNÃ´ng": 2545,
      "ce": 2546,
      "world": 2547,
      "ĠhÆ°Æ¡ng": 2548,
      "ĠgÃ³i": 2549,
      "áŀĽáŀł": 2550,
      "ĠLa": 2551,
      "ĠgiÃłu": 2552,
      "ĠáŁ¢áŁłáŁ¢áŁ¡": 2553,
      "ĠphÃºc": 2554,
      "iáº¿c": 2555,
      "Ġpháº¥n": 2556,
      "ĠAs": 2557,
      "Ġthá»«a": 2558,
      "ĠHÃ²a": 2559,
      "Ġ23": 2560,
      "ĠáŀĶáŀĳáŀĶ": 2561,
      "ĠáŀĮ": 2562,
      "ĠMi": 2563,
      "ĠáŀĳáŀĶ": 2564,
      "ĠvÃłi": 2565,
      "don": 2566,
      "á»Ĺi": 2567,
      "ĠUBND": 2568,
      "Ã³n": 2569,
      "ĠÄĳÃ²i": 2570,
      "Ġháº§u": 2571,
      "Ġnghe": 2572,
      "ĠMá»¥c": 2573,
      "ĠAus": 2574,
      "ĠSu": 2575,
      "Ġhu": 2576,
      "ĠCao": 2577,
      "Ġdá»©t": 2578,
      "CLOS": 2579,
      "ĠUNCLOS": 2580,
      "ĠdÃ²ng": 2581,
      "ĠchÆ¡i": 2582,
      "ĠchÃ¢n": 2583,
      "ĠáŁ¡áŁ©": 2584,
      "Ġáŀļáŀİ": 2585,
      "ĠCOV": 2586,
      "Ġgáº¡o": 2587,
      "ez": 2588,
      "Ġ+": 2589,
      "hn": 2590,
      "ĠCOVID": 2591,
      "Ġnam": 2592,
      "áŀļáŀİáŀļáŀĬ": 2593,
      "ĠAustr": 2594,
      "ĠCOC": 2595,
      "áŀīáŀĬ": 2596,
      "ĠnÃ³ng": 2597,
      "ela": 2598,
      "áŀıáŀĺáŀĢáŀĬáŀĽ": 2599,
      "Ġchuyá»ĩn": 2600,
      "IP": 2601,
      "ĠAustralia": 2602,
      "ĠtrÆ°ng": 2603,
      "Ġmá»ĳc": 2604,
      "Ġáŀª": 2605,
      "ĠHuy": 2606,
      "áŀĢáŀĩ": 2607,
      "µng": 2608,
      "áºµng": 2609,
      "áŀĤáŀł": 2610,
      "ĠSon": 2611,
      "ĠmÃ¹a": 2612,
      "ĠLá»ħ": 2613,
      "ĠPal": 2614,
      "CS": 2615,
      "Ġtráº£i": 2616,
      "ĠáŁ¢áŁ¥": 2617,
      "áŀĺáŀĸáŀĽ": 2618,
      "ĠNáºµng": 2619,
      "Ġláº¡c": 2620,
      "ĠTáº¥t": 2621,
      "ĠChu": 2622,
      "ĠáŀĤáŀı": 2623,
      "Ġrá»ĵi": 2624,
      "te": 2625,
      "Ġo": 2626,
      "Ġ29": 2627,
      "iá»ħ": 2628,
      "áŀıáŀĶáŀĵ": 2629,
      "Ġchiáº¿c": 2630,
      "áŀļáŀĶáŀŁáŀĺ": 2631,
      "ĠÄĳÆ°Æ¡ng": 2632,
      "ĠÄĳiá»ĩp": 2633,
      "Ġáŀĺáŀİ": 2634,
      "Ġsai": 2635,
      "áŀŁáŀĤ": 2636,
      "ĠBarack": 2637,
      "od": 2638,
      "Ġmáº¡c": 2639,
      "áŀļáŀĻáŀĢáŀħ": 2640,
      "ĠTiáº¿ng": 2641,
      "ĠquÃª": 2642,
      "ĠVá»¥": 2643,
      "Ġháº¥p": 2644,
      "ģm": 2645,
      "Ġuy": 2646,
      "Ġca": 2647,
      "Ġkháº£o": 2648,
      "ĠáŀĺáŀĢáŀĸ": 2649,
      "ĠáŀĢáŀī": 2650,
      "ĠTiáº¿p": 2651,
      "Ġthá»¥": 2652,
      "Ġláº¡m": 2653,
      "ĠrÃł": 2654,
      "ĠáŁ¡áŁłáŁł": 2655,
      "ĠtrÄĥm": 2656,
      "ĠCH": 2657,
      "ĠAi": 2658,
      "áŀļáŀĪáŀĺáŀĺ": 2659,
      "ĠchÃºc": 2660,
      "áŀĳáŀĶ": 2661,
      "Ġchuá»Ĺi": 2662,
      "Ġsáº¡ch": 2663,
      "Ġbáº¡o": 2664,
      "áŀļáŀĤáŀĽ": 2665,
      "DC": 2666,
      "ĠdÃłng": 2667,
      "ĠdÆ°á»¡ng": 2668,
      "áŀĶáŀĢáŀļáŀİ": 2669,
      "Ġ45": 2670,
      "Ġgáº¥p": 2671,
      "Ġtiá»ĥu": 2672,
      "ĠáŁ¢áŁłáŁ¡áŁ¤": 2673,
      "tine": 2674,
      "Ġkg": 2675,
      "ĠTÆ°": 2676,
      "áŀĲáŀĵ": 2677,
      "Ġthá»ĭt": 2678,
      "áŀħáŀŁáŀĵ": 2679,
      "ĠAr": 2680,
      "áŀĸáŀı": 2681,
      "ĠPhan": 2682,
      "áŀĶáŀĲ": 2683,
      "Ġmáº·c": 2684,
      "Ãºi": 2685,
      "ĠThÆ°": 2686,
      "ĠÄĳua": 2687,
      "Ġ&": 2688,
      "ĠÃ¡nh": 2689,
      "áŀĺáŀĩ": 2690,
      "áŀģáŀĹ": 2691,
      "Ġbá»©c": 2692,
      "Ġnháº¯c": 2693,
      "Ġáŀ¯áŀĦ": 2694,
      "ıe": 2695,
      "áŀĢáŀī": 2696,
      "th": 2697,
      "Ġtáº¡m": 2698,
      "ĠÄĲÃ¬nh": 2699,
      "áŀļáŀ¡áŀĶ": 2700,
      "ĠtÃºc": 2701,
      "áŀłáŀļ": 2702,
      "Ġkhá»ıe": 2703,
      "Ġbáº¯n": 2704,
      "ĠáŁ¢áŁłáŁ¡áŁ¢": 2705,
      "ĠsÃ³ng": 2706,
      "ĠAfg": 2707,
      "20": 2708,
      "áŀħáŀĤ": 2709,
      "áŀĤáŀĳ": 2710,
      "ĠáŁ¡áŁ¨": 2711,
      "ĠNhÆ°": 2712,
      "áŀĮáŀĢáŀĺ": 2713,
      "Ġrá»Ŀi": 2714,
      "Ġgiá»ĳng": 2715,
      "aw": 2716,
      "Ġ35": 2717,
      "Ġcá»±": 2718,
      "ĠCá»Ń": 2719,
      "Ġkháº¯p": 2720,
      "Ġnhiá»ħ": 2721,
      "Ġquáº£ng": 2722,
      "áºŃc": 2723,
      "ĠIP": 2724,
      "Ġbáº¡ch": 2725,
      "iv": 2726,
      "áŀĵáŀĢáŀĵ": 2727,
      "ĠQuyáº¿t": 2728,
      "ĠPales": 2729,
      "įa": 2730,
      "ĠáŀħáŀĽ": 2731,
      "ĠTÄĥng": 2732,
      "ĠThÃ¡ng": 2733,
      "ĠJong": 2734,
      "Ġtháº§y": 2735,
      "ĠbáºŃc": 2736,
      "Ġtiá»ħn": 2737,
      "ĠsÃ¢n": 2738,
      "ĠáŀħáŀĽáŀĵ": 2739,
      "ĠáŀĩáŀĵáŀĶáŀĳ": 2740,
      "Ġthiá»ĩu": 2741,
      "ĠáŀıáŀĹ": 2742,
      "ĠthÆ°á»Łng": 2743,
      "ĠÄĳá»¡": 2744,
      "Ġháº¡ng": 2745,
      "ĠbÃ¨": 2746,
      "Ġmáº¯t": 2747,
      "Ġáŀħáŀļáŀħ": 2748,
      "ĠÄĳÃ£i": 2749,
      "áŀĵáŀĸ": 2750,
      "áº¹n": 2751,
      "one": 2752,
      "Ġcan": 2753,
      "ĠáŀŁáŀĺáŀĹ": 2754,
      "áŀĽáŀĺ": 2755,
      "ĠPalestine": 2756,
      "ĠgÃ¬n": 2757,
      "áŀ§": 2758,
      "áŀŁáŀĦ": 2759,
      "Ãªnh": 2760,
      "ĠÄĳai": 2761,
      "ĠáŁ¡áŁ©áŁ©áŁ": 2762,
      "hanistan": 2763,
      "áŀļáŀ¢áŀĶ": 2764,
      "£t": 2765,
      "Ġcháº¯n": 2766,
      "ĠDoanh": 2767,
      "ĠAfghanistan": 2768,
      "Ġcáº£n": 2769,
      "Ġáŀĳáŀĺ": 2770,
      "Ġ31": 2771,
      "ĠáŁ¥áŁł": 2772,
      "ĠJohn": 2773,
      "ĠáŀħáŀĢ": 2774,
      "ĠlÆ°á»£t": 2775,
      "ĠDong": 2776,
      "áŀĭáŀ¢": 2777,
      "áŀĵáŀĶáŀĳ": 2778,
      "áŀģáŀģáŀİ": 2779,
      "áŀĵáŀĵ": 2780,
      "áŀ·áŁĩ": 2781,
      "áŀĶáŀĺ": 2782,
      "Ġkiá»ĩm": 2783,
      "ĠToÃłn": 2784,
      "Ġmay": 2785,
      "Ġáŀ¥áŀı": 2786,
      "Ġáŀªáŀĸ": 2787,
      "áŀĵáŀŁ": 2788,
      "ĠDOC": 2789,
      "ry": 2790,
      "ĠDuc": 2791,
      "ĠÂ«": 2792,
      "¥t": 2793,
      "Ġtáº·ng": 2794,
      "ĠTá»īnh": 2795,
      "áŀĵáŀĬáŀĽ": 2796,
      "Ġnhiá»ĩt": 2797,
      "ĠcháºŃm": 2798,
      "ĩt": 2799,
      "ĠXÃ£": 2800,
      "áŀĻáŀĸ": 2801,
      "ays": 2802,
      "Ġáŀĭ": 2803,
      "ĠCÅ©ng": 2804,
      "Ġthá»§y": 2805,
      "ĠVOVworld": 2806,
      "ĠngÆ°á»£c": 2807,
      "Ġcá»ĳt": 2808,
      "ĠCáºŃp": 2809,
      "ĠASEM": 2810,
      "ĠCHDC": 2811,
      "Ġmáº«u": 2812,
      "ĠCho": 2813,
      "ĠDinh": 2814,
      "Ġnhiá»ħm": 2815,
      "ıng": 2816,
      "ĠtÃ´": 2817,
      "Ãºa": 2818,
      "áŀĵáŀĢáŀľ": 2819,
      "ĠTS": 2820,
      "Ġná»Ńa": 2821,
      "ĠquáºŃn": 2822,
      "ĠáŀļáŀĲ": 2823,
      "ĠCÃ²n": 2824,
      "ĠHÃłng": 2825,
      "Ġnghi": 2826,
      "Ġcá»±u": 2827,
      "áŀļáŀħáŀĵ": 2828,
      "ĠsiÃªu": 2829,
      "áŀĪáŀĬ": 2830,
      "ard": 2831,
      "áŀļáŀĶáŀİ": 2832,
      "ĠNhÆ°á»¡ng": 2833,
      "ĠCHDCND": 2834,
      "ĠÆ¡n": 2835,
      "áŀıáŀĩ": 2836,
      "ĠthÃ¹": 2837,
      "Ġro": 2838,
      "Ġcáº§m": 2839,
      "Ġdáº§n": 2840,
      "Ġxanh": 2841,
      "ĠNATO": 2842,
      "áŀ·áŁĴ": 2843,
      "ĠGiÃ¡": 2844,
      "ĠYÃªn": 2845,
      "ĠXI": 2846,
      "áŀĢáŀħáŀĺ": 2847,
      "ĠHá»ĵng": 2848,
      "ĠkÃªnh": 2849,
      "áŀĶáŀĹ": 2850,
      "ĠcÆ°Æ¡ng": 2851,
      "ag": 2852,
      "Ġnhá»Ŀ": 2853,
      "ĠthuÃª": 2854,
      "ĠTuáº¥n": 2855,
      "ĠtháºŃm": 2856,
      "áŀıáŀľ": 2857,
      "Ġáŀ§áŀĳ": 2858,
      "ĠxÃ¢m": 2859,
      "Ġgiáº¥y": 2860,
      "ĠthÃ¡o": 2861,
      "Ġgá»ĳc": 2862,
      "ĠMos": 2863,
      "ĠáŁ©áŁ": 2864,
      "Ġngáº¯n": 2865,
      "áŀĤáŀŁ": 2866,
      "áŀĻáŀ¡": 2867,
      "Ġá»ŀ": 2868,
      "iá»ģng": 2869,
      "ill": 2870,
      "Ġmáº¯c": 2871,
      "ĠÄĳá»£t": 2872,
      "ĠIPU": 2873,
      "Ġláº¯ng": 2874,
      "Ġchá»£": 2875,
      "áŀĳáŀİ": 2876,
      "CO": 2877,
      "ber": 2878,
      "Ġ300": 2879,
      "ĠáŁ¡áŁ¦": 2880,
      "roup": 2881,
      "ĠmÃ³n": 2882,
      "Ġxo": 2883,
      "ĠLinh": 2884,
      "lad": 2885,
      "ĠtÃ¹": 2886,
      "ĠáŀŁáŀĸ": 2887,
      "ĠLÃ½": 2888,
      "ĠáŀļáŀĲáŀĻáŀĵ": 2889,
      "ĠDi": 2890,
      "ĠVin": 2891,
      "ĠbÃŃ": 2892,
      "áŀĽáŀĦáŀĢ": 2893,
      "ĠVN": 2894,
      "Ġná»Ļ": 2895,
      "ĠGia": 2896,
      "ĠThá»ĳng": 2897,
      "Ġhiáº¿n": 2898,
      "ĠÄĳÃł": 2899,
      "áŀľáŀĩáŀĵ": 2900,
      "ĠNha": 2901,
      "ĠBá»Łi": 2902,
      "ĠBr": 2903,
      "ĠTiá»ĥu": 2904,
      "ĠKiá»ĥm": 2905,
      "ĠÄĳÃ´i": 2906,
      "ĠtráºŃt": 2907,
      "ĠáŁķ": 2908,
      "ath": 2909,
      "ĠphÃº": 2910,
      "ĠáŀħáŀĽáŀĢáŀļ": 2911,
      "ĠsÃ³c": 2912,
      "ĠáŀļáŀİáŀŁ": 2913,
      "áŀīáŀĽ": 2914,
      "ĠhÃ£ng": 2915,
      "Ġáŀī": 2916,
      "ĠÄĳem": 2917,
      "ĠÄĳÃ³i": 2918,
      "Ġ2025": 2919,
      "áŀļáŀ²": 2920,
      "áŀĶáŀĶ": 2921,
      "Ġgiá»ģng": 2922,
      "áŀĦáŀħ": 2923,
      "Ġbom": 2924,
      "áŀļáŀĲ": 2925,
      "ĠdáºŃy": 2926,
      "ilip": 2927,
      "ĠThá»Ŀi": 2928,
      "Ġluyá»ĩn": 2929,
      "Ġun": 2930,
      "ĠchÃło": 2931,
      "áŁīáŀº": 2932,
      "Ġchá»¥c": 2933,
      "Ġtai": 2934,
      "ĠBiÃªn": 2935,
      "ĠtrÃºc": 2936,
      "Ġmiá»ħn": 2937,
      "Ġ80": 2938,
      "Ġthao": 2939,
      "IPA": 2940,
      "de": 2941,
      "Ġláº»": 2942,
      "esia": 2943,
      "Ġtuá»ĩ": 2944,
      "ĠNgay": 2945,
      "ine": 2946,
      "ĠlÃ¡ng": 2947,
      "ĠbÃ¡c": 2948,
      "Ġxáº¥u": 2949,
      "Ġcá»Ļt": 2950,
      "Ġ90": 2951,
      "ĠbÃ¹ng": 2952,
      "ĠSinh": 2953,
      "Ġdá»«ng": 2954,
      "ĠngoÃ¡i": 2955,
      "áŀĢáŀļáŀİ": 2956,
      "Ġrá»§": 2957,
      "ĠHÆ¡n": 2958,
      "Ġáŀ¯áŀĢáŀĩáŀĵ": 2959,
      "Ġda": 2960,
      "ĠkhoÃ¡n": 2961,
      "Ġsáº¡n": 2962,
      "Ġáŀħáŀļ": 2963,
      "ĠPhilip": 2964,
      "itco": 2965,
      "ĠBÃ¹i": 2966,
      "Ġchá»Ŀ": 2967,
      "ĠtrÃŃch": 2968,
      "ĠIndon": 2969,
      "nam": 2970,
      "ĠIndonesia": 2971,
      "ĠTÃ¢n": 2972,
      "Ġliá»ģn": 2973,
      "ĠLH": 2974,
      "ĠáŀŁáŀļáŀŁ": 2975,
      "ĠáŁ¡áŁ©áŁ¨": 2976,
      "ĠAbe": 2977,
      "Ġdá»įa": 2978,
      "áŀĦáŀŁáŀĦ": 2979,
      "ĠLáº¡p": 2980,
      "Ġgáº¯ng": 2981,
      "áŀĽáŀĹ": 2982,
      "ĠÄĳoÃ¡n": 2983,
      "ĠKi": 2984,
      "ĠGiá»": 2985,
      "ĠáŁ¡áŁ§": 2986,
      "Ġáº¥y": 2987,
      "áŀļáŀ±": 2988,
      "ĠTrang": 2989,
      "ĠáŀĬáŀĳ": 2990,
      "Bank": 2991,
      "ĠáŀĬáŀĢ": 2992,
      "ĠLHQ": 2993,
      "ĠphÃ¡i": 2994,
      "raq": 2995,
      "Ġthang": 2996,
      "Ġly": 2997,
      "ĠbÃ³": 2998,
      "Ġrá»«ng": 2999,
      "bank": 3000,
      "ĠÄĳÃ¡": 3001,
      "ĠCá»¥": 3002,
      "ĠáŀĶáŀĳáŀĶáŀī": 3003,
      "ĭa": 3004,
      "ĠLÃł": 3005,
      "Ġáŀ¥áŀ¡": 3006,
      "ĠBáº±ng": 3007,
      "ĠPhilipp": 3008,
      "Ġlinh": 3009,
      "ĠáŀĺáŀĢáŀĬáŀĽ": 3010,
      "ĠáŁ¢áŁ¦": 3011,
      "áŀ§áŀŁáŀĹ": 3012,
      "ĠtrÃº": 3013,
      "Ġngá»Ŀ": 3014,
      "áŀħáŀĴ": 3015,
      "ada": 3016,
      "Ġrá»§i": 3017,
      "DA": 3018,
      "Ġvn": 3019,
      "ĠTho": 3020,
      "ĠIraq": 3021,
      "ĠCo": 3022,
      "Ġkháº©n": 3023,
      "ÌĤ": 3024,
      "Ġáŀ§áŀĶáŀĢáŀļáŀİ": 3025,
      "ĠKá»ĥ": 3026,
      "áŀıáŀł": 3027,
      "áŀļáŀĻáŀĽ": 3028,
      "xin": 3029,
      "ĠÄĳá»£i": 3030,
      "ĠÄĲiá»ĩn": 3031,
      "ĠChi": 3032,
      "Æ°Æ¡i": 3033,
      "CA": 3034,
      "Ġtá»Ŀ": 3035,
      "áŀĴáŀļ": 3036,
      "ĠmáºŃt": 3037,
      "ĠpháºŃn": 3038,
      "ĠFran": 3039,
      "áŀĳáŀĽ": 3040,
      "ĠHá»¯u": 3041,
      "Ġkhuyáº¿t": 3042,
      "Ġná»Ļp": 3043,
      "ĠQua": 3044,
      "áŀļáŀĸáŀĦ": 3045,
      "ĠÃ¢m": 3046,
      "ĠQuá»¹": 3047,
      "Ġduyá»ĩt": 3048,
      "áŀļáŀıáŀĹ": 3049,
      "Ľt": 3050,
      "ĠáŀĢáŀĢ": 3051,
      "ĠhÃło": 3052,
      "Tr": 3053,
      "ĠSÃ¡ng": 3054,
      "áŀĵáŀĳ": 3055,
      "ĠhÃłi": 3056,
      "áŀļáŀ¢áŀĦ": 3057,
      "áŀĢáŀĩáŀī": 3058,
      "itcoin": 3059,
      "ĠLai": 3060,
      "ĠTham": 3061,
      "©p": 3062,
      "Ġgh": 3063,
      "ĠÃ©p": 3064,
      "EP": 3065,
      "á»³": 3066,
      "ĠÄĲá»ģ": 3067,
      "ines": 3068,
      "ChÃºng": 3069,
      "ĠrÆ¡i": 3070,
      "ĠáŁ¤áŁł": 3071,
      "ĠCáº§n": 3072,
      "op": 3073,
      "Ġquanh": 3074,
      "ĠkÃ©m": 3075,
      "ĠcÃ¡nh": 3076,
      "ĠSt": 3077,
      "Ġhá»©a": 3078,
      "di": 3079,
      "aysia": 3080,
      "ĠáŁ¢áŁ¤": 3081,
      "ĠMalaysia": 3082,
      "Ġthiá»ĩp": 3083,
      "ĠbÃ¡": 3084,
      "ĠVÃło": 3085,
      "ĠÄĳáº¯n": 3086,
      "Ġvinh": 3087,
      "ĠáŀĸáŀĽáŀĢáŀĺ": 3088,
      "áŀĦáŀ¡": 3089,
      "Ġ]": 3090,
      "ĠTÃŃnh": 3091,
      "ik": 3092,
      "Ġbáº¡i": 3093,
      "Ġdá»¯": 3094,
      "ĠnhuáºŃn": 3095,
      "ĠtáºŃt": 3096,
      "Ġtuy": 3097,
      "áŀĺáŀĸáŀļ": 3098,
      "áŀħáŀļáŀİ": 3099,
      "ĠdÃµi": 3100,
      "line": 3101,
      "Ġáŀĸáŀİ": 3102,
      "ĠShin": 3103,
      "áŀĵáŀĢáŀĬ": 3104,
      "áŀħáŀķ": 3105,
      "£n": 3106,
      "Ġ[": 3107,
      "Ġquay": 3108,
      "ĠDÃ¹": 3109,
      "man": 3110,
      "ĠmÃłu": 3111,
      "áŀĻáŀŁáŀĺ": 3112,
      "áŀ¥": 3113,
      "Ġtá»¥": 3114,
      "ĠHÆ°ng": 3115,
      "zo": 3116,
      "Ġkiá»ģu": 3117,
      "Ġcháº¿t": 3118,
      "ĠBitcoin": 3119,
      "ĠNgan": 3120,
      "ĠAir": 3121,
      "ĠODA": 3122,
      "tina": 3123,
      "ĠlÃºa": 3124,
      "ĠBo": 3125,
      "Ġlá»£n": 3126,
      "Ġ194": 3127,
      "ES": 3128,
      "ĠPhá»": 3129,
      "ĠáŀŁáŀłáŀĸ": 3130,
      "ĠgÆ°Æ¡ng": 3131,
      "ĠVlad": 3132,
      "ĠáŀļáŀĶáŀĶ": 3133,
      "gen": 3134,
      "ĠcÃł": 3135,
      "Ġleo": 3136,
      "ĠTá»±": 3137,
      "Ġphe": 3138,
      "ĠAIPA": 3139,
      "ĠlÃ£m": 3140,
      "ĠnÃ©t": 3141,
      "ĠTháº¯ng": 3142,
      "ĠáŁ¢áŁ¡": 3143,
      "land": 3144,
      "ĠthoÃ¡t": 3145,
      "Ġ2030": 3146,
      "ĠGu": 3147,
      "ĠRo": 3148,
      "Ġcháº³ng": 3149,
      "Ġ2010": 3150,
      "ĠáŁ¢áŁłáŁ¡áŁ¡": 3151,
      "ha": 3152,
      "Ġtá»ī": 3153,
      "áŀŁáŀħáŀļ": 3154,
      "ĠAss": 3155,
      "áŀļáŀľáŀĢáŀĺ": 3156,
      "áŀıáŀļáŀĹ": 3157,
      "ĠáŁ¢áŁ§": 3158,
      "ĠCá»Ńu": 3159,
      "son": 3160,
      "Ġtrá»«": 3161,
      "áŀĽáŀĻáŀĢ": 3162,
      "ĠbÃ©": 3163,
      "ĠÄĲÃło": 3164,
      "Ġtrá»¯": 3165,
      "ĠLÃ¢m": 3166,
      "ĠSen": 3167,
      "Ġcáº£ng": 3168,
      "Ġchá»ĵng": 3169,
      "ĠNgÃ´": 3170,
      "ĠPhÆ°Æ¡ng": 3171,
      "Ġhoan": 3172,
      "ĠbuÃ´n": 3173,
      "áŁģáŀ¸": 3174,
      "ĠQuáº£n": 3175,
      "ĠáŀĸáŀĽáŀļáŀĬ": 3176,
      "ĠCÆ°á»Ŀng": 3177,
      "áŀħáŀļ": 3178,
      "ĠAng": 3179,
      "ĠXIII": 3180,
      "lo": 3181,
      "Ġthá»ģm": 3182,
      "áŀļáŀĶáŀĵ": 3183,
      "ent": 3184,
      "ĠXÃ¢y": 3185,
      "Ġ1992": 3186,
      "ĠToÃ¡n": 3187,
      "ĠMer": 3188,
      "ĠlÃ¢m": 3189,
      "ĠnÃºi": 3190,
      "áŀĳáŀŁ": 3191,
      "ĠphÃºt": 3192,
      "Ġtháº£i": 3193,
      "Ġná»ķ": 3194,
      "ĠáŀĤáŀĶ": 3195,
      "ĠThiÃªn": 3196,
      "ash": 3197,
      "ĠWTO": 3198,
      "ĠVladim": 3199,
      "ham": 3200,
      "áŀĤáŀĵ": 3201,
      "Ġráº»": 3202,
      "ĠáŁ¢áŁ¨": 3203,
      "Ã³i": 3204,
      "ĠNgoc": 3205,
      "ĠCanada": 3206,
      "uro": 3207,
      "ĠTráº¯ng": 3208,
      "Ġháº¡nh": 3209,
      "ĠSam": 3210,
      "Ġcháº¡y": 3211,
      "ie": 3212,
      "Ġcha": 3213,
      "ĠlÃłng": 3214,
      "ĠtÃ¡n": 3215,
      "Ġnon": 3216,
      "ĠáŀĬáŀİ": 3217,
      "Ġquá»¹": 3218,
      "ich": 3219,
      "Ġváº¹n": 3220,
      "Ġháº¹p": 3221,
      "ach": 3222,
      "ĠlÃµi": 3223,
      "rab": 3224,
      "ĠParis": 3225,
      "ĠáŀļáŀĢáŀĥ": 3226,
      "ĠkhÃ´i": 3227,
      "ĠtÆ°Æ¡i": 3228,
      "ĠrÃło": 3229,
      "ĠRC": 3230,
      "ĠáŁ¢áŁ¢": 3231,
      "ĠPhilippines": 3232,
      "Ġchá»©": 3233,
      "ĠVietnam": 3234,
      "ĠTeh": 3235,
      "ĠGiáº£i": 3236,
      "ĠáŀĢáŀĦáŀĢáŀĺ": 3237,
      "áŁ¡áŁ": 3238,
      "ĠMay": 3239,
      "Ã¹m": 3240,
      "ĠVladimir": 3241,
      "Ġkiá»ģm": 3242,
      "ĠCon": 3243,
      "Ġdoáº¡": 3244,
      "ary": 3245,
      "ut": 3246,
      "áŀĪáŀĶ": 3247,
      "ĠMá»Ĺi": 3248,
      "ly": 3249,
      "ĠdÆ°Æ¡ng": 3250,
      "ĠHáº¡": 3251,
      "ĠxÃ³a": 3252,
      "Ġgiáº£n": 3253,
      "ĠRCEP": 3254,
      "kel": 3255,
      "Ġchá»Ĺ": 3256,
      "Ġáŀ¥áŀİáŀĳ": 3257,
      "ĠÄĲiá»ĥm": 3258,
      "áŀĭáŀĴ": 3259,
      "ĠSo": 3260,
      "ĠmÆ°u": 3261,
      "ĠAssad": 3262,
      "ĠlÆ°á»Ľi": 3263,
      "ĠáŀĲáŀĻáŀħ": 3264,
      "áŀĵáŀĢáŀĤ": 3265,
      "Ġ36": 3266,
      "Ġ55": 3267,
      "Ġxá»©ng": 3268,
      "ĠTehran": 3269,
      "Ġtuyá»ĩt": 3270,
      "ĠtrÃºng": 3271,
      "ĠVen": 3272,
      "ĠáŀľáŀĤ": 3273,
      "ge": 3274,
      "áŀĴáŀĩáŀĵ": 3275,
      "Æ°á»Ŀn": 3276,
      "ĠTÃ²a": 3277,
      "ĠHÃłnh": 3278,
      "áŀ¢áŀĦ": 3279,
      "ĠTÃłu": 3280,
      "ist": 3281,
      "ĠnghÃªnh": 3282,
      "áŀĸáŀĽáŀļáŀĬ": 3283,
      "áŀıáŀĺáŀŁ": 3284,
      "ĠÄĲÃ¡ng": 3285,
      "ĠÄĳuá»ķi": 3286,
      "Ġmá»ĩnh": 3287,
      "ĠChuyÃªn": 3288,
      "ĠUNES": 3289,
      "ĠBÃ¡n": 3290,
      "ĠRá»": 3291,
      "AS": 3292,
      "ĠTien": 3293,
      "áŀļáŀĽáŀĦ": 3294,
      "ĠMerkel": 3295,
      "ĠUNESCO": 3296,
      "Ġná»ģ": 3297,
      "Ġkhung": 3298,
      "Ġráº½": 3299,
      "ĠTruyá»ģn": 3300,
      "ook": 3301,
      "Ġal": 3302,
      "Ġcai": 3303,
      "Ġha": 3304,
      "Ġbá»ĵi": 3305,
      "Ġchá»§ng": 3306,
      "áŀ¥áŀĳ": 3307,
      "Ġchá»¯a": 3308,
      "ĠPet": 3309,
      "Ìĥ": 3310,
      "áŀĽáŀĶáŀĵ": 3311,
      "ĠáŁĸ": 3312,
      "ĠáŁ¢áŁ£": 3313,
      "áŀŁáŀľ": 3314,
      "Ġ195": 3315,
      "ĠáŁ¡áŁ©áŁ§": 3316,
      "ĠCP": 3317,
      "ĠÄĳáº¯p": 3318,
      "akh": 3319,
      "áŀģáŀľ": 3320,
      "ĠMau": 3321,
      "ĠMac": 3322,
      "ĠTHCS": 3323,
      "ĠÄĳÃªm": 3324,
      "áŀĢáŀİ": 3325,
      "ĠVá»ĭnh": 3326,
      "Ġcháº·ng": 3327,
      "Ġsoáº¡n": 3328,
      "ex": 3329,
      "áŀĦáŀķ": 3330,
      "ĠChiá»ģu": 3331,
      "áŀĽáŀĴáŀĺ": 3332,
      "ast": 3333,
      "ĠArgen": 3334,
      "ko": 3335,
      "ĠHÄĲ": 3336,
      "Ġtáº¥m": 3337,
      "áŀļáŀļáŀĢ": 3338,
      "ĠArgentina": 3339,
      "ĠKhÃ¡nh": 3340,
      "ĠDuong": 3341,
      "um": 3342,
      "áŀĦáŀł": 3343,
      "Ġtháº¯t": 3344,
      "ĠTÃ¬nh": 3345,
      "Ġon": 3346,
      "áŀĽáŀĤ": 3347,
      "Ġáŀ§áŀĶáŀĳ": 3348,
      "AE": 3349,
      "ĠDa": 3350,
      "ĠDav": 3351,
      "ĠRÃµ": 3352,
      "ĠHong": 3353,
      "Ġtrá»Ŀi": 3354,
      "unce": 3355,
      "ĠVÅ©ng": 3356,
      "Ġáŀ§áŀĶáŀŁáŀĤ": 3357,
      "ĠsÃºng": 3358,
      "Ġbá»ķng": 3359,
      "Ġounce": 3360,
      "Ġbáº¿": 3361,
      "Ã¨n": 3362,
      "ĠCai": 3363,
      "ĠHiá»ĩu": 3364,
      "ĠKy": 3365,
      "áº¯k": 3366,
      "áŀĶáŀľ": 3367,
      "ĠÄĲáº·ng": 3368,
      "ĠMu": 3369,
      "cow": 3370,
      "ĠVÃµ": 3371,
      "Ġ400": 3372,
      "ĠMoscow": 3373,
      "ĠQuyá»ģn": 3374,
      "ĠAm": 3375,
      "áŀĢáŀĹ": 3376,
      "Ġ196": 3377,
      "ĠNghiÃªn": 3378,
      "ĠShinzo": 3379,
      "ĠTriá»ĥn": 3380,
      "ĠVenez": 3381,
      "ee": 3382,
      "ĠQuoc": 3383,
      "ĠRam": 3384,
      "ĠMor": 3385,
      "ĠGiao": 3386,
      "uela": 3387,
      "ĠlÃ¡": 3388,
      "áŀĸáŀĵ": 3389,
      "Ġ2009": 3390,
      "ky": 3391,
      "Ġven": 3392,
      "aceb": 3393,
      "ĠVenezuela": 3394,
      "acebook": 3395,
      "ĠÄĳá»įc": 3396,
      "ab": 3397,
      "ĠbÃ£i": 3398,
      "ĠNhÃ³m": 3399,
      "Ġgá»Ĺ": 3400,
      "ĠTam": 3401,
      "any": 3402,
      "ĠBel": 3403,
      "ĠGroup": 3404,
      "Ġ75": 3405,
      "Ġvá»įt": 3406,
      "ĠÄĲá»Ĺ": 3407,
      "Ġonline": 3408,
      "ĠngÃ´i": 3409,
      "Ġdio": 3410,
      "Ġhiáº¿m": 3411,
      "ĠCar": 3412,
      "ĠTáº§m": 3413,
      "ĠMoon": 3414,
      "ĠDN": 3415,
      "ĠNháºŃn": 3416,
      "ĠthoÃ¡i": 3417,
      "Ġdioxin": 3418,
      "ÌĽ": 3419,
      "est": 3420,
      "Ġhá»§": 3421,
      "ĠThe": 3422,
      "Ġw": 3423,
      "ĠÄĳÃ¢u": 3424,
      "ĠquÃł": 3425,
      "áŀĤáŀļáŀĻ": 3426,
      "Ġngá»«a": 3427,
      "ĠLá»ĭch": 3428,
      "ĠÄĲÃ¡nh": 3429,
      "ĠnháºŃt": 3430,
      "ĠCá»ķ": 3431,
      "Ġkhá»©": 3432,
      "áŀĪáŀļ": 3433,
      "áŀıáŀ±": 3434,
      "Ġthuyáº¿t": 3435,
      "ĠÄĳá»ı": 3436,
      "ĠlÃłn": 3437,
      "ĠIt": 3438,
      "ĠáŀŁáŀĢáŀĽáŀĽ": 3439,
      "Ġthuáº«n": 3440,
      "ĠgiÃ¡c": 3441,
      "ĠCL": 3442,
      "ĠDuy": 3443,
      "ĠmÃ¡u": 3444,
      "arus": 3445,
      "Ġváº»": 3446,
      "Ġáŀ¢áŀĢ": 3447,
      "áŀĩáŀŁ": 3448,
      "ĠáŀĤáŀİáŀĵ": 3449,
      "ĠRáºŃp": 3450,
      "¥p": 3451,
      "ĠlÃ¹i": 3452,
      "ĠSong": 3453,
      "ĠáŁ§áŁł": 3454,
      "ĠcÅ©": 3455,
      "ĠMáº¡nh": 3456,
      "ĠTW": 3457,
      "ĠngÃłn": 3458,
      "áŀĲáŀĶáŀĳ": 3459,
      "ĠEC": 3460,
      "ĠPCA": 3461,
      "áŀĶáŀĶáŀĳ": 3462,
      "Æ°Æ¡n": 3463,
      "ĠPháºŃt": 3464,
      "rus": 3465,
      "ĠbÃ¡nh": 3466,
      "ĠáŀĶáŀĳáŀĬ": 3467,
      "Ġlá»Ĺ": 3468,
      "áŀĶáŀļ": 3469,
      "ind": 3470,
      "Ġhá»§y": 3471,
      "ni": 3472,
      "ĠlÅ©": 3473,
      "Ġká»ĭch": 3474,
      "ĠgÃł": 3475,
      "uel": 3476,
      "ĠvÆ°Æ¡ng": 3477,
      "ĠáŀĳáŀĦ": 3478,
      "áŀĬáŀĦ": 3479,
      "Ġtháº»": 3480,
      "ĠHam": 3481,
      "MM": 3482,
      "Ġkhiáº¿u": 3483,
      "ĠLo": 3484,
      "áŀļáŀŁáŀłáŀĶ": 3485,
      "áŀıáŀĹáŀĢ": 3486,
      "áŀ¡áŀĦ": 3487,
      "Ġinternet": 3488,
      "Ġrau": 3489,
      "ĠyÃªn": 3490,
      "ĠáŁ¡áŁ©áŁ¨áŁ¢": 3491,
      "ĠhÆ°u": 3492,
      "Ġdá»¡": 3493,
      "ya": 3494,
      "áŀĲáŀĶ": 3495,
      "ĠPhiÃªn": 3496,
      "eal": 3497,
      "áŀĺáŀģ": 3498,
      "áŀĳáŀļ": 3499,
      "ĠchÃŃn": 3500,
      "CP": 3501,
      "áŁĬáŀ¾": 3502,
      "Ġ32": 3503,
      "ĠÂ»": 3504,
      "ĠáŀķáŀĽáŀľ": 3505,
      "ĠsÃłn": 3506,
      "ph": 3507,
      "ï¼": 3508,
      "Ġthuá»ĳc": 3509,
      "ĠÄĲá»ĭnh": 3510,
      "ĠvÆ°á»Ľng": 3511,
      "ara": 3512,
      "áŀĸáŀħ": 3513,
      "Ġáŀ¢áŀĶáŀ¢": 3514,
      "Ġuá»·": 3515,
      "ĠÄĳÃ¡o": 3516,
      "áŀĦáŀĤ": 3517,
      "Ġvu": 3518,
      "áŀīáŀķ": 3519,
      "ĠMan": 3520,
      "ck": 3521,
      "Ġnháº£y": 3522,
      "Ã³t": 3523,
      "ĠMa": 3524,
      "áŀĵáŀĢáŀĢ": 3525,
      "ĠBelarus": 3526,
      "ï¼Ł": 3527,
      "Ġ37": 3528,
      "Å©i": 3529,
      "Ġ2008": 3530,
      "ĠáŁ¦áŁł": 3531,
      "ĠchÃ¡u": 3532,
      "áŀĻáŀľ": 3533,
      "ĠmÃ£": 3534,
      "dan": 3535,
      "ĠRá»ĭa": 3536,
      "CI": 3537,
      "ĠPG": 3538,
      "ĠGS": 3539,
      "ĠkÃŃnh": 3540,
      "Ġvá»£": 3541,
      "ĠSá»ĳ": 3542,
      "ĠáŁ¢áŁ©": 3543,
      "ĠAngela": 3544,
      "TÃ´i": 3545,
      "áŀĽáŀı": 3546,
      "Ġthuá»·": 3547,
      "ĠIM": 3548,
      "ĠvÃŃ": 3549,
      "Ġvirus": 3550,
      "áŀĻáŀķáŀĽ": 3551,
      "ĠLi": 3552,
      "âĢ¦": 3553,
      "Ġsá»¯a": 3554,
      "ombank": 3555,
      "Ġmáº§m": 3556,
      "ĠBang": 3557,
      "ĠThay": 3558,
      "ĠDá»": 3559,
      "ĠNghá»ĩ": 3560,
      "Ġláº½": 3561,
      "Ġmá»±c": 3562,
      "ĠArab": 3563,
      "Ġgiá»ıi": 3564,
      "áŀĵáŀĩ": 3565,
      "ĠthÆ¡": 3566,
      "ell": 3567,
      "ĠBac": 3568,
      "ĠxÄĥng": 3569,
      "ow": 3570,
      "¥y": 3571,
      "Ġtráº¡i": 3572,
      "ĠvÆ°Æ¡n": 3573,
      "áŀħáŀģ": 3574,
      "ĠNhÃ¬n": 3575,
      "áŀ¢áŀŁ": 3576,
      "kh": 3577,
      "áŀĹáŀĶ": 3578,
      "Ã£o": 3579,
      "Ġdá»ĩt": 3580,
      "ĠáŀĺáŀĢáŀł": 3581,
      "á»³nh": 3582,
      "Ġtriá»ĩt": 3583,
      "ĠCat": 3584,
      "ĠHol": 3585,
      "ĠáŀĶáŀĭ": 3586,
      "erry": 3587,
      "áŀĽáŀĥ": 3588,
      "Ġcá»Ŀ": 3589,
      "áŀķáŀļáŀİ": 3590,
      "áŀĤáŀĺáŀĢ": 3591,
      "ĠTech": 3592,
      "Ġhuáº¥n": 3593,
      "stan": 3594,
      "ĠkhÃ¡m": 3595,
      "ep": 3596,
      "áŀĵáŀħ": 3597,
      "áŀŁáŀĶ": 3598,
      "ĠThÃºc": 3599,
      "ĠFacebook": 3600,
      "ĠHá»į": 3601,
      "Ġtruy": 3602,
      "ĠlÃ¢y": 3603,
      "ass": 3604,
      "Ġáº¥m": 3605,
      "Ġkáº»": 3606,
      "ĠVáº¥n": 3607,
      "ĠPGS": 3608,
      "ĠvÆ°á»Ŀn": 3609,
      "Ġquen": 3610,
      "ĠxuÃ¢n": 3611,
      "ork": 3612,
      "ĠNhá»Ŀ": 3613,
      "áŀĦáŀĻ": 3614,
      "ĠsÃ¡u": 3615,
      "ĠáŀıáŀŁ": 3616,
      "ĠYen": 3617,
      "ĠdÃ²": 3618,
      "ĠáŀĩáŀĵáŀļáŀĦ": 3619,
      "ĠkhÃ¡ng": 3620,
      "ĠPhÆ°á»Ľc": 3621,
      "ĠGen": 3622,
      "ĠÃĿ": 3623,
      "ian": 3624,
      "ĠbÃ³ng": 3625,
      "ĠgÃ¡i": 3626,
      "ĠBH": 3627,
      "áŀļáŀĽáŀĢ": 3628,
      "uk": 3629,
      "Ġbá»Ŀ": 3630,
      "ĠThá»ıa": 3631,
      "ĠáŁ¥áŁłáŁł": 3632,
      "áŀĻáŀĺáŀŁ": 3633,
      "ics": 3634,
      "Ġbá»Ľt": 3635,
      "Ġuá»ĳng": 3636,
      "Ġáŀ¢áŀĶáŀ¢áŀļáŀŁ": 3637,
      "ta": 3638,
      "¥ng": 3639,
      "Nam": 3640,
      "Ġtráº¥n": 3641,
      "ĠBash": 3642,
      "Ġchá»¯": 3643,
      "Ġláº¡nh": 3644,
      "ĠTÃ¡m": 3645,
      "áŀİáŀĦáŀĶ": 3646,
      "ĠÄĳá»ĭch": 3647,
      "ĠáŀĩáŀĵáŀļáŀĦáŀĤ": 3648,
      "ĠkiÃªm": 3649,
      "ĠthÃ¢m": 3650,
      "ĠLá»±c": 3651,
      "ĠáŁ¤áŁ¥": 3652,
      "ĠthÃº": 3653,
      "ĠsÃ´i": 3654,
      "ĠáŁ£áŁ¥": 3655,
      "Ġngoáº·t": 3656,
      "ĠÃ¡o": 3657,
      "ĠTiá»ģn": 3658,
      "ĠlÃłnh": 3659,
      "áŀļáŀıáŀŁ": 3660,
      "Ġtháº£m": 3661,
      "Ġviá»ħn": 3662,
      "ĠngÆ°": 3663,
      "iden": 3664,
      "Ġsáº¯m": 3665,
      "XH": 3666,
      "ig": 3667,
      "ĠTal": 3668,
      "uss": 3669,
      "ĠCáºŃn": 3670,
      "Ġphá»ıng": 3671,
      "ff": 3672,
      "ĠáŀĩáŀĽ": 3673,
      "âĢĭ": 3674,
      "ealand": 3675,
      "ĠÄĳen": 3676,
      "ĠdÃ¢y": 3677,
      "ĠThai": 3678,
      "ĠChá»ĭ": 3679,
      "eng": 3680,
      "áŀļáŀĥ": 3681,
      "áŀĵáŀĽ": 3682,
      "Ġthen": 3683,
      "ĠhÃ¹ng": 3684,
      "Ġ65": 3685,
      "Ġgháº¿": 3686,
      "ka": 3687,
      "ĠxoÃ¡": 3688,
      "áŀĺáŀĶáŀī": 3689,
      "ĠBáº¥t": 3690,
      "Ġmá»ı": 3691,
      "Ġbá»ĳn": 3692,
      "ĠMÃ´i": 3693,
      "ĠTuan": 3694,
      "Ġáŀ¢áŀħáŀĽáŀĵ": 3695,
      "ĠPr": 3696,
      "ĠDang": 3697,
      "Ġ600": 3698,
      "ĠVietNam": 3699,
      "ĠPark": 3700,
      "ĠZealand": 3701,
      "áŀĶáŀ¢áŀĦ": 3702,
      "ĠgiÃły": 3703,
      "ĠDai": 3704,
      "Ġtá»ķn": 3705,
      "ke": 3706,
      "ĠáŁ£áŁ¡": 3707,
      "mer": 3708,
      "ĠcÃ£i": 3709,
      "ĠkhÃ¢u": 3710,
      "ĠHolland": 3711,
      "áŀĺáŀĬ": 3712,
      "ĠCO": 3713,
      "ĠLam": 3714,
      "ĠChung": 3715,
      "ĠLá»£i": 3716,
      "ion": 3717,
      "Ġbáº¡c": 3718,
      "ĠBÃłi": 3719,
      "Ġáŀ¥áŀŁ": 3720,
      "Net": 3721,
      "áŀĦáŀħáŀĢ": 3722,
      "ĠBu": 3723,
      "Ġ49": 3724,
      "ĠáŀĬáŀĬ": 3725,
      "ĠBen": 3726,
      "Ġ98": 3727,
      "ĠtÃ´m": 3728,
      "ĠLá»Ļc": 3729,
      "ĠThÆ¡": 3730,
      "áŀĵáŀĢáŀĳ": 3731,
      "Trong": 3732,
      "ith": 3733,
      "Ġhá»©ng": 3734,
      "ĠKerry": 3735,
      "ĠVietNamNet": 3736,
      "Äĳ": 3737,
      "ĠBui": 3738,
      "ĠUy": 3739,
      "ae": 3740,
      "ĠchÄĥn": 3741,
      "Ġ01": 3742,
      "ĠThuáºŃn": 3743,
      "ĠSA": 3744,
      "ĠIMF": 3745,
      "sk": 3746,
      "ĠáŀľáŀĮ": 3747,
      "ĠMá»Ľi": 3748,
      "ĠBrun": 3749,
      "ĠBashar": 3750,
      "Ġtáº£": 3751,
      "ĠáŀĳáŀŁáŀľáŀı": 3752,
      "ĠHollande": 3753,
      "if": 3754,
      "ĠáŀŁáŀľáŀĵ": 3755,
      "Ġngá»ĵi": 3756,
      "ĠEm": 3757,
      "Ġ34": 3758,
      "áŀĦáŀĻáŀĽ": 3759,
      "ĠtháºŃn": 3760,
      "á»Ļn": 3761,
      "Æ°á»£u": 3762,
      "ĠThá»į": 3763,
      "áŀĻáŀı": 3764,
      "Ġlá»Ĺi": 3765,
      "ĠTalib": 3766,
      "Ġeu": 3767,
      "ĠnhÆ°á»£ng": 3768,
      "ĠTN": 3769,
      "Ġdiá»ĩt": 3770,
      "ĠrÃ£i": 3771,
      "ĠTri": 3772,
      "ĠKaz": 3773,
      "áŀļáŀĸáŀĵ": 3774,
      "áŀĺáŀĪ": 3775,
      "ĠTay": 3776,
      "Ġngon": 3777,
      "ĠSeo": 3778,
      "ĠSer": 3779,
      "aul": 3780,
      "ĠNá»": 3781,
      "ĠClin": 3782,
      "ĠHÃ³a": 3783,
      "ĠBiden": 3784,
      "Ġchá»ĳi": 3785,
      "áŀĽáŀħ": 3786,
      "Ġcá»Łi": 3787,
      "amb": 3788,
      "áŀĳáŀļáŀĢ": 3789,
      "ĠGáº§n": 3790,
      "Ġ48": 3791,
      "Ġeuro": 3792,
      "ĠLÆ°Æ¡ng": 3793,
      "ĠClinton": 3794,
      "Ġbáº£ng": 3795,
      "ĠLat": 3796,
      "ĠFranc": 3797,
      "áŀıáŀĶáŀĦ": 3798,
      "Ġkhen": 3799,
      "ĠBer": 3800,
      "ĠDam": 3801,
      "ĠHá»ĩ": 3802,
      "Ġ132": 3803,
      "Ġ41": 3804,
      "ĠJe": 3805,
      "ĠlÆ°á»Ŀng": 3806,
      "Ġhá»ģ": 3807,
      "ĠáŁ¢áŁłáŁ¢áŁ¥": 3808,
      "Ġ150": 3809,
      "áŀĳáŀļáŀĢáŀĲ": 3810,
      "áŀĵáŀķáŀĽ": 3811,
      "Ġvun": 3812,
      "Ġkm": 3813,
      "Ġthá»Ŀ": 3814,
      "ĠHáº±ng": 3815,
      "Ġ33": 3816,
      "ĠEuro": 3817,
      "ĠvÃ©": 3818,
      "ĠBra": 3819,
      "Ġmá»ģm": 3820,
      "ico": 3821,
      "ĠBá»ī": 3822,
      "Ġxá»©": 3823,
      "áŀľáŀļ": 3824,
      "ĠVÄ©nh": 3825,
      "áŀłáŀĹ": 3826,
      "Ġxong": 3827,
      "áŀļáŀĩáŀĺ": 3828,
      "ĠHoÃłi": 3829,
      "ĠHun": 3830,
      "ĠtÃ¹y": 3831,
      "ĠáŀĤáŀĻ": 3832,
      "Ġ1975": 3833,
      "ĠAEC": 3834,
      "ĠáŀĻáŀĶ": 3835,
      "ĠbÃ²": 3836,
      "ĠNang": 3837,
      "Ġchá»¥p": 3838,
      "ĠrÆ°á»£u": 3839,
      "ĠMah": 3840,
      "aly": 3841,
      "ĠTaliban": 3842,
      "áŀĵáŀĤ": 3843,
      "ĠMed": 3844,
      "ĠNháº¥t": 3845,
      "ĠmÃ¬n": 3846,
      "Viá»ĩt": 3847,
      "ĠII": 3848,
      "log": 3849,
      "ĠtrÃ¹m": 3850,
      "ĠGaz": 3851,
      "eland": 3852,
      "ĠáŁ£áŁłáŁł": 3853,
      "ĠhÆ¡i": 3854,
      "Ġáŀ¢áŀľ": 3855,
      "ĠhÃ£y": 3856,
      "Ġdá»ĭ": 3857,
      "si": 3858,
      "ĠÄĳáº¯t": 3859,
      "Ġtráº¯ng": 3860,
      "ĠlÃ¡i": 3861,
      "Ġnháº¹": 3862,
      "áŀĸáŀģ": 3863,
      "Ġ38": 3864,
      "ĠáŀŁáŀıáŀľáŀı": 3865,
      "Ã©c": 3866,
      "áŀ¢áŀļ": 3867,
      "ĠJer": 3868,
      "£áŁł": 3869,
      "ĠmÃ£i": 3870,
      "ĠTÃ´n": 3871,
      "ĠTher": 3872,
      "ois": 3873,
      "gh": 3874,
      "art": 3875,
      "Ġ700": 3876,
      "Ġnáº¡i": 3877,
      "áŀĵáŀĢáŀĻáŀĢ": 3878,
      "CB": 3879,
      "Ġngang": 3880,
      "ĠkhÃ¡t": 3881,
      "ĠChÃ¡nh": 3882,
      "áŀĵáŀĢáŀĻáŀĢáŀĸ": 3883,
      "ĠÄĲÄĥng": 3884,
      "ĠNet": 3885,
      "ĠgiÃ³": 3886,
      "ĠHoáº¡t": 3887,
      "ort": 3888,
      "ĠYork": 3889,
      "Ġcá»©ng": 3890,
      "áŀīáŀĻáŀĢ": 3891,
      "iáº¿ng": 3892,
      "ĠXIV": 3893,
      "Ġáº©n": 3894,
      "Ġhá»ĳi": 3895,
      "Ġlá»įc": 3896,
      "áŀļáŀĶáŀļ": 3897,
      "ĠKá»·": 3898,
      "ĠTuáº§n": 3899,
      "áŀĶáŀĲáŀı": 3900,
      "ĠVI": 3901,
      "Ä©a": 3902,
      "eva": 3903,
      "TT": 3904,
      "ĠCS": 3905,
      "ban": 3906,
      "sen": 3907,
      "ĠdÆ°á»Ŀng": 3908,
      "ĠToky": 3909,
      "akhstan": 3910,
      "ĠTokyo": 3911,
      "tel": 3912,
      "ĠDÆ°": 3913,
      "ĠtÃłn": 3914,
      "ĠmÆ¡": 3915,
      "Ġtá»ıa": 3916,
      "áŀĴáŀļáŀĺ": 3917,
      "ĠHÃ£": 3918,
      "ĠNgo": 3919,
      "ĠSe": 3920,
      "Ã©o": 3921,
      "áŁ¡áŁł": 3922,
      "ile": 3923,
      "ĠKazakhstan": 3924,
      "Ġvá»¡": 3925,
      "ĠVÃłng": 3926,
      "ĠCN": 3927,
      "ĠhoÃ£n": 3928,
      "Ġkhoáº»": 3929,
      "áŀĽáŀ±": 3930,
      "Ġlang": 3931,
      "ull": 3932,
      "ĠSan": 3933,
      "Ġ800": 3934,
      "Ġ1945": 3935,
      "ĠbÄĥng": 3936,
      "Ġmáº¥y": 3937,
      "Ġtá»ĳn": 3938,
      "Ġáŀ¯áŀĢáŀĳ": 3939,
      "ĠVÃ¢n": 3940,
      "ÃŃa": 3941,
      "áŀĶáŀĻáŀĢ": 3942,
      "ĠáŁ¨áŁł": 3943,
      "Ġ43": 3944,
      "á»Ńa": 3945,
      "Ġhuá»ĳng": 3946,
      "DP": 3947,
      "áŀĺáŀĥ": 3948,
      "Ġ52": 3949,
      "ĠgÃ³c": 3950,
      "ĠKhmer": 3951,
      "áŀįáŀĵáŀĹ": 3952,
      "RI": 3953,
      "mit": 3954,
      "res": 3955,
      "áŀĶáŀĶáŀĦ": 3956,
      "ĠTim": 3957,
      "áŀİáŀļáŀĤ": 3958,
      "ĠKr": 3959,
      "ĠAnd": 3960,
      "ĠBrunei": 3961,
      "áŀ¢áŀĵ": 3962,
      "esa": 3963,
      "berg": 3964,
      "tt": 3965,
      "Ãªng": 3966,
      "ĠkhÆ¡i": 3967,
      "ĠÄĲÆ°á»£c": 3968,
      "la": 3969,
      "ĠLÆ°u": 3970,
      "ĠÃļ": 3971,
      "our": 3972,
      "áŀ·áŁį": 3973,
      "Ġtrai": 3974,
      "ĠMich": 3975,
      "ĠhÃ¨": 3976,
      "ĠThá»ĥ": 3977,
      "BC": 3978,
      "Ġf": 3979,
      "Ġvong": 3980,
      "Ġláº¯p": 3981,
      "ĠHÆ°Æ¡ng": 3982,
      "ĠrÃ¨n": 3983,
      "ĠKon": 3984,
      "áŀŁáŀĢáŀĢáŀĺ": 3985,
      "ĠMad": 3986,
      "Ġlá»ĩch": 3987,
      "OA": 3988,
      "zil": 3989,
      "ĠMá»©c": 3990,
      "Ġweb": 3991,
      "AI": 3992,
      "ĠÄĳÃłi": 3993,
      "ĠSch": 3994,
      "ĠSÃłi": 3995,
      "ĠCuá»ĳi": 3996,
      "ĠtÃłng": 3997,
      "ĠtÃ²a": 3998,
      "ĠBrazil": 3999,
      "Ph": 4000,
      "ĠÄĳá»©a": 4001,
      "ĠÄĲinh": 4002,
      "Ġchá»Ł": 4003,
      "ĠAD": 4004,
      "ĠAMM": 4005,
      "áŀĲáŀĢ": 4006,
      "ĠÄĳoan": 4007,
      "ite": 4008,
      "áŀłáŀĳ": 4009,
      "ĠPhá»§": 4010,
      "ilk": 4011,
      "áŀıáŀŁáŀī": 4012,
      "ĠSÃ©c": 4013,
      "ĠKiÃªn": 4014,
      "ĠKov": 4015,
      "ain": 4016,
      "áŀģáŀĦ": 4017,
      "onia": 4018,
      "ĠCatal": 4019,
      "combank": 4020,
      "Ġtráº§m": 4021,
      "Ġmáº·n": 4022,
      "Ġdáº¯t": 4023,
      "ĠQuÃ½": 4024,
      "ĠtÃ¡ch": 4025,
      "Ġngá»£i": 4026,
      "ĠáŁ©áŁł": 4027,
      "ĠTin": 4028,
      "ĠVÃŃ": 4029,
      "ĠlÃ£ng": 4030,
      "ĠáŁ¡áŁ©áŁ¤": 4031,
      "Ġhá»¥t": 4032,
      "ĠCáº£": 4033,
      "ĠMá»Ł": 4034,
      "áŀĶáŀĢáŀĺ": 4035,
      "ĠLáº§n": 4036,
      "Ġ02": 4037,
      "ĠDavid": 4038,
      "ĠGaza": 4039,
      "áŀıáŀĺáŀĹ": 4040,
      "áŀľáŀĢáŀļ": 4041,
      "ĠSun": 4042,
      "orn": 4043,
      "Ã¨m": 4044,
      "ric": 4045,
      "áŀĭáŀĹ": 4046,
      "ĠLÃłm": 4047,
      "ĠTrá»ĭ": 4048,
      "ĠSaudi": 4049,
      "ĠláºŃt": 4050,
      "ĠTá»ĳi": 4051,
      "ĠGÃ²n": 4052,
      "Ġ2006": 4053,
      "ĠáŀŁáŀľáŀĵáŀĢáŀĺ": 4054,
      "ĠTheresa": 4055,
      "á»µ": 4056,
      "áŀĻáŀĩáŀĺ": 4057,
      "ĠSi": 4058,
      "ĠThá»¥y": 4059,
      "ers": 4060,
      "ĠMark": 4061,
      "TN": 4062,
      "of": 4063,
      "ĠTinh": 4064,
      "ĠÄĳáº¡n": 4065,
      "áŀŁáŀĶáŀĵ": 4066,
      "ĠhÃłm": 4067,
      "ĠCáº£nh": 4068,
      "áŁĬáŀº": 4069,
      "ĠMoham": 4070,
      "ĠBHXH": 4071,
      "Ġ!": 4072,
      "ĠSeoul": 4073,
      "ĠKovind": 4074,
      "ved": 4075,
      "ĠChau": 4076,
      "eg": 4077,
      "ĠmÃ¢u": 4078,
      "ĠÄĲá»ķi": 4079,
      "ĠBul": 4080,
      "ĠLib": 4081,
      "ĠMá»įi": 4082,
      "Ġ47": 4083,
      "gar": 4084,
      "ĠthÃ¹ng": 4085,
      "ĠTÆ°Æ¡ng": 4086,
      "ĠchÃ¢m": 4087,
      "ĠAbd": 4088,
      "ĠlÆ°á»¡ng": 4089,
      "Ġdao": 4090,
      "Ġphim": 4091,
      "ĠBus": 4092,
      "ĠTá»·": 4093,
      "ĠáŁ¡áŁ©áŁ©áŁ¢": 4094,
      "ĠMedved": 4095,
      "áŁĨáŀ¶": 4096,
      "Ġlá»«a": 4097,
      "áŀļáŀĢáŀĳ": 4098,
      "ĠRiÃªng": 4099,
      "áŀıáŀŁáŀļáŀŁ": 4100,
      "ĠÄĳau": 4101,
      "Ġchiáº¿u": 4102,
      "ĠTrÃŃ": 4103,
      "ona": 4104,
      "Ġ44": 4105,
      "ĠRom": 4106,
      "ĠHuáº¿": 4107,
      "ĠNath": 4108,
      "Ġráº¯n": 4109,
      "ub": 4110,
      "¡áŁł": 4111,
      "ĠÄĳáºŃm": 4112,
      "áŀĽáŀĳ": 4113,
      "Ġláº¡": 4114,
      "Ġsa": 4115,
      "ĠmÃª": 4116,
      "Ġtá»ĵi": 4117,
      "Ġ54": 4118,
      "Ġ85": 4119,
      "ĠáŀĺáŀĢáŀľ": 4120,
      "Ġ2007": 4121,
      "ĠHuá»³nh": 4122,
      "ĠMedvedev": 4123,
      "ĠtrÃ¢n": 4124,
      "Ġbia": 4125,
      "ĠKur": 4126,
      "ĠáŁ¢áŁłáŁ£áŁł": 4127,
      "ĠIr": 4128,
      "ĠEl": 4129,
      "ĠhoÃłng": 4130,
      "usal": 4131,
      "ĠCuu": 4132,
      "ĠCOP": 4133,
      "ĠÄĳáº¯c": 4134,
      "ĠTáº¡o": 4135,
      "ĠÄĲáº¯k": 4136,
      "Ġlá»ģ": 4137,
      "ĠGo": 4138,
      "ĠCLM": 4139,
      "ĠCE": 4140,
      "ĠCÃ´": 4141,
      "ĠBRI": 4142,
      "ĠOly": 4143,
      "ĠSudan": 4144,
      "Ġsá»¥t": 4145,
      "ĠJoe": 4146,
      "âĢĭâĢĭ": 4147,
      "PF": 4148,
      "Th": 4149,
      "ĠAz": 4150,
      "áŀŁáŀĵáŀľ": 4151,
      "ĠWal": 4152,
      "ĠCuong": 4153,
      "ĠOlymp": 4154,
      "ĠbÃ¡ch": 4155,
      "ĠNa": 4156,
      "ĠÄĲa": 4157,
      "ĠTÃ¹ng": 4158,
      "ĠHang": 4159,
      "ĠDá»ĭch": 4160,
      "ĠNguá»ĵn": 4161,
      "ĠPhÃ¹ng": 4162,
      "ĠXÃ´": 4163,
      "ĠThá»§y": 4164,
      "ĠbÃ¡m": 4165,
      "ĠbÃ¡u": 4166,
      "ĠgiÃ¡n": 4167,
      "ĠJae": 4168,
      "áŀļáŀłáŀĺ": 4169,
      "usalem": 4170,
      "áŀĻáŀļ": 4171,
      "ĠthÃ´": 4172,
      "ĠáŀļáŀĽáŀĢ": 4173,
      "ina": 4174,
      "ondon": 4175,
      "ĠáŁ¢áŁłáŁ¡áŁł": 4176,
      "Ġ51": 4177,
      "atar": 4178,
      "ĠBank": 4179,
      "ud": 4180,
      "ĠÄĳáº¿": 4181,
      "áŀĺáŀī": 4182,
      "ĠdÃły": 4183,
      "ĠCl": 4184,
      "ĠCr": 4185,
      "ĠKhanh": 4186,
      "ĠNÃ³": 4187,
      "ĠBá»ĩnh": 4188,
      "ĠNghÄ©a": 4189,
      "ĠáŀĹáŀŁ": 4190,
      "dech": 4191,
      "ĠGeneva": 4192,
      "ĠniÃªm": 4193,
      "ĠquÃªn": 4194,
      "ĠáŀļáŀĶáŀı": 4195,
      "Ġ63": 4196,
      "ĠJerusalem": 4197,
      "ĠáŀŁáŀłáŀĩ": 4198,
      "ĠBulgar": 4199,
      "á»ĵng": 4200,
      "áŀŁáŀŁáŀĽ": 4201,
      "ĠÄĲÆ°á»Ŀng": 4202,
      "Ġáŀ§áŀĢ": 4203,
      "ĠXuáº¥t": 4204,
      "ahu": 4205,
      "ĠSamdech": 4206,
      "áŀģáŀĩ": 4207,
      "ĠBulgaria": 4208,
      "to": 4209,
      "ĠkÃ¨m": 4210,
      "ĠthÃ´i": 4211,
      "ĠphÆ°á»Ŀng": 4212,
      "ĠCol": 4213,
      "ĠCast": 4214,
      "ĠMá»ĳi": 4215,
      "ĠSÄ©": 4216,
      "ĠChia": 4217,
      "Å©a": 4218,
      "Ġsáº¯t": 4219,
      "ĠCatalonia": 4220,
      "ma": 4221,
      "rov": 4222,
      "ĠÆ": 4223,
      "áŀĤáŀĻáŀĽ": 4224,
      "ĠÄĲá»Ļng": 4225,
      "ĠAPPF": 4226,
      "Ġloáº¡n": 4227,
      "ĠAli": 4228,
      "ĠáŀĤáŀĺáŀĵ": 4229,
      "ĠHÃ¬nh": 4230,
      "ĠQatar": 4231,
      "Ġkhoan": 4232,
      "ĠbÃ¢y": 4233,
      "ĠbÃ£o": 4234,
      "ĠBor": 4235,
      "Ġ2000": 4236,
      "ĠFed": 4237,
      "ĠÄĳá»ĳt": 4238,
      "áŁĶ": 4239,
      "iz": 4240,
      "Ġtháº¯n": 4241,
      "Ġmáº¡o": 4242,
      "Ġgiam": 4243,
      "ĠTrinh": 4244,
      "ĠThiá»ĩn": 4245,
      "Ġbá»¯a": 4246,
      "áŀħáŀħáŀļáŀħ": 4247,
      "Ġháº¹n": 4248,
      "Ġbáº¯c": 4249,
      "ĠBID": 4250,
      "ĠPhuong": 4251,
      "OSAI": 4252,
      "ĠJohnson": 4253,
      "ĠdÃ¢ng": 4254,
      "ĠLy": 4255,
      "ĠLondon": 4256,
      "ĠThang": 4257,
      "Ġ39": 4258,
      "Ġ53": 4259,
      "Ġáŀ§áŀŁáŀĹ": 4260,
      "ĠTrá»ĭnh": 4261,
      "Ġlog": 4262,
      "istics": 4263,
      "ĠLoan": 4264,
      "iel": 4265,
      "Ġchá»©a": 4266,
      "Ġtrá»¥c": 4267,
      "áŀļáŀĶáŀĬ": 4268,
      "ĠáŁ¡áŁ©áŁ¥": 4269,
      "ĠCastro": 4270,
      "áŀĳáŀĵáŀĹ": 4271,
      "Ġgay": 4272,
      "Ġrao": 4273,
      "ĠÄĳÅ©a": 4274,
      "ĠmÃ¡i": 4275,
      "ĠLáº¡ng": 4276,
      "ĠáŀĨáŀĵ": 4277,
      "Ġ1995": 4278,
      "ea": 4279,
      "Ġmai": 4280,
      "Ġgáº¯t": 4281,
      "ĠáŀĲáŀı": 4282,
      "ĠAR": 4283,
      "Ġsá»£": 4284,
      "ĠNetany": 4285,
      "pp": 4286,
      "ĠASOSAI": 4287,
      "áŀŁáŀĴáŀĺ": 4288,
      "ĠloÃłi": 4289,
      "Ġcháº£y": 4290,
      "Ġáŀ¢áŀļ": 4291,
      "Ġhá»įa": 4292,
      "Ġ42": 4293,
      "ĠáŁ£áŁ¦": 4294,
      "ĠtrÃłn": 4295,
      "ĠTau": 4296,
      "áŀĩáŀŁáŀī": 4297,
      "ĠVung": 4298,
      "ĠBáº¡n": 4299,
      "Ġru": 4300,
      "ĠáŀĶáŀĭáŀĺáŀŁ": 4301,
      "ĠFrancois": 4302,
      "ĠÄĳiá»ĥn": 4303,
      "ĠtrÃł": 4304,
      "ĠkhÃ´": 4305,
      "ĠkhÃ¡nh": 4306,
      "ĠáŀĤáŀĵ": 4307,
      "ĠShi": 4308,
      "Ġ56": 4309,
      "ĠEr": 4310,
      "Ġyáº¿t": 4311,
      "ĠHue": 4312,
      "IC": 4313,
      "Ng": 4314,
      "ĠcáºŃu": 4315,
      "ĠNghi": 4316,
      "áŀļáŀİáŀĹ": 4317,
      "Ġ05": 4318,
      "ier": 4319,
      "Ġco": 4320,
      "ĠUP": 4321,
      "Æ°á»¡i": 4322,
      "do": 4323,
      "ĠáŀĵáŀĤ": 4324,
      "ĠBRICS": 4325,
      "guel": 4326,
      "ron": 4327,
      "áŀŁáŀĻ": 4328,
      "áŀĽáŀĺáŀĢ": 4329,
      "Ġkiá»ĥu": 4330,
      "ĠbÃ¹": 4331,
      "ĠnhÃ£n": 4332,
      "Ġmo": 4333,
      "Ġáŀħáŀĵ": 4334,
      "ĠDien": 4335,
      "Ġtoáº£": 4336,
      "ĠMiguel": 4337,
      "Ġdá»ĭu": 4338,
      "ĠnháºŃm": 4339,
      "ĠNá»ģn": 4340,
      "ĠVo": 4341,
      "ĠBÆ°á»Ľc": 4342,
      "ĠTháº£o": 4343,
      "ĠHungary": 4344,
      "Ġcom": 4345,
      "ĠTháºŃm": 4346,
      "ĠNgá»¯": 4347,
      "FP": 4348,
      "áŀļáŀķáŀĽ": 4349,
      "ĠchÃ¡y": 4350,
      "Ġlá»ıng": 4351,
      "ĠKu": 4352,
      "ĠKá»¹": 4353,
      "ĠáŁ¥áŁ¥": 4354,
      "ĠThoáº£": 4355,
      "ĠIreland": 4356,
      "ĠNÄĥng": 4357,
      "Ġáŀľáŀİ": 4358,
      "ĠÄĲá»ĭa": 4359,
      "Ġ95": 4360,
      "ey": 4361,
      "ĠtrÃ¹ng": 4362,
      "Ġma": 4363,
      "ĠdÃ¡m": 4364,
      "ĠNÃ¢ng": 4365,
      "ĠMB": 4366,
      "ĠThuy": 4367,
      "ĠSG": 4368,
      "ĠtÃ¢n": 4369,
      "áŀļáŀĢáŀĺ": 4370,
      "Ġháº±ng": 4371,
      "ĠTÃ´": 4372,
      "Ãºy": 4373,
      "ĠChile": 4374,
      "áŀĵáŀĢáŀı": 4375,
      "ĠMike": 4376,
      "ĠLibya": 4377,
      "ĠNetanyahu": 4378,
      "áŀĺáŀĸ": 4379,
      "ĠToÃł": 4380,
      "orona": 4381,
      "Ġkhá»ķng": 4382,
      "ĠPháº§n": 4383,
      "Ġ46": 4384,
      "Ġnháº¡c": 4385,
      "áŀīáŀħ": 4386,
      "Ġlá»ĵ": 4387,
      "ĠÃļc": 4388,
      "ĠCLMV": 4389,
      "Ġláº§m": 4390,
      "Ġblog": 4391,
      "ĠNQ": 4392,
      "áŀĩáŀĢ": 4393,
      "ĠPa": 4394,
      "áŀļáŀŁáŀĹ": 4395,
      "Ġ99": 4396,
      "eh": 4397,
      "tor": 4398,
      "Ġtáº¯t": 4399,
      "ĠgÅ©i": 4400,
      "ĠCanel": 4401,
      "ĠLatinh": 4402,
      "AD": 4403,
      "ĠÃ´n": 4404,
      "áŀħáŀİ": 4405,
      "ania": 4406,
      "ĠHáºŃu": 4407,
      "ĠThien": 4408,
      "ĠGiá»Ľi": 4409,
      "ĠArabia": 4410,
      "ĠJean": 4411,
      "áŀĢáŀĦ": 4412,
      "end": 4413,
      "áŀĻáŀŁáŀĦ": 4414,
      "ĠmÆ°a": 4415,
      "Ġvá»Ŀi": 4416,
      "ĠMat": 4417,
      "ĠáŀĻáŀĢáŀĺ": 4418,
      "ĠáŀĨáŀĺ": 4419,
      "ĠáŁ¡áŁ©áŁ¦": 4420,
      "lines": 4421,
      "ĠáŁ¢áŁłáŁłáŁ©": 4422,
      "ĠKurd": 4423,
      "Ġi": 4424,
      "Ġáŀļáŀĺ": 4425,
      "ĠKhá»": 4426,
      "ĠHuá»ĩ": 4427,
      "ĠARF": 4428,
      "xico": 4429,
      "ĠÄĲá»Ļi": 4430,
      "Ġmá»¹": 4431,
      "ĠHá»Ĺ": 4432,
      "ĠáŁ§áŁ¥": 4433,
      "ĠMexico": 4434,
      "áŀĵáŀĴáŀļáŀİ": 4435,
      "TS": 4436,
      "ji": 4437,
      "ĠNor": 4438,
      "ĠBe": 4439,
      "ĠDanh": 4440,
      "ĠDmit": 4441,
      "ĠIE": 4442,
      "ĠáŁ£áŁ¢": 4443,
      "ĠTÃ¢m": 4444,
      "ĠdÆ°á»£c": 4445,
      "Ġáŀ¢áŀĺ": 4446,
      "ĠáŀļáŀĽ": 4447,
      "Ġná»Ĺi": 4448,
      "emen": 4449,
      "ity": 4450,
      "Ġbáº£y": 4451,
      "áŀģáŀģ": 4452,
      "ĠSal": 4453,
      "Ġdá»ĵi": 4454,
      "ĠTrá»¥": 4455,
      "ĠNghe": 4456,
      "Ġáº£o": 4457,
      "áŀĵáŀĻáŀĵ": 4458,
      "ĠNÆ°á»Ľc": 4459,
      "ĠLoc": 4460,
      "Ġcuá»ĳn": 4461,
      "ĠJCP": 4462,
      "ĠPhá»¥": 4463,
      "ĠJCPOA": 4464,
      "CCI": 4465,
      "ĠmÃ³c": 4466,
      "ĠHiá»ĥn": 4467,
      "ĠÄĲáº¥t": 4468,
      "ĠÄĲáº©y": 4469,
      "ĠSai": 4470,
      "Ġchuá»Ļng": 4471,
      "asc": 4472,
      "áŀĺáŀĦ": 4473,
      "ĠHan": 4474,
      "Ġ58": 4475,
      "áŀļáŀĤáŀĺáŀĵ": 4476,
      "ĠShang": 4477,
      "ĠHuynh": 4478,
      "ĠItaly": 4479,
      "TV": 4480,
      "jan": 4481,
      "ĠVov": 4482,
      "ĠBÃ¡ch": 4483,
      "ĠNgÃłnh": 4484,
      "áŀĸáŀĽáŀĹ": 4485,
      "Ġtop": 4486,
      "ĠOlympic": 4487,
      "ĠMáº¡ch": 4488,
      "Ġcanh": 4489,
      "áŀİáŀŁáŀĺ": 4490,
      "ĠáŀĤáŀļ": 4491,
      "âĢĻ": 4492,
      "Ġcua": 4493,
      "Ġ73": 4494,
      "Ġngá»įt": 4495,
      "ĠKiev": 4496,
      "ĠAirlines": 4497,
      "ĠBIDV": 4498,
      "ĠDmitry": 4499,
      "MS": 4500,
      "ĠnhÃ¡nh": 4501,
      "ĠTs": 4502,
      "Ġngáº§m": 4503,
      "ĠrÃ¡c": 4504,
      "ĠSÆ°": 4505,
      "ĠKhÃ¡ch": 4506,
      "Ġ67": 4507,
      "Ġ120": 4508,
      "ON": 4509,
      "Ġáº©m": 4510,
      "Ġtáº¡c": 4511,
      "ĠsÃ¡p": 4512,
      "ĠManh": 4513,
      "ĠSGK": 4514,
      "Ġvang": 4515,
      "Ġáŀĵáŀļáŀİ": 4516,
      "ĠgÃ¡nh": 4517,
      "ĠCÃ¢u": 4518,
      "ĠÄĲan": 4519,
      "ĠRia": 4520,
      "ogan": 4521,
      "ĠItalia": 4522,
      "st": 4523,
      "ĠNH": 4524,
      "áŀĴáŀŁáŀĹ": 4525,
      "á»±u": 4526,
      "ĠHáº§u": 4527,
      "áŀĭáŀĢáŀĺ": 4528,
      "ĠPl": 4529,
      "ĠThong": 4530,
      "ĠDan": 4531,
      "ĠKháº¯c": 4532,
      "Ġgá»įn": 4533,
      "ĠÄĳá»ĳn": 4534,
      "áŀĹáŀĺáŀĦ": 4535,
      "ĠVietin": 4536,
      "ĠAlex": 4537,
      "que": 4538,
      "ideo": 4539,
      "ĠViettel": 4540,
      "ĠTrÃł": 4541,
      "Ġsá»ķ": 4542,
      "ens": 4543,
      "ĠYemen": 4544,
      "ĠTÄ©nh": 4545,
      "ĠTrao": 4546,
      "Ġáŀ±áŀŁ": 4547,
      "áŀļáŀĶáŀĬáŀİ": 4548,
      "kara": 4549,
      "Ġnháº¡y": 4550,
      "Ġnhá»±a": 4551,
      "erb": 4552,
      "ĠPhÃ³ng": 4553,
      "Ġhuá»·": 4554,
      "ĠthÃ©p": 4555,
      "ĠáŀŁáŀħ": 4556,
      "Ã¬a": 4557,
      "ĠáŀľáŀĦ": 4558,
      "ĠDao": 4559,
      "LÄĲ": 4560,
      "kg": 4561,
      "áŀŁáŀļáŀŁ": 4562,
      "ĠtrÃ´ng": 4563,
      "ĠtrÃ²n": 4564,
      "ĠÄĲÃºng": 4565,
      "ĠPo": 4566,
      "Ġ62": 4567,
      "Ġ72": 4568,
      "ĠHill": 4569,
      "ĠQuÃ¡": 4570,
      "ĠDÆ°á»Ľi": 4571,
      "ĠáŀĶáŀĦáŀĶ": 4572,
      "Ġ57": 4573,
      "eron": 4574,
      "ĠAnkara": 4575,
      "ĠthoÃ¡ng": 4576,
      "azon": 4577,
      "ĠthÆ¡m": 4578,
      "Ġtá»ĭ": 4579,
      "ĠTrÃ¡i": 4580,
      "ĠLang": 4581,
      "Ġ2005": 4582,
      "ĠAmazon": 4583,
      "CN": 4584,
      "ĠkhÃ¡i": 4585,
      "ĠAd": 4586,
      "ĠXi": 4587,
      "Ġhá»Ĺn": 4588,
      "ĠMario": 4589,
      "sh": 4590,
      "ĠLav": 4591,
      "áº«m": 4592,
      "AP": 4593,
      "ris": 4594,
      "zamb": 4595,
      "Ġtan": 4596,
      "áŀĵáŀĸáŀļ": 4597,
      "ĠÄĳam": 4598,
      "Ġva": 4599,
      "Ġnháº¯n": 4600,
      "ĠTÃŃn": 4601,
      "ĠEd": 4602,
      "Ġ03": 4603,
      "ĠMozamb": 4604,
      "áŀĻáŀľáŀı": 4605,
      "ĠHoÃłn": 4606,
      "Ġrá»Ńa": 4607,
      "chi": 4608,
      "ĠTre": 4609,
      "ĠChan": 4610,
      "Ġná»Ľi": 4611,
      "ĠMacri": 4612,
      "Ġcáº¯m": 4613,
      "ĠláºŃu": 4614,
      "ĠxÃ¡": 4615,
      "ĠMc": 4616,
      "ĠAL": 4617,
      "áŀ¶áŁį": 4618,
      "áŀĢáŀĻ": 4619,
      "ĠNic": 4620,
      "ĠgiÃłn": 4621,
      "ĠHÆ°á»Ľng": 4622,
      "ĠÄĲiá»ĥn": 4623,
      "ĠDel": 4624,
      "Ġná»ĵng": 4625,
      "ĠEAS": 4626,
      "esh": 4627,
      "Ġnáº¥u": 4628,
      "Ġáŀ¢áŀİ": 4629,
      "ĠCÄĥng": 4630,
      "áŀĹáŀĸ": 4631,
      "ĠHÃ´m": 4632,
      "ĠThiáº¿u": 4633,
      "ation": 4634,
      "LTS": 4635,
      "Ġtung": 4636,
      "Ġtrá»Ļi": 4637,
      "ĠÄĲáº¡t": 4638,
      "ĠxÆ°ng": 4639,
      "áŀļáŀĳáŀĶ": 4640,
      "ĠEVN": 4641,
      "Ġ88": 4642,
      "ĠtÃºi": 4643,
      "ĠLáº¯k": 4644,
      "Ġhoáº¡": 4645,
      "ĠgiÃ¡p": 4646,
      "áº«y": 4647,
      "oud": 4648,
      "ĠPetro": 4649,
      "Ġvua": 4650,
      "ĠIELTS": 4651,
      "ĠÄĳÃ¡n": 4652,
      "Ġst": 4653,
      "Ġáŀĸáŀı": 4654,
      "ĠHi": 4655,
      "ĠMosul": 4656,
      "áŀĽáŀ²": 4657,
      "Ġgiáº¿t": 4658,
      "áŀīáŀĺáŀı": 4659,
      "ĠcÆ¡m": 4660,
      "ĠUAE": 4661,
      "áŀĨáŀĵ": 4662,
      "ĠCameron": 4663,
      "ĠMorsi": 4664,
      "ĠErd": 4665,
      "CÃ¡c": 4666,
      "TX": 4667,
      "ĠÄĳáºŃp": 4668,
      "Ġbáº¿p": 4669,
      "ĠquÃ¡t": 4670,
      "ĠMon": 4671,
      "ord": 4672,
      "ĠYong": 4673,
      "ÄĲÃ¢y": 4674,
      "ĠsÃ³t": 4675,
      "áŀħáŀĺ": 4676,
      "áŀĵáŀĢáŀİ": 4677,
      "áŀļáŀ¢áŀī": 4678,
      "ĠUPR": 4679,
      "ĠLavrov": 4680,
      "Nh": 4681,
      "ĠtÃ¡m": 4682,
      "ĠCÃ¡i": 4683,
      "áŀģáŀı": 4684,
      "ĠThÃ¡p": 4685,
      "ĠWB": 4686,
      "ĠHaiy": 4687,
      "ĠáŁ¢áŁłáŁłáŁ¨": 4688,
      "assan": 4689,
      "ĠMaduro": 4690,
      "Ġ'": 4691,
      "ĠHiáº¿u": 4692,
      "els": 4693,
      "Ġhuyáº¿t": 4694,
      "na": 4695,
      "Ġga": 4696,
      "Ġtrá»©ng": 4697,
      "ess": 4698,
      "ĠPhuoc": 4699,
      "ĠModi": 4700,
      "ĠHamas": 4701,
      "ĠSerg": 4702,
      "uan": 4703,
      "Ġcáº©n": 4704,
      "Ġváº¯c": 4705,
      "ĠMS": 4706,
      "Ġthua": 4707,
      "ĠIII": 4708,
      "ĠAnton": 4709,
      "Ġ2001": 4710,
      "ĠErdogan": 4711,
      "RS": 4712,
      "ek": 4713,
      "ĠcÃºng": 4714,
      "áŀŁáŀľáŀı": 4715,
      "ĠCáº£ng": 4716,
      "ĠBol": 4717,
      "ĠChinh": 4718,
      "Ġhoáº¡i": 4719,
      "ĠÃ·": 4720,
      "ĠUn": 4721,
      "ĠÄĳoáº¡t": 4722,
      "Ġáŀ±áŀŁáŀĲ": 4723,
      "ĠláºŃn": 4724,
      "ĠVing": 4725,
      "amin": 4726,
      "ĠAk": 4727,
      "ĠGuter": 4728,
      "AC": 4729,
      "iet": 4730,
      "ĠVai": 4731,
      "Ġáŀ¯áŀĢáŀı": 4732,
      "ĠMacron": 4733,
      "Ġlogistics": 4734,
      "NN": 4735,
      "ĠNN": 4736,
      "á»ĳp": 4737,
      "Ġáŀ¢áŀĵáŀ¡": 4738,
      "Ġ86": 4739,
      "ĠáŁ¤áŁłáŁł": 4740,
      "ĠShangri": 4741,
      "ĠVingroup": 4742,
      "OM": 4743,
      "wit": 4744,
      "ĠthÄĥng": 4745,
      "ĠdÃło": 4746,
      "ĠngáºŃp": 4747,
      "ĠHD": 4748,
      "ĠGe": 4749,
      "ĠkhoÃ¡ng": 4750,
      "Ġ68": 4751,
      "ique": 4752,
      "ĠtÃ¡": 4753,
      "ĠnhiÃªu": 4754,
      "ĠsÃ¢m": 4755,
      "ĠVCCI": 4756,
      "ĠgiÃ£n": 4757,
      "ĠCT": 4758,
      "ĠPhÃŃa": 4759,
      "ĠChÆ°a": 4760,
      "ima": 4761,
      "Ġ250": 4762,
      "ĠáŁ¢áŁłáŁłáŁł": 4763,
      "Ġ2022": 4764,
      "ĠáŀĻáŀĢáŀĺáŀĢ": 4765,
      "¨ng": 4766,
      "áŀĽáŀİ": 4767,
      "Ġlong": 4768,
      "ĠViá»ħn": 4769,
      "ĠHassan": 4770,
      "aijan": 4771,
      "áŀºáŁĸ": 4772,
      "ĠRe": 4773,
      "ĠRi": 4774,
      "ĠReu": 4775,
      "ica": 4776,
      "erbaijan": 4777,
      "lus": 4778,
      "ĠÄĲá»Ļc": 4779,
      "áŀĵáŀĢáŀħ": 4780,
      "ĠAzerbaijan": 4781,
      "Ġmoon": 4782,
      "IS": 4783,
      "Ġbuá»ĵn": 4784,
      "Ġmáº¯n": 4785,
      "ĠAh": 4786,
      "Ġ97": 4787,
      "lu": 4788,
      "Ġváº¥p": 4789,
      "Ġthan": 4790,
      "ĠngÃµ": 4791,
      "ĠCá»±u": 4792,
      "Ġthuáº§n": 4793,
      "ova": 4794,
      "ĠYou": 4795,
      "ÄĲT": 4796,
      "ĠVovworld": 4797,
      "Ġnáº¯ng": 4798,
      "ĠchÃªnh": 4799,
      "ĠxÃŃch": 4800,
      "Ġmá»ıi": 4801,
      "Ġá»¨ng": 4802,
      "ĠPen": 4803,
      "ĠKovid": 4804,
      "Ġtiáº¿c": 4805,
      "ĠTá»Ŀ": 4806,
      "Ġváº½": 4807,
      "ĠáŀŁáŀŁáŀļ": 4808,
      "ĠnÃ´": 4809,
      "ĠVáºŃn": 4810,
      "ĠId": 4811,
      "ĠáŀĵáŀĤáŀļáŀĶ": 4812,
      "Ġvideo": 4813,
      "ĠhÃ´": 4814,
      "áŀĤáŀŁáŀĺ": 4815,
      "ĠáŀŁáŀĺáŀļáŀĺ": 4816,
      "Ġhoang": 4817,
      "bot": 4818,
      "ĳc": 4819,
      "ĠcÃº": 4820,
      "ĠÄĳá»ģn": 4821,
      "Ġphá»ĵn": 4822,
      "hani": 4823,
      "ĠGuterres": 4824,
      "áŀĻáŀ¢": 4825,
      "ĠchÃºt": 4826,
      "ĠCáº£i": 4827,
      "ĠthiÃªng": 4828,
      "Ġ900": 4829,
      "Ġ08": 4830,
      "eda": 4831,
      "ĠVuong": 4832,
      "ĠBerm": 4833,
      "LO": 4834,
      "Ġtráº§n": 4835,
      "ĠPer": 4836,
      "ĠSis": 4837,
      "ĠáŁ£áŁ§": 4838,
      "áŀĢáŀŁáŀļ": 4839,
      "mad": 4840,
      "Ġcorona": 4841,
      "ĠlÆ°ng": 4842,
      "ĠkÃŃn": 4843,
      "ĠmÃ³ng": 4844,
      "ĠkhÃºc": 4845,
      "arl": 4846,
      "ĠBoe": 4847,
      "ĠHÄĲND": 4848,
      "ĠSáº£n": 4849,
      "ĠPhung": 4850,
      "ĠGeo": 4851,
      "Ġngá»§": 4852,
      "Ġtrá»ĳn": 4853,
      "Ġhtt": 4854,
      "ĠTa": 4855,
      "ĠTÃ¡c": 4856,
      "áŁīáŀ¹": 4857,
      "Ġ74": 4858,
      "ĠJun": 4859,
      "ascus": 4860,
      "Ġhttp": 4861,
      "ĠmÅ©i": 4862,
      "ĠPTN": 4863,
      "Ġ81": 4864,
      "ĠáŁ¦áŁ¥": 4865,
      "Ġ130": 4866,
      "bert": 4867,
      "ĠDamascus": 4868,
      "ĠAndre": 4869,
      "QT": 4870,
      "áŀĶáŀļáŀĺ": 4871,
      "Ġáŀļáŀı": 4872,
      "Ġpha": 4873,
      "ĠMin": 4874,
      "ĠPV": 4875,
      "ĠKhoáº£ng": 4876,
      "age": 4877,
      "ĠNá»Ĺ": 4878,
      "áŀŁáŀŁ": 4879,
      "áŀĶáŀŁ": 4880,
      "ĠsÃ¡nh": 4881,
      "ĠVA": 4882,
      "ĠSri": 4883,
      "Ġdá»įc": 4884,
      "ĠLee": 4885,
      "ĠVinam": 4886,
      "ĠMauric": 4887,
      "ĠPTNT": 4888,
      "ĠMauricio": 4889,
      "lib": 4890,
      "ĠÃ¢n": 4891,
      "áŀĸáŀ¢": 4892,
      "ĠVII": 4893,
      "ĠCÃ¡t": 4894,
      "ĠÄĲÃ£": 4895,
      "ĠkhiÃªu": 4896,
      "era": 4897,
      "ĠHuÃ¢n": 4898,
      "ogle": 4899,
      "ĠMozambique": 4900,
      "ĠhÃ¡t": 4901,
      "ĠáŀĲáŀĻ": 4902,
      "ĠPak": 4903,
      "ĠáŁ£áŁ£": 4904,
      "oo": 4905,
      "Ġtim": 4906,
      "ĠcÆ¡n": 4907,
      "ĠÄĳáº«m": 4908,
      "ĠgiÃł": 4909,
      "ĠBÃ¡c": 4910,
      "ĠThÃªm": 4911,
      "ĠDio": 4912,
      "áŀļáŀŁáŀĦ": 4913,
      "Ġ89": 4914,
      "ĠSARS": 4915,
      "ĠHillary": 4916,
      "ĠSergei": 4917,
      "ĠtoÃł": 4918,
      "áŀĽáŀĴáŀĵ": 4919,
      "Ġcháº¥n": 4920,
      "ĠchÃ¹a": 4921,
      "ĠHar": 4922,
      "Ġrá»ĳi": 4923,
      "ĠNhiá»ĩm": 4924,
      "áŀļáŀıáŀĺ": 4925,
      "ĠáŁ£áŁ¤": 4926,
      "45": 4927,
      "ĠtrÃ´i": 4928,
      "ĠhÃ¡i": 4929,
      "ames": 4930,
      "ĠHáº¡nh": 4931,
      "ĠAv": 4932,
      "ĠACM": 4933,
      "ĠApp": 4934,
      "Ġkhuáº©n": 4935,
      "áŀļáŀĲáŀĻáŀħ": 4936,
      "ĠGeun": 4937,
      "ĠnÃ©": 4938,
      "ĠCÃł": 4939,
      "ĠCáº§u": 4940,
      "ĠBÄĲ": 4941,
      "usk": 4942,
      "HH": 4943,
      "áŀıáŀĻ": 4944,
      "áŀĻáŀĺáŀĢ": 4945,
      "ĠTel": 4946,
      "Ġcháº¡m": 4947,
      "áŀĸáŀĶ": 4948,
      "ĠCap": 4949,
      "ĠCPP": 4950,
      "ĠáŀĤáŀĤ": 4951,
      "áŀĶáŀĵáŀĶ": 4952,
      "ĠTum": 4953,
      "ÌĤÌģ": 4954,
      "ĠTNHH": 4955,
      "bia": 4956,
      "rin": 4957,
      "áŀĵáŀļáŀĦ": 4958,
      "Ġváº£i": 4959,
      "ĠtrÆ°a": 4960,
      "Ġmáº£nh": 4961,
      "ĠCong": 4962,
      "áŀĤáŀİ": 4963,
      "ĠNguy": 4964,
      "ĠMas": 4965,
      "ĠThÃŃ": 4966,
      "ĠKong": 4967,
      "ĠÃĲ": 4968,
      "ECS": 4969,
      "ĠLanka": 4970,
      "ĠThuá»µ": 4971,
      "Ġxoa": 4972,
      "ĠIdlib": 4973,
      "Viá»ĩc": 4974,
      "ium": 4975,
      "zone": 4976,
      "ĠSN": 4977,
      "ĠáŀĹáŀļ": 4978,
      "ĠGMS": 4979,
      "ĠCEO": 4980,
      "Ġstart": 4981,
      "ĠVinamilk": 4982,
      "enh": 4983,
      "jet": 4984,
      "ĠBien": 4985,
      "ĠZh": 4986,
      "ĠáŁ¡áŁ©áŁ§áŁ¥": 4987,
      "da": 4988,
      "ood": 4989,
      "Ġáŀĳáŀİ": 4990,
      "ĠBill": 4991,
      "Ġ59": 4992,
      "Ġ69": 4993,
      "ĠHÃ£y": 4994,
      "ĠGeor": 4995,
      "ger": 4996,
      "ĠmÃ²n": 4997,
      "Ġdáº¥y": 4998,
      "ĠIAE": 4999,
      "ĠEP": 5000,
      "ĠáŀļáŀŁáŀĩ": 5001,
      "ĠVietjet": 5002,
      "ney": 5003,
      "ĠGoogle": 5004,
      "ĠACMECS": 5005,
      "ĠIAEA": 5006,
      "Ġkia": 5007,
      "ĠbÆ¡": 5008,
      "ĠTÃº": 5009,
      "ĠTon": 5010,
      "ĠmÃ¡t": 5011,
      "ĠNo": 5012,
      "áŁīáŀ¶áŁĨ": 5013,
      "ĠPháº£i": 5014,
      "áŀĵáŀĢáŀĽáŀĢ": 5015,
      "ĠHuaw": 5016,
      "ĠHÄĲQT": 5017,
      "ĠHuawei": 5018,
      "áŀıáŀļáŀĶ": 5019,
      "áŀĻáŀİ": 5020,
      "Ġdinh": 5021,
      "ĠÄĲam": 5022,
      "ĠBáº¡c": 5023,
      "ĠNgÃ£i": 5024,
      "ĠNháº¡": 5025,
      "Ġ77": 5026,
      "ĠNicol": 5027,
      "ras": 5028,
      "wai": 5029,
      "áŀıáŀĤ": 5030,
      "ĠkÃ¬": 5031,
      "Ġmiáº¿ng": 5032,
      "ĠNÃ³i": 5033,
      "ĠHiá»ģn": 5034,
      "ĠBáº¿n": 5035,
      "ĠTráº£": 5036,
      "áŁīáŁĴ": 5037,
      "ĠHoai": 5038,
      "ĠFPT": 5039,
      "ĠJor": 5040,
      "áŀĦáŀĶáŀī": 5041,
      "ĠBarak": 5042,
      "ĠCrim": 5043,
      "jamin": 5044,
      "Ġsiáº¿t": 5045,
      "ĠLDP": 5046,
      "áŀľáŀĶáŀĳ": 5047,
      "Ġkhá»ĳng": 5048,
      "ters": 5049,
      "ĠBoeing": 5050,
      "Ġe": 5051,
      "ĠÃ¡i": 5052,
      "Ġtháº§u": 5053,
      "ĠCÆ°Æ¡ng": 5054,
      "ĠBao": 5055,
      "ĠáŀĻáŀĲ": 5056,
      "Ġnhá»Ł": 5057,
      "Ġbá»¥ng": 5058,
      "enko": 5059,
      "ĠáŁ¤áŁ£": 5060,
      "Ġrá»ĩt": 5061,
      "ĠBruss": 5062,
      "DG": 5063,
      "LC": 5064,
      "go": 5065,
      "áŀĢáŀ±": 5066,
      "ĠáŀĶáŀı": 5067,
      "ĠBÃ¡": 5068,
      "áŀ¯áŀĢáŀĹ": 5069,
      "ED": 5070,
      "rid": 5071,
      "á»ĥ": 5072,
      "áŀĵáŀ¢": 5073,
      "ĠÄĳeo": 5074,
      "Ġbá»ģ": 5075,
      "Ġdá»ĳc": 5076,
      "ĠPra": 5077,
      "ĠLÃºc": 5078,
      "ĠST": 5079,
      "Ġ82": 5080,
      "Ġ2003": 5081,
      "ech": 5082,
      "Ġtráº¯c": 5083,
      "Ġthuyá»ģn": 5084,
      "ĠdÃ£": 5085,
      "ĠHien": 5086,
      "ĠxÆ°á»Ľng": 5087,
      "áŀģáŀĳ": 5088,
      "Ġ64": 5089,
      "áŀĵáŀĦáŀĩ": 5090,
      "Ġ1994": 5091,
      "ĠCoV": 5092,
      "ĠghÃ©p": 5093,
      "ĠáŁ¡áŁ©áŁ¤áŁ¥": 5094,
      "nan": 5095,
      "Ġong": 5096,
      "ĠCÄĥn": 5097,
      "áŀĴáŀĬ": 5098,
      "ĠSOM": 5099,
      "ĠáŁ£áŁ¨": 5100,
      "Ġ2004": 5101,
      "ĠThuan": 5102,
      "ĠChá»©ng": 5103,
      "ĠHuong": 5104,
      "ĠlÃŃnh": 5105,
      "Ġngáº¡c": 5106,
      "ĠáŀĽáŀĺ": 5107,
      "ĠBáº§u": 5108,
      "ĠFin": 5109,
      "Ġ07": 5110,
      "ĠRobert": 5111,
      "ĠHaiyang": 5112,
      "ti": 5113,
      "ĠhoÃłi": 5114,
      "ĠÄĳá»ĵn": 5115,
      "ĠchiÃªu": 5116,
      "áº¥c": 5117,
      "ĠThiáº¿t": 5118,
      "ĠSco": 5119,
      "ĠRaul": 5120,
      "ĠHÃ£ng": 5121,
      "ĠCrimea": 5122,
      "bas": 5123,
      "áŁ©áŁ": 5124,
      "ĠlÆ°á»¡i": 5125,
      "ĠBog": 5126,
      "ĠPany": 5127,
      "ĠDáº§u": 5128,
      "áº³n": 5129,
      "ĠKhai": 5130,
      "ĠJin": 5131,
      "áŀĺáŀłáŀĵ": 5132,
      "ican": 5133,
      "ĠáŁ©áŁ¨": 5134,
      "ĠáŀĶáŀĭáŀĺ": 5135,
      "ĠBenjamin": 5136,
      "ĠDelhi": 5137,
      "ĠAntonio": 5138,
      "áŀļáŀļáŀŁ": 5139,
      "ĠÄĳÃ¡m": 5140,
      "Ġche": 5141,
      "ĠCÃ¡n": 5142,
      "ĠMÃ´ng": 5143,
      "ĠáŀŁáŀĺáŀļáŀĹ": 5144,
      "Ġ61": 5145,
      "ĠThá»ĭnh": 5146,
      "ream": 5147,
      "Ġcá»ķng": 5148,
      "ĠVua": 5149,
      "cker": 5150,
      "ĠADB": 5151,
      "TM": 5152,
      "ru": 5153,
      "ĠthÃ¡nh": 5154,
      "ĠTwit": 5155,
      "ĠchÃ¬a": 5156,
      "ĠVÆ°á»£ng": 5157,
      "áŁĬáŀ»áŁĨ": 5158,
      "ĠNhu": 5159,
      "áŀļáŀİáŀĺáŀı": 5160,
      "ark": 5161,
      "ĠRa": 5162,
      "ĠLuong": 5163,
      "ĠDoan": 5164,
      "omberg": 5165,
      "Ġ1973": 5166,
      "loomberg": 5167,
      "Plus": 5168,
      "aeda": 5169,
      "gi": 5170,
      "wa": 5171,
      "áŀĽáŀ¢": 5172,
      "Ġnho": 5173,
      "ĠTp": 5174,
      "Ġtrá»ĩ": 5175,
      "ĠThÆ°á»Łng": 5176,
      "ĠYo": 5177,
      "baba": 5178,
      "áŁ£áŁł": 5179,
      "ĠNAFTA": 5180,
      "ĠGuine": 5181,
      "ĠPakistan": 5182,
      "áŀļáŀ¯áŀĢáŀĹ": 5183,
      "Ġháº³n": 5184,
      "ĠmÃłn": 5185,
      "Ġvá»ı": 5186,
      "ĠluÃ¢n": 5187,
      "áŀĵáŀĢáŀĵáŀĻ": 5188,
      "ĠPeter": 5189,
      "ĠBoris": 5190,
      "ael": 5191,
      "Ġváº¯ng": 5192,
      "áŀŁáŀİ": 5193,
      "Ġhá»ĵng": 5194,
      "Ġhá»Ļp": 5195,
      "ĠSte": 5196,
      "áŀĨáŀı": 5197,
      "ĠRos": 5198,
      "atu": 5199,
      "ĠBogor": 5200,
      "PD": 5201,
      "ĠnÃ²ng": 5202,
      "Ġnáº£y": 5203,
      "ĠMÆ°á»Ŀi": 5204,
      "Ġnhá»ĭp": 5205,
      "áŀļáŀĩáŀĩ": 5206,
      "ĠPhÃ¡i": 5207,
      "ĠDia": 5208,
      "Ġ78": 5209,
      "ĠPomp": 5210,
      "ec": 5211,
      "lip": 5212,
      "ĠcÆ°á»Ŀi": 5213,
      "ĠÄĳÃ¡y": 5214,
      "áŀĦáŀĬ": 5215,
      "ĠliÃªng": 5216,
      "Ġcá»ĳng": 5217,
      "Ġhá»ķ": 5218,
      "ĠHay": 5219,
      "ĠBloomberg": 5220,
      "ĠxÆ°a": 5221,
      "ĠAU": 5222,
      "ĠSÃ¡ch": 5223,
      "ĠDak": 5224,
      "ins": 5225,
      "ĠThá»«a": 5226,
      "áŀļáŀĬáŀĢ": 5227,
      "Ġ180": 5228,
      "ley": 5229,
      "CC": 5230,
      "ga": 5231,
      "áŀĬáŀĵ": 5232,
      "ĠHer": 5233,
      "ĠÄĲÃ¡p": 5234,
      "ĠTháº§y": 5235,
      "ĠKan": 5236,
      "Ġdá»ĵn": 5237,
      "ĠILO": 5238,
      "ĠJack": 5239,
      "ĠáŁ¤áŁ¡": 5240,
      "ĠáŁ¤áŁ¨": 5241,
      "ish": 5242,
      "ĠReuters": 5243,
      "ĠGuinea": 5244,
      "gu": 5245,
      "ĠdÄ©": 5246,
      "áŀľáŀĬ": 5247,
      "ĠCro": 5248,
      "ĠHTX": 5249,
      "áŀłáŀĢ": 5250,
      "ĠQuáºŃn": 5251,
      "ĠRáº¥t": 5252,
      "ĠWorld": 5253,
      "rand": 5254,
      "Ġ2002": 5255,
      "Ġ1993": 5256,
      "mart": 5257,
      "ĠTechcombank": 5258,
      "ĠTwitter": 5259,
      "ĠÆ°a": 5260,
      "áŀĵáŀľ": 5261,
      "áŀĢáŀĩáŀĵ": 5262,
      "ĠlÃŃt": 5263,
      "áŀĩáŀĶáŀİ": 5264,
      "ĠViáº¿t": 5265,
      "Ġ76": 5266,
      "Ġ91": 5267,
      "ĠPompeo": 5268,
      "HO": 5269,
      "gon": 5270,
      "sung": 5271,
      "áŀĽáŀļáŀĦ": 5272,
      "Ġtháº£": 5273,
      "ĠhÃ¹m": 5274,
      "ĠNik": 5275,
      "ĠCá»ĳ": 5276,
      "ĠÄĲáº¡o": 5277,
      "ĠQaeda": 5278,
      "ĠSar": 5279,
      "ĠáŁ¡áŁ¡áŁ": 5280,
      "osh": 5281,
      "ĠAsh": 5282,
      "áŀļáŀĺáŀĵ": 5283,
      "áŀľáŀľ": 5284,
      "ĠAFP": 5285,
      "ĠLáºŃp": 5286,
      "Ġ193": 5287,
      "ĠVietcombank": 5288,
      "ĠAbbas": 5289,
      "ĠVNA": 5290,
      "ĠÆ¯": 5291,
      "ĠNicolas": 5292,
      "OR": 5293,
      "SA": 5294,
      "ĠtÃ¢y": 5295,
      "ĠdÅ©ng": 5296,
      "ana": 5297,
      "ĠThao": 5298,
      "Ġgiá»¥c": 5299,
      "ial": 5300,
      "ĠáŁ¦áŁłáŁł": 5301,
      "ĠHuu": 5302,
      "ĠSamsung": 5303,
      "ĠTecho": 5304,
      "ĠMahm": 5305,
      "bo": 5306,
      "bar": 5307,
      "bal": 5308,
      "ĠÄĳÃ²n": 5309,
      "nhang": 5310,
      "ĠNar": 5311,
      "Ġphu": 5312,
      "ĠCÄĲ": 5313,
      "ĠáŀĺáŀĵáŀŁ": 5314,
      "ĠWHO": 5315,
      "ĠSá»¹": 5316,
      "ĠVietnamPlus": 5317,
      "ĠDavos": 5318,
      "Phone": 5319,
      "ĠHDBank": 5320,
      "áŀŁáŀĨ": 5321,
      "Ġmáº¿n": 5322,
      "Ġmáº£ng": 5323,
      "ĠáŀĺáŀĢáŀļ": 5324,
      "Ġlá»įt": 5325,
      "ĠQÄĲ": 5326,
      "ĠLÄ©nh": 5327,
      "ĠGiai": 5328,
      "acc": 5329,
      "Ġruá»Ļng": 5330,
      "BS": 5331,
      "km": 5332,
      "ĠtÃ¹ng": 5333,
      "áŀĶáŀķ": 5334,
      "Ġtrá»ĳng": 5335,
      "Ġbáº¡": 5336,
      "ĠND": 5337,
      "ĠVÃ¹ng": 5338,
      "ĠÄĲáº£m": 5339,
      "ĠNgÃłi": 5340,
      "ĠFid": 5341,
      "att": 5342,
      "ĠáŁ§áŁłáŁł": 5343,
      "ĠiPhone": 5344,
      "ĠKhá»ĳi": 5345,
      "ĠPeru": 5346,
      "ĠBÄĲS": 5347,
      "per": 5348,
      "áŀĵáŀĢáŀĺ": 5349,
      "ĠÄĳiá»ĩu": 5350,
      "áŀĢáŀ²": 5351,
      "ĠthÃ³i": 5352,
      "ĠCa": 5353,
      "ĠTráº£i": 5354,
      "áŁīáŀ·": 5355,
      "Ġlá»ĵng": 5356,
      "ĠTháº¡ch": 5357,
      "ĠKiá»ģu": 5358,
      "ĠNhÆ¡n": 5359,
      "are": 5360,
      "Ġ71": 5361,
      "Ġchuá»ĳi": 5362,
      "ĠYath": 5363,
      "achith": 5364,
      "ĠEurozone": 5365,
      "ĠlÃŃ": 5366,
      "ĠchÃ¬m": 5367,
      "ĠSÃ³c": 5368,
      "ĠNháº±m": 5369,
      "Ġbá»©t": 5370,
      "old": 5371,
      "ĠVietinBank": 5372,
      "áŀĵáŀĮ": 5373,
      "áŀĸáŀĳ": 5374,
      "Ġngáº·t": 5375,
      "ĠAg": 5376,
      "ĠKhÃ³": 5377,
      "ĠRod": 5378,
      "ĠáŀŁáŀļáŀ²": 5379,
      "ĠThuáº¿": 5380,
      "ĠáŁ¡áŁ¥áŁł": 5381,
      "manuel": 5382,
      "ĠEmmanuel": 5383,
      "ĠAlibaba": 5384,
      "ĠKuwai": 5385,
      "ĠKuwait": 5386,
      "ĠtÆ°á»Ŀng": 5387,
      "Ġváº¿t": 5388,
      "ĠbÃ´ng": 5389,
      "ĠÄĳá»įng": 5390,
      "ĠTM": 5391,
      "ĠVat": 5392,
      "ĠBO": 5393,
      "ĠMÃ¹a": 5394,
      "ĠDÆ°á»£c": 5395,
      "ĠGlo": 5396,
      "Ġ96": 5397,
      "ĠMichael": 5398,
      "ĠDioxin": 5399,
      "ĠYathot": 5400,
      "ĠVatican": 5401,
      "Co": 5402,
      "LD": 5403,
      "ĠtÃºy": 5404,
      "Ġtha": 5405,
      "ĠÄĳá»ĩ": 5406,
      "ĠmÃ¹i": 5407,
      "ĠdÃ©p": 5408,
      "ĠVS": 5409,
      "ĠBai": 5410,
      "Ġtrá»įt": 5411,
      "ĠAy": 5412,
      "Ġdá»įn": 5413,
      "ĠÄĲá»ı": 5414,
      "Ġ1990": 5415,
      "oshi": 5416,
      "Ġ1979": 5417,
      "Ġxoay": 5418,
      "con": 5419,
      "áŀĻáŀĴáŀĺ": 5420,
      "ĠTung": 5421,
      "áŀĸáŀĻáŀĵ": 5422,
      "áŀĳáŀĢ": 5423,
      "ĠÄĲÃ´": 5424,
      "ĠÄĲÆ¡n": 5425,
      "ĠLiÃªm": 5426,
      "ĠXÃª": 5427,
      "ĠRou": 5428,
      "Ġcá»¥m": 5429,
      "ĠWall": 5430,
      "áŀĽáŀĶáŀı": 5431,
      "Ġna": 5432,
      "Ġphiáº¿n": 5433,
      "ĠKien": 5434,
      "áº©u": 5435,
      "ĠkhiÃªm": 5436,
      "ĠThuong": 5437,
      "ĠáŀĻáŀĢáŀĪ": 5438,
      "Ġ1991": 5439,
      "ĠChuáº©n": 5440,
      "ĠBoun": 5441,
      "âĢĭâĢĭâĢĭâĢĭ": 5442,
      "ĠBrussels": 5443,
      "Ľc": 5444,
      "áŀĢáŀļáŀĢ": 5445,
      "Ġde": 5446,
      "iáº¿p": 5447,
      "ĠTranh": 5448,
      "ĠphÃ¡o": 5449,
      "ĠPol": 5450,
      "ĠSl": 5451,
      "ĠXuyÃªn": 5452,
      "ĠHoi": 5453,
      "Ġ92": 5454,
      "adan": 5455,
      "Ġ140": 5456,
      "oda": 5457,
      "Ġ1946": 5458,
      "ĠTsip": 5459,
      "HCM": 5460,
      "uatu": 5461,
      "ĠÃ¡m": 5462,
      "ĠlÃ´": 5463,
      "Ġtháº¥u": 5464,
      "ĠÄĳá»¥ng": 5465,
      "Ġkhiá»ĥn": 5466,
      "ĠCung": 5467,
      "Æ°á»Ľp": 5468,
      "ala": 5469,
      "Ġ83": 5470,
      "Ġtuá»³": 5471,
      "ĠkhÃŃa": 5472,
      "ĠáŀļáŀĦáŀļáŀĶ": 5473,
      "ĠVanuatu": 5474,
      "med": 5475,
      "áŀļáŀĽáŀĶ": 5476,
      "Ġmá»ĩt": 5477,
      "ĠPháº£n": 5478,
      "ĠNhan": 5479,
      "eting": 5480,
      "Ġ94": 5481,
      "ĠáŁ¥áŁ¢": 5482,
      "ĠáŁ¢áŁłáŁłáŁ¦": 5483,
      "ĠáŁ¢áŁłáŁłáŁ§": 5484,
      "ĠáŀŁáŀłáŀĢáŀļáŀİ": 5485,
      "ĠNá»¯": 5486,
      "ĠClau": 5487,
      "ĠMahmoud": 5488,
      "ĠBounnhang": 5489,
      "RC": 5490,
      "gan": 5491,
      "site": 5492,
      "ĠÄĳÃºc": 5493,
      "Ġtreo": 5494,
      "ĠáŀŁáŀ²": 5495,
      "Ġnháº¯m": 5496,
      "Ġmá»Ļ": 5497,
      "ĠdÃ¡ng": 5498,
      "Ġthá»£": 5499,
      "ĠVáºŃy": 5500,
      "ĠNhat": 5501,
      "pua": 5502,
      "ĠTá»Ľi": 5503,
      "ĠTPHCM": 5504,
      "ost": 5505,
      "tech": 5506,
      "ĠMuá»ĳn": 5507,
      "ĠMichel": 5508,
      "ward": 5509,
      "Ġviáº¿ng": 5510,
      "ĠgiáºŃn": 5511,
      "ĠLáº¡t": 5512,
      "Ġdá»«a": 5513,
      "Ġkhá»ĳc": 5514,
      "ĠGiáº¥y": 5515,
      "Ġuran": 5516,
      "ChÃŃnh": 5517,
      "ĠPapua": 5518,
      "ĠTsipras": 5519,
      "NÄĥm": 5520,
      "ho": 5521,
      "Ġvacc": 5522,
      "ĠliÃªm": 5523,
      "Ġlá»ĳp": 5524,
      "ĠHuyá»ĩn": 5525,
      "ĠBiáº¿n": 5526,
      "ĠBÃ¡i": 5527,
      "áŁīáŀ¸": 5528,
      "áŀģáŀļáŀĬ": 5529,
      "ĠMÃ¡c": 5530,
      "ĠQH": 5531,
      "ĠPhn": 5532,
      "ĠCháº³ng": 5533,
      "Ġkhá»Ń": 5534,
      "Ġ66": 5535,
      "Ġ84": 5536,
      "ĠVá»«a": 5537,
      "ĠáŁ¤áŁ¤": 5538,
      "ĠáŁ¨áŁłáŁł": 5539,
      "ĠBusan": 5540,
      "ĠGlobal": 5541,
      "Ġláº¯m": 5542,
      "Ġnáº¡p": 5543,
      "ĠTik": 5544,
      "ĠVes": 5545,
      "ĠCD": 5546,
      "ĠSp": 5547,
      "áŀļáŀħáŀĦ": 5548,
      "Ġ87": 5549,
      "ĠáŁ¤áŁ§": 5550,
      "Ġtour": 5551,
      "ĠáŀļáŀĦáŀĤ": 5552,
      "app": 5553,
      "Ġ1997": 5554,
      "awa": 5555,
      "ather": 5556,
      "ĠBanglad": 5557,
      "pol": 5558,
      "ĠÄĳÃ¨n": 5559,
      "Ġváº¡ch": 5560,
      "ĠTáº¡": 5561,
      "Ġcá»¡": 5562,
      "Ġáŀĩáŀī": 5563,
      "ĠIV": 5564,
      "áŀĸáŀŁáŀĺ": 5565,
      "ĠáŁ¦áŁ£": 5566,
      "Ġhye": 5567,
      "bur": 5568,
      "ft": 5569,
      "Ġáŀ«": 5570,
      "Ġbi": 5571,
      "áŀħáŀ¡": 5572,
      "ĠVal": 5573,
      "Ġxáº£": 5574,
      "Ġmá»ĵ": 5575,
      "ĠQuá»³nh": 5576,
      "Ġnhá»įn": 5577,
      "Ġsá»ĳt": 5578,
      "ĠFor": 5579,
      "ĠáŁ¥áŁ¤": 5580,
      "ĠáŁ¤áŁ©": 5581,
      "aku": 5582,
      "ola": 5583,
      "ube": 5584,
      "ĠFidel": 5585,
      "mu": 5586,
      "my": 5587,
      "thi": 5588,
      "ĠvÃ¢y": 5589,
      "ĠTiÃªu": 5590,
      "Ġquáº¡t": 5591,
      "ĠVáºŃt": 5592,
      "ĠáŀĺáŀĢáŀĢ": 5593,
      "adi": 5594,
      "áŁ¢áŁł": 5595,
      "ĠáŀļáŀİáŀĶ": 5596,
      "odom": 5597,
      "ĠNarend": 5598,
      "Ġvaccine": 5599,
      "±ng": 5600,
      "Ġclip": 5601,
      "ĠthÆ°á»Ľc": 5602,
      "Ġtrá»įn": 5603,
      "ĠáŀŁáŀĺáŀĻ": 5604,
      "ĠKar": 5605,
      "ern": 5606,
      "ĠKháº³ng": 5607,
      "ĠJames": 5608,
      "ĠAnt": 5609,
      "bana": 5610,
      "Ľp": 5611,
      "ĠÄĳáºŃu": 5612,
      "áŀĦáŀĨ": 5613,
      "áŀĺáŀķ": 5614,
      "Ġváº¡n": 5615,
      "áŀĶáŀĩ": 5616,
      "ĠTáº¡p": 5617,
      "ĠHS": 5618,
      "ĠBl": 5619,
      "ĠSPD": 5620,
      "ĠDat": 5621,
      "ĠNháº¥n": 5622,
      "ĠIN": 5623,
      "áŀĽáŀĶáŀļ": 5624,
      "ĠAnnan": 5625,
      "ĠáŁ¨áŁ¥": 5626,
      "ock": 5627,
      "oto": 5628,
      "Ġ1950": 5629,
      "ĠTimes": 5630,
      "ĠNorodom": 5631,
      "ĠAlexand": 5632,
      "ĠJuncker": 5633,
      "ĠRouhani": 5634,
      "ping": 5635,
      "Ġ=": 5636,
      "áŀľáŀĻ": 5637,
      "ĠLiÃªu": 5638,
      "ĠThÄĥng": 5639,
      "ari": 5640,
      "ĠRes": 5641,
      "ĠOP": 5642,
      "Ġ110": 5643,
      "ros": 5644,
      "ĠAviv": 5645,
      "Thá»": 5646,
      "by": 5647,
      "Ġváº¥t": 5648,
      "ĠbÆ¡i": 5649,
      "ĠÄĳá»Ĺ": 5650,
      "Ġsá»ĳc": 5651,
      "Ġmáº¥u": 5652,
      "Ġhá»ıng": 5653,
      "ail": 5654,
      "âĢľ": 5655,
      "ĠHoan": 5656,
      "áŀĽáŀĶáŀĦ": 5657,
      "ĠGiÃ¡ng": 5658,
      "Ì£ÌĤ": 5659,
      "Ġ350": 5660,
      "ĠáŁ¡áŁ©áŁ©áŁ¥": 5661,
      "§a": 5662,
      "Ġváº£": 5663,
      "Ġtráº¡m": 5664,
      "ĠTed": 5665,
      "ĠAE": 5666,
      "ĠPan": 5667,
      "áŀļáŀĶáŀı": 5668,
      "ick": 5669,
      "ĠClaude": 5670,
      "ĠBangladesh": 5671,
      "ĠÃ¡c": 5672,
      "Ġtáº©y": 5673,
      "áŀıáŀļáŀŁáŀĹ": 5674,
      "ĠhÃ¡n": 5675,
      "ĠmÃ¬": 5676,
      "ĠchÃ¨": 5677,
      "áŀĬáŀļáŀĩ": 5678,
      "ĠVic": 5679,
      "áŀĴáŀĢáŀĺ": 5680,
      "ĠLak": 5681,
      "ĠIv": 5682,
      "etro": 5683,
      "ĠTur": 5684,
      "ĠSá»©c": 5685,
      "ĠBá»Ŀ": 5686,
      "ĠlÅ©y": 5687,
      "su": 5688,
      "áŀĢáŀł": 5689,
      "ĠáŀŁáŀĢáŀĽáŀľ": 5690,
      "ĠsÆ°u": 5691,
      "ĠBáº¡ch": 5692,
      "ĠxÃ³i": 5693,
      "Ġchá»įi": 5694,
      "ĠNgÆ°á»£c": 5695,
      "áŀģáŀĺ": 5696,
      "ĠMong": 5697,
      "ĠThan": 5698,
      "ĠOEC": 5699,
      "ĠHabana": 5700,
      "Ġwebsite": 5701,
      "ĠcÃłnh": 5702,
      "Ġtá»įa": 5703,
      "áŀīáŀĵ": 5704,
      "ĠÄĲáº£o": 5705,
      "ĠPor": 5706,
      "ĠSá»Ń": 5707,
      "ĠVá»ĩ": 5708,
      "Ġngá»įn": 5709,
      "ital": 5710,
      "áŀĺáŀĳáŀİ": 5711,
      "riz": 5712,
      "ĠShop": 5713,
      "ĠMali": 5714,
      "ĠPray": 5715,
      "TTQ": 5716,
      "ĠVesak": 5717,
      "Ġ_": 5718,
      "ĠhÃłn": 5719,
      "ĠNoi": 5720,
      "ĠkhÃ©p": 5721,
      "Ġáŀıáŀľ": 5722,
      "Ġlá»Ļn": 5723,
      "usse": 5724,
      "ĠOECD": 5725,
      "ver": 5726,
      "Ġtem": 5727,
      "ĠthÃŃnh": 5728,
      "ĠVAS": 5729,
      "ĠCal": 5730,
      "ĠPenh": 5731,
      "enia": 5732,
      "Ġgá»£i": 5733,
      "ĠÃģo": 5734,
      "acombank": 5735,
      "áŀĢáŀĹáŀİ": 5736,
      "Ġ981": 5737,
      "ĠMohamed": 5738,
      "NA": 5739,
      "ĠÄĳáº¥y": 5740,
      "ĠhÃ´n": 5741,
      "ĠÄĳá»±ng": 5742,
      "áŀİáŀĦáŀĩ": 5743,
      "Ã¹y": 5744,
      "ĠDáº¥u": 5745,
      "ĠáŁ¥áŁ£": 5746,
      "Ġ09": 5747,
      "Ġof": 5748,
      "ĠADMM": 5749,
      "Ġstartup": 5750,
      "ĠJordan": 5751,
      "ĠJinping": 5752,
      "TP": 5753,
      "zech": 5754,
      "Ġliv": 5755,
      "Ġsh": 5756,
      "ĠkhÃ¡n": 5757,
      "Ġthá»Ł": 5758,
      "ĠVol": 5759,
      "ĠCom": 5760,
      "ĠCzech": 5761,
      "ĠxÆ°á»Łng": 5762,
      "ĠMTTQ": 5763,
      "ĠNhung": 5764,
      "ĠEs": 5765,
      "ĠVOVW": 5766,
      "Ġ1996": 5767,
      "Ġxá»ī": 5768,
      "ĠGiá»Ŀ": 5769,
      "TrÆ°á»Ľc": 5770,
      "ofi": 5771,
      "ler": 5772,
      "ty": 5773,
      "ĠlÃ¢n": 5774,
      "ĠmÃ£n": 5775,
      "ĠTra": 5776,
      "ĠLoi": 5777,
      "Ġ2045": 5778,
      "ĠSH": 5779,
      "ĠSÃ¡u": 5780,
      "ĠGre": 5781,
      "ĠUND": 5782,
      "ĠXin": 5783,
      "ĠTop": 5784,
      "ukov": 5785,
      "Kh": 5786,
      "TC": 5787,
      "Ġá»ĳng": 5788,
      "áŀŁáŀ¢": 5789,
      "ĠkÃŃ": 5790,
      "Ġhi": 5791,
      "ĠbÃª": 5792,
      "ĠsÄĥn": 5793,
      "ĠchÃ©o": 5794,
      "ĠNÄĲ": 5795,
      "Ġtá»¥t": 5796,
      "ĠBÃŃch": 5797,
      "Ġlá»¥t": 5798,
      "ĠGat": 5799,
      "ĠGrab": 5800,
      "ĠXÃ¡c": 5801,
      "etsk": 5802,
      "ĠáŁ¤áŁ¢": 5803,
      "ĠTá»©c": 5804,
      "Ġhá»ĵn": 5805,
      "Ġ04": 5806,
      "ĠTTg": 5807,
      "ĠEVIPA": 5808,
      "ĠMartin": 5809,
      "Ġ1977": 5810,
      "Má»Ļt": 5811,
      "Ġcáº¥t": 5812,
      "áŀĦáŀĶáŀĵ": 5813,
      "Ġmanh": 5814,
      "Ġchai": 5815,
      "Ġchuyá»ģn": 5816,
      "ĠdáºŃp": 5817,
      "Ġdá»Ļi": 5818,
      "ĠVor": 5819,
      "Ãºn": 5820,
      "ĠAB": 5821,
      "ĠSacombank": 5822,
      "ĠChris": 5823,
      "ini": 5824,
      "ino": 5825,
      "Ġ79": 5826,
      "Ġ93": 5827,
      "áŀĽáŀļáŀĽ": 5828,
      "ĠáŁ¡áŁłáŁłáŁł": 5829,
      "ĠCPI": 5830,
      "ullah": 5831,
      "ĠÆ¯u": 5832,
      "ĠDiaz": 5833,
      "san": 5834,
      "ĠhÃ²n": 5835,
      "áŀĸáŀľ": 5836,
      "ĠCity": 5837,
      "ĠHee": 5838,
      "ĠBS": 5839,
      "ĠKhá»§ng": 5840,
      "Ġsá»¥p": 5841,
      "oni": 5842,
      "ĠHos": 5843,
      "ĠÃģnh": 5844,
      "use": 5845,
      "ĠLeban": 5846,
      "Ġ1967": 5847,
      "estream": 5848,
      "ĠSlov": 5849,
      "ĠPhnom": 5850,
      "ĠUNDP": 5851,
      "ĠLebanon": 5852,
      "ĠÄĳá»©t": 5853,
      "Ġsáº§u": 5854,
      "ĠBal": 5855,
      "ĠBamb": 5856,
      "ĠTrÆ°ng": 5857,
      "ĠLoáº¡i": 5858,
      "ĠKiáº¿n": 5859,
      "ĠPhÆ°á»£ng": 5860,
      "ĠCháº¥t": 5861,
      "ĠChuyá»ĥn": 5862,
      "ĠIC": 5863,
      "aco": 5864,
      "akia": 5865,
      "ght": 5866,
      "ĠPence": 5867,
      "ĠYathotou": 5868,
      "ĠVSIP": 5869,
      "Ġháº£o": 5870,
      "Ġbá»Ļt": 5871,
      "Ġbá»Ļi": 5872,
      "áŀľáŀĽ": 5873,
      "ĠrÃ²ng": 5874,
      "Ãºd": 5875,
      "ĠAC": 5876,
      "ĠSol": 5877,
      "Ġ1930": 5878,
      "ĠRio": 5879,
      "ĠáŁ¥áŁ¦": 5880,
      "ĠVá»ĭ": 5881,
      "ĠLuu": 5882,
      "ĠáŁ¦áŁ§": 5883,
      "anda": 5884,
      "ĠCLV": 5885,
      "ĠDaniel": 5886,
      "ĠBermÃºd": 5887,
      "ĠApple": 5888,
      "li": 5889,
      "oul": 5890,
      "Ġtiá»ĩc": 5891,
      "áŀ»áŀ¸": 5892,
      "ĠthÃ¡p": 5893,
      "ĠbáºŃn": 5894,
      "ĠTáºŃn": 5895,
      "ĠVP": 5896,
      "ĠHáº£o": 5897,
      "Ġráº¡n": 5898,
      "ĠTrÄĥng": 5899,
      "ĠJos": 5900,
      "oll": 5901,
      "ĠArm": 5902,
      "ĠCarl": 5903,
      "ĠSunni": 5904,
      "ĠGeorge": 5905,
      "ORLD": 5906,
      "BA": 5907,
      "ius": 5908,
      "ĠtÃ¡o": 5909,
      "ĠÄĳÃª": 5910,
      "ĠÄĳá»Ľi": 5911,
      "Ġquáº§y": 5912,
      "Ġcá»Ľ": 5913,
      "Ġgiáº¥u": 5914,
      "Ġrá»Ļ": 5915,
      "ĠTrÃ¬nh": 5916,
      "Ġtrá»Ĺi": 5917,
      "ĠSÃ´ng": 5918,
      "ĠKH": 5919,
      "Ġná»Ł": 5920,
      "ĠXanh": 5921,
      "ĠGiá»¯a": 5922,
      "ĠBush": 5923,
      "ĠSaigon": 5924,
      "ĠbÆ¡m": 5925,
      "á»Ľc": 5926,
      "Ġláº·n": 5927,
      "Ġkiá»ĩt": 5928,
      "Ġnan": 5929,
      "Ġheo": 5930,
      "áŀĸáŀĻ": 5931,
      "Ġngáº«u": 5932,
      "áŀĤáŀĶ": 5933,
      "ĠMÃ¬nh": 5934,
      "ĠKofi": 5935,
      "Ġ1998": 5936,
      "ĠáŁ©áŁ¥": 5937,
      "áŁ¡áŁ©": 5938,
      "ĠHieu": 5939,
      "ĠCDU": 5940,
      "Fast": 5941,
      "áŀĢáŀ¯": 5942,
      "Ġtrá»Ļn": 5943,
      "Ġno": 5944,
      "Ġáŀĩáŀĩ": 5945,
      "ĠBÆ°u": 5946,
      "Ġxen": 5947,
      "Æ°á»Łi": 5948,
      "ĠkhoÄĥn": 5949,
      "Ġthoáº£i": 5950,
      "ĠTHA": 5951,
      "ÄĲá»ĥ": 5952,
      "Ġáŀ¢áŀŁáŀĢáŀĺ": 5953,
      "atherine": 5954,
      "ĠNarendra": 5955,
      "ĠVictor": 5956,
      "CFTA": 5957,
      "eong": 5958,
      "vi": 5959,
      "Ġká»ģ": 5960,
      "Ġdáº·n": 5961,
      "ĠVn": 5962,
      "ĠHel": 5963,
      "Ġxáº¡": 5964,
      "Ġsá»£i": 5965,
      "ĠGR": 5966,
      "ĠNguyá»ĩt": 5967,
      "ĠáŁ¤áŁ¦": 5968,
      "ĠYing": 5969,
      "Ġ1980": 5970,
      "ĠToan": 5971,
      "BI": 5972,
      "tu": 5973,
      "Ġcáº·p": 5974,
      "áŀļáŀļáŀı": 5975,
      "ĠÄĳÃ´n": 5976,
      "ĠkÃ©p": 5977,
      "Ġnháº§m": 5978,
      "Ġgáº·t": 5979,
      "Ġlá»¯": 5980,
      "Ġmuá»Ļn": 5981,
      "ĠáŁ£áŁ©": 5982,
      "ĠUSA": 5983,
      "ĠáŁ¡áŁ¢áŁł": 5984,
      "ĠAfCFTA": 5985,
      "ĠVinFast": 5986,
      "ĠAirw": 5987,
      "ĠCá»ķng": 5988,
      "ĠNHNN": 5989,
      "mo": 5990,
      "ĠcÃ´i": 5991,
      "ĠcÆ°á»¡ng": 5992,
      "áŀĦáŀĲ": 5993,
      "áŀŁáŀĳ": 5994,
      "áŀŁáŀģ": 5995,
      "ĠáŀĶáŀŁ": 5996,
      "ĠmÃŃt": 5997,
      "ĠÄĲi": 5998,
      "cha": 5999,
      "ĠMil": 6000,
      "ĠSÃ¢n": 6001,
      "ĠChÃº": 6002,
      "ĠChav": 6003,
      "Ġbá»įc": 6004,
      "Ġmáº¡ch": 6005,
      "ĠEn": 6006,
      "ĠBach": 6007,
      "odo": 6008,
      "ĠMcC": 6009,
      "ĠNikk": 6010,
      "ĠNDT": 6011,
      "50": 6012,
      "Náº¿u": 6013,
      "ĠcÆ°á»Ľp": 6014,
      "ĠÄĳáº±ng": 6015,
      "ĠÄĳáº¡p": 6016,
      "Ġláº¥n": 6017,
      "ĠÄĳá»«ng": 6018,
      "ĠmáºŃu": 6019,
      "Ġgom": 6020,
      "Ġáŀļáŀĺáŀİ": 6021,
      "á»ĳm": 6022,
      "Ġgiáº·t": 6023,
      "ĠSanh": 6024,
      "ĠSou": 6025,
      "aya": 6026,
      "áŀļáŀĢáŀĶ": 6027,
      "ĠMob": 6028,
      "ĠchÃºa": 6029,
      "ĠLá»Ŀi": 6030,
      "áŀĢáŀĶáŀļ": 6031,
      "ĠAshton": 6032,
      "ĠRodri": 6033,
      "Ġlivestream": 6034,
      "ĠVOVWORLD": 6035,
      "vard": 6036,
      "you": 6037,
      "Ġtiá»ĩm": 6038,
      "Ġtháº¡c": 6039,
      "ĠTom": 6040,
      "Ġgiáº¥c": 6041,
      "ĠCáº©m": 6042,
      "Ġáŀħáŀı": 6043,
      "ĠáŀıáŀĶáŀı": 6044,
      "ĠÄĲÃ³ng": 6045,
      "ĠxÆ°Æ¡ng": 6046,
      "ĠHout": 6047,
      "atra": 6048,
      "Ġ160": 6049,
      "ĠNghia": 6050,
      "opia": 6051,
      "oshenko": 6052,
      "ĠVorachith": 6053,
      "ĠAirways": 6054,
      "ĠHouthi": 6055,
      "Ġnáº¿p": 6056,
      "Ġnha": 6057,
      "ĠNá»ķi": 6058,
      "ĠngÃ£": 6059,
      "Ġkhan": 6060,
      "áŀļáŀľáŀĵ": 6061,
      "Ġ06": 6062,
      "Ġ260": 6063,
      "ĠArmenia": 6064,
      "JI": 6065,
      "yan": 6066,
      "Ġá»ĳc": 6067,
      "á»Ľi": 6068,
      "iá»ĩng": 6069,
      "Ġmáº»": 6070,
      "ĠNova": 6071,
      "Ġáŀħáŀļáŀĵ": 6072,
      "áŀģáŀĵ": 6073,
      "ĠLim": 6074,
      "ĠSay": 6075,
      "ĠKe": 6076,
      "ĠEthi": 6077,
      "ale": 6078,
      "áŀĪáŀĵ": 6079,
      "ings": 6080,
      "ĠDonetsk": 6081,
      "Ġthá»ķi": 6082,
      "áŀĶáŀĶáŀļáŀĺ": 6083,
      "áŀĵáŀĢáŀĬáŀĳ": 6084,
      "ĠCSU": 6085,
      "ĠRomania": 6086,
      "ĠRomney": 6087,
      "ĠHanoi": 6088,
      "ĠBamboo": 6089,
      "ool": 6090,
      "se": 6091,
      "wan": 6092,
      "ĠkÄ©": 6093,
      "ĠbÃ³n": 6094,
      "Ġchay": 6095,
      "ĠkhuyÃªn": 6096,
      "Ã£ng": 6097,
      "ĠHanh": 6098,
      "ĠQL": 6099,
      "ĠCha": 6100,
      "Ġdá»Ŀi": 6101,
      "áŀļáŀ¢áŀı": 6102,
      "Ġchua": 6103,
      "ĠHá»£i": 6104,
      "ĠáŁ§áŁ¢": 6105,
      "ĠáŀħáŀĦáŀħ": 6106,
      "ĠChá»¯": 6107,
      "ĠáŁ¢áŁłáŁłáŁ¥": 6108,
      "ĠNews": 6109,
      "áŀĢáŀĢáŀĢ": 6110,
      "ĠKyaw": 6111,
      "ĠPoroshenko": 6112,
      "tar": 6113,
      "tain": 6114,
      "áŀ¶áŁĴ": 6115,
      "ĠtiÃªm": 6116,
      "ĠsÃºt": 6117,
      "Ġmiá»ĩng": 6118,
      "ĠáŀĬáŀĶ": 6119,
      "áŀīáŀĲ": 6120,
      "ĠTrÃ¡ch": 6121,
      "Ġlá»Ŀ": 6122,
      "áŀĶáŀĵáŀĶáŀı": 6123,
      "ĠWill": 6124,
      "ĠviÃªm": 6125,
      "ĠTá»«ng": 6126,
      "ĠCá»©": 6127,
      "right": 6128,
      "Ġrobot": 6129,
      "dex": 6130,
      "ĠAbdel": 6131,
      "ĠChavez": 6132,
      "AG": 6133,
      "Khi": 6134,
      "PA": 6135,
      "den": 6136,
      "ies": 6137,
      "zania": 6138,
      "ÌĨ": 6139,
      "Ġa": 6140,
      "áŀŁáŀļáŀİ": 6141,
      "ĠdÆ°a": 6142,
      "ĠNoda": 6143,
      "ĠBin": 6144,
      "ĠxÃ¡ch": 6145,
      "áŀ¢áŀī": 6146,
      "ĠSil": 6147,
      "ĠNhi": 6148,
      "ĠXV": 6149,
      "Ġmuá»ĳi": 6150,
      "ĠTrá»Ł": 6151,
      "ĠTanzania": 6152,
      "ĠMubar": 6153,
      "ĠINF": 6154,
      "ĠOPEC": 6155,
      "ĠEthiopia": 6156,
      "ram": 6157,
      "áŀŁáŀĶáŀī": 6158,
      "Ġngu": 6159,
      "ĠáŀĬáŀĢáŀŁ": 6160,
      "Ġkhe": 6161,
      "Ġáŀıáŀĵ": 6162,
      "ĠáŀľáŀļáŀŁ": 6163,
      "ĠrÃ¡p": 6164,
      "ĠPy": 6165,
      "ĠLau": 6166,
      "ĠLich": 6167,
      "ĠSCO": 6168,
      "ĠKam": 6169,
      "int": 6170,
      "áŀĻáŀĢáŀĽ": 6171,
      "ĠHor": 6172,
      "ĠLuc": 6173,
      "ĠáŁ¨áŁ¨": 6174,
      "ĠColom": 6175,
      "ĠSHB": 6176,
      "ĠSlovakia": 6177,
      "ĠBermÃºdez": 6178,
      "ĠGRDP": 6179,
      "19": 6180,
      "com": 6181,
      "sa": 6182,
      "ĠÄĳan": 6183,
      "ĠlÃ´i": 6184,
      "Ġkáº¹": 6185,
      "ĠhÆ°": 6186,
      "ĠTÆ°á»Ľng": 6187,
      "ĠVÃłi": 6188,
      "ĠCÃ¢y": 6189,
      "Ġáŀıáŀĳ": 6190,
      "ĠÄĲá»ĵn": 6191,
      "ĠBá»ĳn": 6192,
      "ĠMáº«n": 6193,
      "ĠLÆ°á»£ng": 6194,
      "ĠLáº¡c": 6195,
      "ĠThÃŃch": 6196,
      "ĠKÃ´ng": 6197,
      "ĠXH": 6198,
      "ĠXÃ©t": 6199,
      "Ġtá»±a": 6200,
      "eth": 6201,
      "ide": 6202,
      "ĠáŁ¥áŁ¨": 6203,
      "ĠYáº¿n": 6204,
      "ĠOne": 6205,
      "ĠCairo": 6206,
      "ĠCSVN": 6207,
      "ĠSisoul": 6208,
      "ĠHarvard": 6209,
      "ĠSisoulith": 6210,
      "CÃ´ng": 6211,
      "Qu": 6212,
      "va": 6213,
      "Ġliá»ģu": 6214,
      "ĠmÃ©t": 6215,
      "áŀĤáŀľ": 6216,
      "amen": 6217,
      "ĠHÃ¡n": 6218,
      "ĠxÃ³m": 6219,
      "áŀģáŀļáŀĶáŀļ": 6220,
      "Ġlá»©a": 6221,
      "ĠLot": 6222,
      "ĠCharl": 6223,
      "imex": 6224,
      "ĠáŁ¥áŁ¡": 6225,
      "ott": 6226,
      "áŀĦáŀħáŀĺ": 6227,
      "ĠCarib": 6228,
      "GP": 6229,
      "be": 6230,
      "áŀĦáŀļáŀĦ": 6231,
      "Ġtru": 6232,
      "ĠtrÆ°á»£t": 6233,
      "ĠbÄĥn": 6234,
      "ĠTB": 6235,
      "áŀİáŀĢ": 6236,
      "Ġtá»§": 6237,
      "ĠCI": 6238,
      "ĠBÃ¢y": 6239,
      "ĠMáº¡ng": 6240,
      "Ġtáº¿t": 6241,
      "Ġnghiá»ĩt": 6242,
      "ĠLB": 6243,
      "áŀļáŀĶáŀĺ": 6244,
      "ĠKhuyáº¿n": 6245,
      "ĠSav": 6246,
      "omics": 6247,
      "ĠáŁłáŁ¥": 6248,
      "Ġ1999": 6249,
      "ĠáŁ¢áŁłáŁłáŁ¡": 6250,
      "ÌĤÌĢ": 6251,
      "ÌĽÌģ": 6252,
      "Hiá»ĩn": 6253,
      "LV": 6254,
      "bon": 6255,
      "celand": 6256,
      "uth": 6257,
      "yip": 6258,
      "Ã¡z": 6259,
      "áŀĻáŀł": 6260,
      "áŀĻáŀģ": 6261,
      "Ġnháº«n": 6262,
      "Ġchinh": 6263,
      "Ġpháº«n": 6264,
      "ĠAN": 6265,
      "ĠLor": 6266,
      "ĠLes": 6267,
      "áŀļáŀıáŀĢ": 6268,
      "ĠIceland": 6269,
      "ĠUÃ´ng": 6270,
      "ĠáŁ¥áŁ§": 6271,
      "Ġáŀ¥áŀļ": 6272,
      "ĠOs": 6273,
      "áŀĻáŀħáŀĵ": 6274,
      "ĠDiÃ¡z": 6275,
      "ĠUyÃªn": 6276,
      "ĠTayyip": 6277,
      "ĠÆ¯á»Ľc": 6278,
      "ĠMubarak": 6279,
      "JC": 6280,
      "NG": 6281,
      "ef": 6282,
      "tÃ´": 6283,
      "uc": 6284,
      "ĠÃ´m": 6285,
      "ĠtÃ³m": 6286,
      "Ġnin": 6287,
      "Ġbáº¥y": 6288,
      "ĠÄĲÃłm": 6289,
      "Ġchá»«ng": 6290,
      "ĠTráº»": 6291,
      "ĠMá»Ļc": 6292,
      "ĠLÄĲ": 6293,
      "ĠGhi": 6294,
      "ĠEx": 6295,
      "Ġáŀ±áŀĵ": 6296,
      "ĠáŁ¢áŁłáŁ¢áŁ¢": 6297,
      "Ġ1986": 6298,
      "hamoni": 6299,
      "abul": 6300,
      "ĠSihamoni": 6301,
      "ĠVIII": 6302,
      "ĠShopee": 6303,
      "áŀıáŀĥ": 6304,
      "áŀıáŀ²": 6305,
      "Ġbá»Ļc": 6306,
      "ĠdÃłn": 6307,
      "ĠNay": 6308,
      "ĠCáº£m": 6309,
      "ĠCor": 6310,
      "ĠáŀĤáŀĦ": 6311,
      "ĠMÃ´n": 6312,
      "ĠMusk": 6313,
      "Ġ1000": 6314,
      "ĠkhÃ³i": 6315,
      "ĠVient": 6316,
      "ĠHÄĲBA": 6317,
      "ĠFrancis": 6318,
      "ĠBoliv": 6319,
      "ĠVientian": 6320,
      "25": 6321,
      "Tá»": 6322,
      "ĠtÃº": 6323,
      "ĠtÄ©nh": 6324,
      "ĠTÃ²ng": 6325,
      "Ġgai": 6326,
      "Ġvá»Ł": 6327,
      "anov": 6328,
      "ĠHe": 6329,
      "Ġrá»Ļn": 6330,
      "ĠáŀļáŀĶáŀĦ": 6331,
      "ĠMÃ´": 6332,
      "ĠQuÃ¡n": 6333,
      "ĠChÄĥm": 6334,
      "ĠDO": 6335,
      "ĠDiá»ĩp": 6336,
      "ĠDá»±a": 6337,
      "ĠJav": 6338,
      "ĠáŀĶáŀĳáŀŁáŀĺ": 6339,
      "ĠchiÃªng": 6340,
      "ĠáŁ¨áŁ¦": 6341,
      "Ġ1989": 6342,
      "rain": 6343,
      "áŀĵáŀĢáŀŁáŀĦ": 6344,
      "inej": 6345,
      "ĠPhá»ķ": 6346,
      "ĠSein": 6347,
      "DGs": 6348,
      "ĠAEON": 6349,
      "ĠCalif": 6350,
      "ĠNikkei": 6351,
      "ĠLeste": 6352,
      "RP": 6353,
      "Sau": 6354,
      "ca": 6355,
      "Ļi": 6356,
      "ĠÄĳáº»": 6357,
      "ĠTong": 6358,
      "ĠTes": 6359,
      "ĠáŀļáŀĲáŀĹ": 6360,
      "áŀĩáŀĢáŀļ": 6361,
      "Ġthá»±": 6362,
      "ans": 6363,
      "ĠHuyá»ģn": 6364,
      "ĠMel": 6365,
      "ĠChr": 6366,
      "ĠDe": 6367,
      "Ġluá»ĵng": 6368,
      "Ġphá»Ľt": 6369,
      "ĠKhÃ³a": 6370,
      "ĠYoshi": 6371,
      "ace": 6372,
      "ĠáŁ§áŁ£": 6373,
      "ĠThuá»·": 6374,
      "ĠLá»¥c": 6375,
      "ĠHye": 6376,
      "ĠáŁ©áŁ§": 6377,
      "ĠáŁ©áŁ©": 6378,
      "loun": 6379,
      "ĠThongloun": 6380,
      "FA": 6381,
      "Quan": 6382,
      "bright": 6383,
      "po": 6384,
      "Ĺng": 6385,
      "ĠnCo": 6386,
      "Ġson": 6387,
      "ĠmÃ¹": 6388,
      "ĠchÄĥng": 6389,
      "áŀİáŀĽ": 6390,
      "ĠNLÄĲ": 6391,
      "ĠkhÃ´n": 6392,
      "ĠxoÃłi": 6393,
      "ĠráºŃp": 6394,
      "ĠPort": 6395,
      "ĠLog": 6396,
      "ĠKa": 6397,
      "Ġcá»Ļi": 6398,
      "Ġngá»ı": 6399,
      "ĠáŁ¦áŁ¨": 6400,
      "áŀ¯áŀĢ": 6401,
      "ĠRousse": 6402,
      "ĠShiyou": 6403,
      "Ġblogger": 6404,
      "ĠAlexander": 6405,
      "inejad": 6406,
      "ĠnCoV": 6407,
      "PG": 6408,
      "Ġti": 6409,
      "Ġtháº¯p": 6410,
      "ĠHR": 6411,
      "ĠBou": 6412,
      "áŀģáŀĬ": 6413,
      "ĠLen": 6414,
      "ĠKo": 6415,
      "ĠKara": 6416,
      "áŀļáŀĺáŀŁ": 6417,
      "ĠIm": 6418,
      "Ġ190": 6419,
      "ĠJon": 6420,
      "ĠáŀĶáŀĳáŀĽ": 6421,
      "ĠYÃªu": 6422,
      "ĠáŁ¦áŁ¢": 6423,
      "ĠChá»£": 6424,
      "eve": 6425,
      "Ġ450": 6426,
      "ĠThein": 6427,
      "ĠECB": 6428,
      "ĠAbdullah": 6429,
      "ĠEdward": 6430,
      "ET": 6431,
      "ford": 6432,
      "now": 6433,
      "Ġhiáº¿u": 6434,
      "ĠbÆ°á»Łi": 6435,
      "áŀľáŀĦ": 6436,
      "ĠCatherine": 6437,
      "Ġ230": 6438,
      "ĠPaul": 6439,
      "ĠLien": 6440,
      "ĠThap": 6441,
      "ĠCháº¿": 6442,
      "áŀĵáŀĦáŀĢ": 6443,
      "ida": 6444,
      "itch": 6445,
      "ĠÃ´tÃ´": 6446,
      "ĠAsia": 6447,
      "ther": 6448,
      "Ġ1954": 6449,
      "ĠMSB": 6450,
      "ĠMasan": 6451,
      "burg": 6452,
      "ĠCaribe": 6453,
      "kaku": 6454,
      "lav": 6455,
      "Ġtang": 6456,
      "Ġbá»ĳc": 6457,
      "ĠTV": 6458,
      "ĠngÆ°ng": 6459,
      "Ġvá»Ļi": 6460,
      "Ġthá»¥c": 6461,
      "Æ°á»£n": 6462,
      "Ġlá»¡": 6463,
      "ĠPow": 6464,
      "ĠChÃºc": 6465,
      "ĠKha": 6466,
      "bakh": 6467,
      "ĠVictoria": 6468,
      "ĠTesla": 6469,
      "Há»": 6470,
      "KV": 6471,
      "hrain": 6472,
      "Ġtre": 6473,
      "Ġláº¥p": 6474,
      "ĠáŀĢáŀĶ": 6475,
      "ĠnÃºt": 6476,
      "ĠchÃ³": 6477,
      "ĠNag": 6478,
      "áŀĩáŀļ": 6479,
      "ĠCá»±c": 6480,
      "ĠTriá»ĩu": 6481,
      "ĠMáº§m": 6482,
      "ĠAth": 6483,
      "ĠThÃ¡ch": 6484,
      "ĠKw": 6485,
      "ĠKen": 6486,
      "áŀļáŀĶáŀĶ": 6487,
      "ĠPhÃ¢n": 6488,
      "ĠPhÃ¹": 6489,
      "ĠChang": 6490,
      "ĠIX": 6491,
      "ĠáŀĤáŀİáŀĢáŀĺ": 6492,
      "ĠGiáº£m": 6493,
      "ĠJess": 6494,
      "áŁłáŁłáŁł": 6495,
      "und": 6496,
      "áŀĺáŀĳáŀĺ": 6497,
      "ĠBahrain": 6498,
      "Ġ170": 6499,
      "Ġtá»¥ng": 6500,
      "ĠAndrew": 6501,
      "Ġáŀ«áŀŁ": 6502,
      "ĠVPBank": 6503,
      "ĠTHAAD": 6504,
      "ĠChrist": 6505,
      "14": 6506,
      "Vá»Ľi": 6507,
      "ts": 6508,
      "ĠáŀĢáŀĽ": 6509,
      "ĠNÃªn": 6510,
      "á»Ļm": 6511,
      "Ġranh": 6512,
      "ĠáŀļáŀĶáŀļ": 6513,
      "ĠMÃª": 6514,
      "ĠKCN": 6515,
      "ĠGrand": 6516,
      "áŀļáŀİáŀĩáŀĵ": 6517,
      "ĠáŀĪáŀļáŀĪ": 6518,
      "ĠFore": 6519,
      "aska": 6520,
      "áŀļáŀľáŀĢáŀļ": 6521,
      "ĠOn": 6522,
      "evich": 6523,
      "ĠBerlin": 6524,
      "Ġruá»Ļt": 6525,
      "ietnam": 6526,
      "ĠMinsk": 6527,
      "ĠBOT": 6528,
      "ĠQLTT": 6529,
      "Nhá»": 6530,
      "QH": 6531,
      "ren": 6532,
      "Ġviá»ĩt": 6533,
      "ĠbÆ°u": 6534,
      "Ġáŀ¢áŀļáŀĤ": 6535,
      "ĠCÃ´n": 6536,
      "ĠNgai": 6537,
      "ĠMilk": 6538,
      "ĠThÃ¢n": 6539,
      "áŀĵáŀĢáŀĴ": 6540,
      "ĠKháº£i": 6541,
      "ĠJus": 6542,
      "ate": 6543,
      "ĠOanh": 6544,
      "áŀĽáŀĦáŀķ": 6545,
      "Ġ240": 6546,
      "ota": 6547,
      "Ġup": 6548,
      "ĠColombia": 6549,
      "ĠKarabakh": 6550,
      "DF": 6551,
      "TI": 6552,
      "iang": 6553,
      "sy": 6554,
      "áŀĢáŀĥ": 6555,
      "ĠvÃµ": 6556,
      "áŀ¸áŁĸ": 6557,
      "ĠquÃ©t": 6558,
      "Ġtrá»ħ": 6559,
      "Ġmá»Ŀ": 6560,
      "ĠSJC": 6561,
      "áŀĵáŀĢáŀķáŀĽ": 6562,
      "ĠOl": 6563,
      "ĠVinU": 6564,
      "áŁ¡áŁ¢": 6565,
      "phone": 6566,
      "ĠManmo": 6567,
      "Wh": 6568,
      "ear": 6569,
      "lan": 6570,
      "ring": 6571,
      "ura": 6572,
      "áŀļáŀļáŀħáŀĵ": 6573,
      "ĠÄĳáº·n": 6574,
      "ĠsÃºc": 6575,
      "ĠHLV": 6576,
      "ĠÄĲá»ģn": 6577,
      "ĠÄĲÃªm": 6578,
      "Ġmá»įc": 6579,
      "ĠLÃªn": 6580,
      "ĠChar": 6581,
      "Ġáŀłáŀı": 6582,
      "áŀĸáŀŁáŀĦ": 6583,
      "ĠKháº£o": 6584,
      "áŀĢáŀĬáŀĩ": 6585,
      "Ġcamera": 6586,
      "Ġrá»¡": 6587,
      "ĠáŁ¢áŁłáŁłáŁ£": 6588,
      "ĠFrank": 6589,
      "ĠHamid": 6590,
      "ĠBuÃ´n": 6591,
      "ĠVientiane": 6592,
      "YT": 6593,
      "Ġapp": 6594,
      "Ġcáº¡n": 6595,
      "áŀĦáŀ¥": 6596,
      "áŀİáŀľ": 6597,
      "ĠNiá»ģm": 6598,
      "ĠNep": 6599,
      "Ġphun": 6600,
      "Ġkháº¯t": 6601,
      "ĠKabul": 6602,
      "áŀļáŀĶáŀĽ": 6603,
      "áŀĵáŀĢáŀļ": 6604,
      "áŀĵáŀĢáŀĽ": 6605,
      "Ġná»©t": 6606,
      "ĠáŁ¡áŁ£áŁ¢": 6607,
      "awatra": 6608,
      "áŀĵáŀĢáŀĳáŀĳ": 6609,
      "ĠTNVN": 6610,
      "ĠJeff": 6611,
      "ornia": 6612,
      "ĠVietinbank": 6613,
      "áŀĸáŀ¢áŀı": 6614,
      "ĠnÃ©m": 6615,
      "ĠDOJI": 6616,
      "ĠCalifornia": 6617,
      "áŀĦáŀ¥áŀĵ": 6618,
      "CÃ³": 6619,
      "ww": 6620,
      "Æ¯": 6621,
      "ĠtrÃ¢u": 6622,
      "ĠlÃ²": 6623,
      "ĠTá»ĳc": 6624,
      "ĠcháºŃu": 6625,
      "Ġngá»Ļ": 6626,
      "áŀľáŀŁ": 6627,
      "áŀĩáŀĴ": 6628,
      "Ġhá»ıa": 6629,
      "ĠkhÄĥng": 6630,
      "ĠkhÃ©o": 6631,
      "ĠCÃ¡": 6632,
      "ĠHon": 6633,
      "ĠBi": 6634,
      "ĠBá»ĵ": 6635,
      "ĠATM": 6636,
      "ĠLáº¡nh": 6637,
      "ĠLad": 6638,
      "áŀ¢áŀĴ": 6639,
      "ĠPhÃ¡n": 6640,
      "ĠNhon": 6641,
      "ons": 6642,
      "áŀļáŀĤáŀİ": 6643,
      "ĠMarc": 6644,
      "ĠSuu": 6645,
      "ĠKhá»Łi": 6646,
      "ĠAhmad": 6647,
      "Ġuranium": 6648,
      "ĠPrayuth": 6649,
      "ĠHosni": 6650,
      "ĠNagorn": 6651,
      "ĠVinUni": 6652,
      "ĠNepal": 6653,
      "xi": 6654,
      "ĠtÃºng": 6655,
      "ĠcÃ¡t": 6656,
      "Ġláº·p": 6657,
      "ĠTak": 6658,
      "Ġcá»ĵn": 6659,
      "Ġáŀĺáŀĺ": 6660,
      "ĠÄĲCS": 6661,
      "ĠAu": 6662,
      "ĠSnow": 6663,
      "ĠChuyá»ģn": 6664,
      "ĠGon": 6665,
      "ĠIF": 6666,
      "ĠKhung": 6667,
      "ori": 6668,
      "ĠáŀĩáŀĵáŀĹ": 6669,
      "ĠVietG": 6670,
      "agawa": 6671,
      "ĠShinawatra": 6672,
      "ĠSenkaku": 6673,
      "ĠElon": 6674,
      "ĠFintech": 6675,
      "ĠRodrigo": 6676,
      "áŀļáŀĤáŀİáŀĵ": 6677,
      "ĠSnowden": 6678,
      "dam": 6679,
      "ĠÃºt": 6680,
      "áŀ¶áŁı": 6681,
      "Ġtam": 6682,
      "áŀļáŀĤáŀĺ": 6683,
      "Ġláº·ng": 6684,
      "ĠnÆ°á»Ľng": 6685,
      "Ġnáº¥m": 6686,
      "ĠnhÃ¢": 6687,
      "ĠmÃ²": 6688,
      "ĠchÃłng": 6689,
      "áŀľáŀħ": 6690,
      "ame": 6691,
      "ĠBá»ģn": 6692,
      "ĠMic": 6693,
      "Ġá»Ľt": 6694,
      "ĠPat": 6695,
      "ĠSc": 6696,
      "ĠSáº¯p": 6697,
      "ĠPhom": 6698,
      "asone": 6699,
      "ĠWe": 6700,
      "terte": 6701,
      "ĠDuterte": 6702,
      "ĠáŁ¢áŁ¥áŁł": 6703,
      "ĠCá»Ńa": 6704,
      "ĠBHYT": 6705,
      "ĠSerge": 6706,
      "ĠKrem": 6707,
      "Ġfacebook": 6708,
      "lor": 6709,
      "mun": 6710,
      "ner": 6711,
      "zi": 6712,
      "ĠvÃ³c": 6713,
      "áŁĭáŁĸ": 6714,
      "ĠbÃºt": 6715,
      "áŀĸáŀĺ": 6716,
      "ĠgiÃ¢y": 6717,
      "ĠSok": 6718,
      "áŀļáŀŁáŀļáŀŁ": 6719,
      "onn": 6720,
      "ĠGold": 6721,
      "Ġluá»µ": 6722,
      "áŀĩáŀĵáŀĩ": 6723,
      "ĠáŁ¢áŁłáŁ¤": 6724,
      "all": 6725,
      "ĠkhÃ³c": 6726,
      "ĠáŁ¦áŁ¤": 6727,
      "ĠIndex": 6728,
      "reet": 6729,
      "eum": 6730,
      "Ġwww": 6731,
      "ĠJessica": 6732,
      "fe": 6733,
      "ki": 6734,
      "ĠtiÃª": 6735,
      "áŀŁáŀĢáŀĩáŀĵ": 6736,
      "ĠmÆ°Æ¡i": 6737,
      "ĠmÃŃa": 6738,
      "Ġdáº£i": 6739,
      "Ġquang": 6740,
      "Ã³p": 6741,
      "ĠViÃªn": 6742,
      "ĠVÃłnh": 6743,
      "ĠÄĲen": 6744,
      "ĠáŀŁáŀłáŀĤáŀĺ": 6745,
      "ĠEng": 6746,
      "ĠlÃ£o": 6747,
      "Ġtá»ĳp": 6748,
      "ĠHÃłm": 6749,
      "ĠJan": 6750,
      "áŀļáŀĤáŀļ": 6751,
      "ĠCup": 6752,
      "Ġloa": 6753,
      "ĠKyi": 6754,
      "tainer": 6755,
      "Nhá»¯ng": 6756,
      "iam": 6757,
      "Ã¼": 6758,
      "ĠnÃ£o": 6759,
      "Ġnhi": 6760,
      "ĠTusk": 6761,
      "ĠdÃ¢u": 6762,
      "áŀİáŀļ": 6763,
      "Ġáŀĩáŀİ": 6764,
      "ĠVy": 6765,
      "áŀīáŀĶ": 6766,
      "ĠHau": 6767,
      "ĠBur": 6768,
      "ĠáŀļáŀĶáŀĢáŀĤ": 6769,
      "ĠSm": 6770,
      "ĠSoc": 6771,
      "ĠâĢĺ": 6772,
      "ond": 6773,
      "ĠEAE": 6774,
      "Ġ191": 6775,
      "ĠKhÃ´i": 6776,
      "ĠáŀĶáŀĢáŀŁ": 6777,
      "unth": 6778,
      "ĠáŁ§áŁ§": 6779,
      "lege": 6780,
      "ĠZar": 6781,
      "ivi": 6782,
      "ĠáŁ¡áŁ©áŁ©áŁ¤": 6783,
      "ĠSochi": 6784,
      "oft": 6785,
      "ridge": 6786,
      "ĠScott": 6787,
      "ĠVnukov": 6788,
      "ĠUSAID": 6789,
      "ĠSergey": 6790,
      "ĠEAEU": 6791,
      "Má»": 6792,
      "Ġeo": 6793,
      "ĠTÃ¬m": 6794,
      "Ġdáº¹p": 6795,
      "ĠBig": 6796,
      "ĠMun": 6797,
      "ĠKáº¡n": 6798,
      "Ã¹n": 6799,
      "ĠHoÃ¡": 6800,
      "Ġ2024": 6801,
      "ĠFat": 6802,
      "ita": 6803,
      "ĠáŁ¡áŁ©áŁ©": 6804,
      "ĠCá»§": 6805,
      "ĠKhoáº£n": 6806,
      "ĠáŁ¢áŁłáŁłáŁ¢": 6807,
      "ĠáŁ¡áŁ©áŁ§áŁ£": 6808,
      "ÌĽÌĢ": 6809,
      "luck": 6810,
      "ĠBermud": 6811,
      "BSCL": 6812,
      "ĠYingluck": 6813,
      "ĠCharles": 6814,
      "ĠNagorno": 6815,
      "99": 6816,
      "ten": 6817,
      "ĠmÆ°á»£n": 6818,
      "ĠchÃ³t": 6819,
      "ĠgÃ£": 6820,
      "Ġdai": 6821,
      "ĠVÆ°á»£t": 6822,
      "ĠHAG": 6823,
      "ĠPro": 6824,
      "Ġ192": 6825,
      "ĠKhang": 6826,
      "Ġcontainer": 6827,
      "ĠRich": 6828,
      "atia": 6829,
      "ĠYu": 6830,
      "Ġ1970": 6831,
      "ĠáŀªáŀĢ": 6832,
      "Ġocha": 6833,
      "ĠComp": 6834,
      "ĠSounth": 6835,
      "ĠÃĲáº£ng": 6836,
      "ĠKanagawa": 6837,
      "ĠCroatia": 6838,
      "ĠSouth": 6839,
      "21": 6840,
      "52": 6841,
      "AT": 6842,
      "PL": 6843,
      "pa": 6844,
      "zai": 6845,
      "ĠÄĳÆ°Æ¡": 6846,
      "áŀıáŀļáŀĢ": 6847,
      "ĠmÃºa": 6848,
      "Ġdáº¡n": 6849,
      "Ġáŀ¢áŀĻ": 6850,
      "Ġkháº¥u": 6851,
      "ĠVáº¡n": 6852,
      "ĠVGP": 6853,
      "amp": 6854,
      "ĠÄĲBSCL": 6855,
      "Ġxáº¥p": 6856,
      "ĠLin": 6857,
      "ĠLÃ£i": 6858,
      "ĠThÃºy": 6859,
      "Ġlui": 6860,
      "ĠUr": 6861,
      "ĠXung": 6862,
      "Ã©n": 6863,
      "Ġbá»ĭa": 6864,
      "ĠRut": 6865,
      "Ġ105": 6866,
      "ĠÃģi": 6867,
      "rad": 6868,
      "ĠáŁ§áŁ¤": 6869,
      "Ġrá»ħ": 6870,
      "ĠáŁ¨áŁ¢": 6871,
      "olf": 6872,
      "ula": 6873,
      "ĠBá»©c": 6874,
      "ĠUNIC": 6875,
      "ĠáŁ¢áŁłáŁłáŁ¤": 6876,
      "ĠáŁ¡áŁ£áŁł": 6877,
      "ĠRoy": 6878,
      "ĠLieu": 6879,
      "ĠValen": 6880,
      "ĠUNICEF": 6881,
      "kok": 6882,
      "rit": 6883,
      "tland": 6884,
      "zy": 6885,
      "Ġáŀ¦": 6886,
      "áŀĶáŀļáŀĶáŀĶ": 6887,
      "ĠTÃŃch": 6888,
      "áŀĸáŀĶáŀı": 6889,
      "ĠVÆ°á»Ŀn": 6890,
      "ani": 6891,
      "ĠÄĲÆ°a": 6892,
      "áŁīáŁĥ": 6893,
      "ĠSM": 6894,
      "ĠKiáº¿m": 6895,
      "ĠIl": 6896,
      "ĠEb": 6897,
      "ĠJak": 6898,
      "Ġop": 6899,
      "Ġ550": 6900,
      "ĠBangkok": 6901,
      "Ġáŀ±áŀŁáŀĲáŀŁ": 6902,
      "ĠAhmed": 6903,
      "ĠRaj": 6904,
      "ĠWilliam": 6905,
      "ĠImage": 6906,
      "IT": 6907,
      "ĠvÆ¡": 6908,
      "áŀĻáŀĶáŀİ": 6909,
      "ĠthÃª": 6910,
      "Ġtháº¯c": 6911,
      "ĠNi": 6912,
      "áŀĬáŀĶ": 6913,
      "ĠCen": 6914,
      "ÃŃm": 6915,
      "ĠáŀĽáŀĦ": 6916,
      "ĠHen": 6917,
      "ĠBáº¯t": 6918,
      "ĠTráº¡ch": 6919,
      "ĠMáº¹": 6920,
      "Ġá»©c": 6921,
      "ĠDil": 6922,
      "Ġsá»ī": 6923,
      "enomics": 6924,
      "ĠUKV": 6925,
      "ĠXX": 6926,
      "ĠFED": 6927,
      "Ġ125": 6928,
      "ĠDoÃ£n": 6929,
      "ĠDoha": 6930,
      "ise": 6931,
      "ade": 6932,
      "Ġbá»ıng": 6933,
      "ĠáŀļáŀĦáŀħ": 6934,
      "Cham": 6935,
      "Ġ1959": 6936,
      "ĠáŁ¡áŁ©áŁ§áŁ©": 6937,
      "ĠRamadan": 6938,
      "ĠTimor": 6939,
      "ĠÃļt": 6940,
      "ĠCollege": 6941,
      "ational": 6942,
      "ĠYouT": 6943,
      "ĠTMCP": 6944,
      "muz": 6945,
      "ĠHormuz": 6946,
      "ĠLotte": 6947,
      "ĠAthens": 6948,
      "ĠUKVFTA": 6949,
      "MC": 6950,
      "Tok": 6951,
      "ct": 6952,
      "áŀĶáŀĢáŀļ": 6953,
      "áŀĶáŀŁáŀĦ": 6954,
      "Ġthe": 6955,
      "ĠmÃ¢y": 6956,
      "áŀİáŀĴáŀĺ": 6957,
      "ĠngÃ²i": 6958,
      "ĠHiá»ĥu": 6959,
      "ĠHtin": 6960,
      "ĠHeng": 6961,
      "ĠPot": 6962,
      "ĠPier": 6963,
      "áŀļáŀŁáŀĸ": 6964,
      "itt": 6965,
      "ĠáŁ©áŁłáŁł": 6966,
      "ĠAlep": 6967,
      "ury": 6968,
      "iep": 6969,
      "ĠCarter": 6970,
      "ĠCLB": 6971,
      "ĠCNN": 6972,
      "ĠMohammad": 6973,
      "ĠCETA": 6974,
      "rosoft": 6975,
      "ĠJustin": 6976,
      "ĠÄĲCSVN": 6977,
      "ĠRutte": 6978,
      "Ġáŀ¦áŀŁ": 6979,
      "ĠYouTube": 6980,
      "ĠAleppo": 6981,
      "Gi": 6982,
      "net": 6983,
      "pe": 6984,
      "Ġcar": 6985,
      "ĠÄĳiá»ģn": 6986,
      "ĠÄĳáº¡m": 6987,
      "áŀĦáŀī": 6988,
      "áŀŁáŀŁáŀĺ": 6989,
      "ĠlÃ¹ng": 6990,
      "ĠkWh": 6991,
      "ĠnÃłn": 6992,
      "Ġsen": 6993,
      "Ġgáº¡ch": 6994,
      "ĠdÃ¡n": 6995,
      "áŀİáŀĢáŀĺ": 6996,
      "Ġngá»Ļt": 6997,
      "ĠngÃ¢m": 6998,
      "ĠquÃ£ng": 6999,
      "Ġvá»ī": 7000,
      "Ġhá»Ł": 7001,
      "ĠáŀħáŀĶ": 7002,
      "ĠHao": 7003,
      "Ġrá»±c": 7004,
      "Ġráº¯c": 7005,
      "ĠMus": 7006,
      "ĠLÄĥng": 7007,
      "ĠTháºŃt": 7008,
      "ĠquyÃªn": 7009,
      "ĠKoi": 7010,
      "ĠmuÃ´n": 7011,
      "ĠJes": 7012,
      "ĠÃĤn": 7013,
      "adeh": 7014,
      "ÄĲá»ĳi": 7015,
      "Ġ135": 7016,
      "ĠThuá»Ļt": 7017,
      "ĠChá»ĳng": 7018,
      "eikh": 7019,
      "ĠáŀĬáŀĦáŀķ": 7020,
      "ĠáŁ¡áŁ©áŁ©áŁ£": 7021,
      "ĠáŁ©áŁ¤": 7022,
      "ĠPeters": 7023,
      "Ġ750": 7024,
      "ÌĽÌ£": 7025,
      "nier": 7026,
      "ĠÄĳáº¿m": 7027,
      "KhÃ´ng": 7028,
      "Tá»«": 7029,
      "ĠDilma": 7030,
      "AM": 7031,
      "IM": 7032,
      "RO": 7033,
      "col": 7034,
      "gor": 7035,
      "ment": 7036,
      "ĠbÃ¡t": 7037,
      "ĠTuyen": 7038,
      "ĠNong": 7039,
      "Ġnga": 7040,
      "ĠVá»ĳn": 7041,
      "ĠrÆ°á»¡i": 7042,
      "ĠPi": 7043,
      "ĠPCI": 7044,
      "ĠSao": 7045,
      "ĠXay": 7046,
      "alo": 7047,
      "emy": 7048,
      "ĠRS": 7049,
      "ĠFLC": 7050,
      "ĠJock": 7051,
      "ĠLux": 7052,
      "Ġ128": 7053,
      "ĠNghá»ģ": 7054,
      "ila": 7055,
      "ĠThua": 7056,
      "Ġngoan": 7057,
      "ĠáŁ¡áŁ©áŁ©áŁ¡": 7058,
      "ĠGiá»ĳng": 7059,
      "phu": 7060,
      "ĠvuÃ´ng": 7061,
      "ĠBuá»ķi": 7062,
      "sius": 7063,
      "ĠVIB": 7064,
      "ĠGreen": 7065,
      "ĠMicrosoft": 7066,
      "Há»Ļi": 7067,
      "he": 7068,
      "Ġáº¡t": 7069,
      "Ġcáº¯p": 7070,
      "áŀĦáŀŁáŀĺ": 7071,
      "Ġváº·t": 7072,
      "Ġtriáº¿t": 7073,
      "ĠnhÃłng": 7074,
      "ĠmáºŃn": 7075,
      "áŀĸáŀİ": 7076,
      "áŀĸáŀĹ": 7077,
      "Ġcá»ı": 7078,
      "áŀĬáŀĢáŀĺ": 7079,
      "ĠVÃ²ng": 7080,
      "Ġgiáº·c": 7081,
      "ĠÄĲÃ´n": 7082,
      "ĠBáº£ng": 7083,
      "ĠBas": 7084,
      "ĠxÃ´i": 7085,
      "áŁīáŁħ": 7086,
      "ĠNgÆ°": 7087,
      "Ġá»ĵ": 7088,
      "ĠQR": 7089,
      "ĠPPP": 7090,
      "ĠThÆ°a": 7091,
      "ĠSom": 7092,
      "ĠSá»Ńa": 7093,
      "ĠKing": 7094,
      "ĠChÃºa": 7095,
      "ĠáŀĹáŀĸ": 7096,
      "ĠGÃ³c": 7097,
      "ĠKhamen": 7098,
      "ĠGiÃłu": 7099,
      "ĠRu": 7100,
      "ĠUSS": 7101,
      "ĠWang": 7102,
      "ĠCamb": 7103,
      "áŀĦáŀ¢áŀĽáŀĦ": 7104,
      "ĠDuma": 7105,
      "Ġ1988": 7106,
      "ĠKyoto": 7107,
      "ĠMax": 7108,
      "ĠáŁ¡áŁ©áŁ¤áŁ¦": 7109,
      "âĢĭâĢĭâĢĭâĢĭâĢĭâĢĭâĢĭâĢĭ": 7110,
      "ĠTikTok": 7111,
      "ĠBSR": 7112,
      "ĠJose": 7113,
      "vihan": 7114,
      "ringen": 7115,
      "Ã¼ringen": 7116,
      "ĠáŁ¡áŁ©áŁ©áŁł": 7117,
      "ĠKhamenei": 7118,
      "ĠmÄĥng": 7119,
      "Ġgo": 7120,
      "Ġpin": 7121,
      "Ġpháº¿": 7122,
      "áŀĤáŀļ": 7123,
      "ĠÄĲá»ĳng": 7124,
      "ĠKitco": 7125,
      "ĠDáº£i": 7126,
      "áŀļáŀŁáŀłáŀĢ": 7127,
      "Ġká»ī": 7128,
      "áŀŁáŀĺáŀĹ": 7129,
      "ĠÃģp": 7130,
      "asan": 7131,
      "ECO": 7132,
      "ĠYan": 7133,
      "ĠáŁ¨áŁ©": 7134,
      "Ġ220": 7135,
      "Ġ1972": 7136,
      "cep": 7137,
      "áŀ§áŀĶáŀı": 7138,
      "ĠáŁ©áŁ¦": 7139,
      "Ġ1958": 7140,
      "kozy": 7141,
      "ĠHerman": 7142,
      "ĠLaden": 7143,
      "EM": 7144,
      "PO": 7145,
      "aa": 7146,
      "bes": 7147,
      "ej": 7148,
      "nb": 7149,
      "rom": 7150,
      "ĠÆ¡": 7151,
      "Ġáº¥p": 7152,
      "Ġtivi": 7153,
      "ĠÄĳÃ¢": 7154,
      "ĠbÃ¬": 7155,
      "Ġsan": 7156,
      "Ġmáº¯m": 7157,
      "ĠCanh": 7158,
      "Ġxáº¿": 7159,
      "Ġmá»¡": 7160,
      "ĠLÃłng": 7161,
      "ĠThÃ¼ringen": 7162,
      "áŀĵáŀĢáŀķ": 7163,
      "ĠGáº¯n": 7164,
      "ĠGri": 7165,
      "ĠÄĲá»©ng": 7166,
      "ĠRON": 7167,
      "ĠWo": 7168,
      "Ġngá»¥": 7169,
      "ĠkhÃŃt": 7170,
      "ĠTrue": 7171,
      "ĠTPBank": 7172,
      "ĠáŁ¡áŁ©áŁ£": 7173,
      "ĠáŁ¨áŁ¡": 7174,
      "ĠAlek": 7175,
      "ĠCTCP": 7176,
      "ĠForbes": 7177,
      "ĠRousseff": 7178,
      "din": 7179,
      "min": 7180,
      "za": 7181,
      "zhi": 7182,
      "Ġ00": 7183,
      "Ġthiá»ģu": 7184,
      "Ġháº¥n": 7185,
      "ĠmÃ¢m": 7186,
      "ĠduyÃªn": 7187,
      "ĠNeh": 7188,
      "ĠCau": 7189,
      "áŀĹáŀķ": 7190,
      "ĠHuyen": 7191,
      "ĠBÃłn": 7192,
      "ĠBro": 7193,
      "ĠBos": 7194,
      "áŀģáŀŁ": 7195,
      "ĠThinh": 7196,
      "ĠXo": 7197,
      "ĠXem": 7198,
      "etta": 7199,
      "org": 7200,
      "ĠáŁ¢áŁ¡áŁ": 7201,
      "ĠHaiti": 7202,
      "ice": 7203,
      "ĠáŁ¨áŁ¤": 7204,
      "oly": 7205,
      "Ġ189": 7206,
      "ĠISI": 7207,
      "ĠáŁ¡áŁ¨áŁł": 7208,
      "ĠDizhi": 7209,
      "ĠPhá»¥c": 7210,
      "ĠAngel": 7211,
      "áŀĸáŀħáŀĺ": 7212,
      "khÃ´ng": 7213,
      "ault": 7214,
      "ĠAgri": 7215,
      "ĠJones": 7216,
      "ĠOliv": 7217,
      "ĠAhmadinejad": 7218,
      "ĠPhomvihan": 7219,
      "ĠPierre": 7220,
      "ĠNehru": 7221,
      "cel": 7222,
      "der": 7223,
      "ning": 7224,
      "ue": 7225,
      "Ġáº¿": 7226,
      "áŀıáŀ¢": 7227,
      "Ġli": 7228,
      "ĠlÃ´ng": 7229,
      "Ġhiá»ĥn": 7230,
      "Ġbáº¿n": 7231,
      "ĠTáº§n": 7232,
      "ĠdÃ¢": 7233,
      "ĠNur": 7234,
      "ĠngÃłi": 7235,
      "áŀľáŀ²": 7236,
      "Ġcá»įc": 7237,
      "áŀīáŀĸ": 7238,
      "chang": 7239,
      "Ġmá»ķ": 7240,
      "ĠNgu": 7241,
      "ĠNgÃ´i": 7242,
      "ĠMÃ¡y": 7243,
      "Ġlá»Ł": 7244,
      "ĠnghiÃª": 7245,
      "ĠStan": 7246,
      "ĠPha": 7247,
      "Ġnghá»ĭch": 7248,
      "áŀĵáŀĢáŀŁáŀĺ": 7249,
      "ĠICB": 7250,
      "ĠFo": 7251,
      "Ġvá»ĭt": 7252,
      "ĠáŁ¥áŁ©": 7253,
      "ĠTuyáº¿t": 7254,
      "mpuy": 7255,
      "ĠCua": 7256,
      "ĠDoji": 7257,
      "ĠSaba": 7258,
      "ĠáŁ¦áŁ©": 7259,
      "terdam": 7260,
      "rey": 7261,
      "ĠStreet": 7262,
      "ĠRompuy": 7263,
      "ĠRecep": 7264,
      "ĠCapital": 7265,
      "ĠScotland": 7266,
      "Ġkáº¹t": 7267,
      "ĠHRW": 7268,
      "Ġvá»īa": 7269,
      "ĠICBM": 7270,
      "GT": 7271,
      "QG": 7272,
      "eim": 7273,
      "ku": 7274,
      "ĠhÃł": 7275,
      "ĠcháºŃt": 7276,
      "Ġcá»Ĺ": 7277,
      "ance": 7278,
      "ĠBy": 7279,
      "ĠBiá»ĥu": 7280,
      "ĠMáºŃu": 7281,
      "ĠSE": 7282,
      "ĠGÃ³i": 7283,
      "erica": 7284,
      "ĠGiÃ¡p": 7285,
      "ĠáŁ¨áŁ§": 7286,
      "rip": 7287,
      "ĠáŁ¡áŁ©áŁ©áŁ§": 7288,
      "ĠPhá»ĳ": 7289,
      "ĠbÃ©n": 7290,
      "ĠMarketing": 7291,
      "ĠáŁ¡áŁ©áŁ¥áŁł": 7292,
      "ĠComex": 7293,
      "ĠValentina": 7294,
      "ĠRSF": 7295,
      "no": 7296,
      "ych": 7297,
      "ĠÄĳáº§m": 7298,
      "nhap": 7299,
      "Ġtháº¡o": 7300,
      "ĠthÃ¡m": 7301,
      "Ġgas": 7302,
      "ĠNu": 7303,
      "ĠNiel": 7304,
      "Ġkha": 7305,
      "ĠBá»ĳ": 7306,
      "Ġráº§m": 7307,
      "ĠTrÃło": 7308,
      "ĠLá»Ļ": 7309,
      "ĠLáº§u": 7310,
      "ĠThÃ¡nh": 7311,
      "ĠPhat": 7312,
      "ĠâĢĻ": 7313,
      "ĠNhiá»ĩt": 7314,
      "áŀĵáŀĢáŀ¢": 7315,
      "aus": 7316,
      "iah": 7317,
      "ero": 7318,
      "Ġchuá»ĵng": 7319,
      "Ġsoi": 7320,
      "ĠFord": 7321,
      "áº»o": 7322,
      "ĠJI": 7323,
      "ata": 7324,
      "ĠáŁ§áŁ¦": 7325,
      "ĠáŁłáŁ£": 7326,
      "ĠQuynh": 7327,
      "ĠFranz": 7328,
      "ĠSchw": 7329,
      "ĠMatt": 7330,
      "rison": 7331,
      "ĠYonhap": 7332,
      "ĠEsper": 7333,
      "ĠLenin": 7334,
      "ĠKCNA": 7335,
      "ĠForex": 7336,
      "ĠAgribank": 7337,
      "Do": 7338,
      "IV": 7339,
      "PC": 7340,
      "kov": 7341,
      "ĠchÃ©p": 7342,
      "ĠgÃ¡c": 7343,
      "ĠCorona": 7344,
      "ĠHal": 7345,
      "ĠÄĲo": 7346,
      "ĠBBC": 7347,
      "Ġráº¡ng": 7348,
      "ĠMW": 7349,
      "ĠThach": 7350,
      "ĠhoÃłnh": 7351,
      "áŀļáŀĢáŀı": 7352,
      "eri": 7353,
      "ĠRen": 7354,
      "ĠáŁ§áŁ¨": 7355,
      "ĠáŁ¨áŁ£": 7356,
      "ĠáŁłáŁ¢": 7357,
      "Ġ141": 7358,
      "ĠIstan": 7359,
      "áŀ§áŀĢ": 7360,
      "áŁ¡áŁ¡": 7361,
      "stantin": 7362,
      "ĠTMÄĲT": 7363,
      "Ġshop": 7364,
      "ollah": 7365,
      "ĠLaur": 7366,
      "ĠKremlin": 7367,
      "35": 7368,
      "gin": 7369,
      "har": 7370,
      "limex": 7371,
      "tra": 7372,
      "uard": 7373,
      "yen": 7374,
      "§ois": 7375,
      "Ã§ois": 7376,
      "á»ĥn": 7377,
      "ĠcÆ°á»Ľi": 7378,
      "áŀĢáŀģ": 7379,
      "áŀĶáŀĤ": 7380,
      "Ġtriá»ģu": 7381,
      "ĠlÃ©o": 7382,
      "Ġkem": 7383,
      "Ġthai": 7384,
      "Ġnáº§n": 7385,
      "ĠhÃŃch": 7386,
      "áŀĸáŀļáŀŁ": 7387,
      "Ġáŀ¢áŀľáŀı": 7388,
      "Ġáŀļáŀĵ": 7389,
      "ĠVáº«n": 7390,
      "ĠCB": 7391,
      "ĠCG": 7392,
      "ĠÄĲáº¯c": 7393,
      "ĠAqu": 7394,
      "ĠLG": 7395,
      "ĠLáº¥y": 7396,
      "ĠSV": 7397,
      "ĠSin": 7398,
      "ĠSáº½": 7399,
      "ĠGar": 7400,
      "ĠEE": 7401,
      "Ġ2023": 7402,
      "Ġchuá»Ļt": 7403,
      "ĠFul": 7404,
      "ĠFakh": 7405,
      "ĠFatt": 7406,
      "ĠJuan": 7407,
      "ĠTá»©": 7408,
      "omi": 7409,
      "ÄĲiá»ģu": 7410,
      "ĠáŁłáŁ¡": 7411,
      "ĠToáº£n": 7412,
      "ĠMall": 7413,
      "ĠDiep": 7414,
      "ĠVinac": 7415,
      "ĠGiá»¯": 7416,
      "ĠFranÃ§ois": 7417,
      "ĠbÃ©o": 7418,
      "áŀļáŀļáŀĢáŀĥ": 7419,
      "ĠLiem": 7420,
      "PhÃ¡t": 7421,
      "ĠPetrolimex": 7422,
      "ĠNoz": 7423,
      "ĠTurnb": 7424,
      "rizadeh": 7425,
      "ĠZarif": 7426,
      "ĠMunich": 7427,
      "ĠBermudes": 7428,
      "ĠOlivier": 7429,
      "ĠFakhrizadeh": 7430,
      "ĠFattah": 7431,
      "ĠTurnbull": 7432,
      "AA": 7433,
      "AB": 7434,
      "GC": 7435,
      "maly": 7436,
      "sin": 7437,
      "Ġvon": 7438,
      "áŀŁáŀł": 7439,
      "ĠáŀĶáŀľ": 7440,
      "Ġtháº¥m": 7441,
      "ami": 7442,
      "ĠHiep": 7443,
      "ĠHIV": 7444,
      "ĠMetro": 7445,
      "ĠáŀŁáŀĺáŀł": 7446,
      "ĠThÃ¹y": 7447,
      "ĠRiv": 7448,
      "Ġ101": 7449,
      "ĠTrude": 7450,
      "ĠáŀĶáŀĳáŀ§áŀĢ": 7451,
      "ĠYam": 7452,
      "ĠDow": 7453,
      "ado": 7454,
      "ĠáŁłáŁ¨": 7455,
      "ĠSheikh": 7456,
      "eway": 7457,
      "ĠAbenomics": 7458,
      "ĠNAM": 7459,
      "ive": 7460,
      "ivong": 7461,
      "ĠSant": 7462,
      "udent": 7463,
      "ĠSarkozy": 7464,
      "ĠAyr": 7465,
      "adanang": 7466,
      "ĠLogistics": 7467,
      "ĠNielsen": 7468,
      "ĠTrudeau": 7469,
      "RT": 7470,
      "gy": 7471,
      "zh": 7472,
      "Ġtáº¡": 7473,
      "ĠtÃª": 7474,
      "ĠTiá»ģm": 7475,
      "ĠTÃ¹y": 7476,
      "ĠmÃ¹ng": 7477,
      "ĠchÃ¡n": 7478,
      "ĠNáº¡n": 7479,
      "ĠvÃłn": 7480,
      "Ġcá»ĵng": 7481,
      "Ġthá»į": 7482,
      "ĠgiÃ²": 7483,
      "ĠCos": 7484,
      "Æ°á»Ľt": 7485,
      "ĠÄĲB": 7486,
      "ĠTháº¥y": 7487,
      "Ġ204": 7488,
      "áŁĬáŁģ": 7489,
      "ĠSung": 7490,
      "ĠKl": 7491,
      "ĠChiáº¿c": 7492,
      "âĢĵ": 7493,
      "ĠDiá»ĩu": 7494,
      "ĠNhÃ¬": 7495,
      "ende": 7496,
      "ali": 7497,
      "ĠRay": 7498,
      "Ġcá»Ļm": 7499,
      "ĠÄĳoÃ¡i": 7500,
      "asino": 7501,
      "Ġngá»įc": 7502,
      "itel": 7503,
      "Ġtoáº¡": 7504,
      "ĠsuÃ´n": 7505,
      "Ġsuadanang": 7506,
      "ĠIntern": 7507,
      "ĠMoh": 7508,
      "rie": 7509,
      "áŀıáŀļáŀĢáŀĺ": 7510,
      "Ġnhiá»ħu": 7511,
      "ĠáŁ©áŁ¢": 7512,
      "ĠAms": 7513,
      "ĠManuel": 7514,
      "ĠCNBC": 7515,
      "ĠKonstantin": 7516,
      "ĠHá»Ĺn": 7517,
      "ĠTony": 7518,
      "ĠFatah": 7519,
      "ĠSabah": 7520,
      "ĠJICA": 7521,
      "PK": 7522,
      "TU": 7523,
      "XPO": 7524,
      "dar": 7525,
      "hy": 7526,
      "Ġj": 7527,
      "Ġim": 7528,
      "áŀĢáŀĪáŀļ": 7529,
      "Ġvov": 7530,
      "áŀĶáŀ¢": 7531,
      "Ġkáº½": 7532,
      "antan": 7533,
      "amo": 7534,
      "áŁħáŁĸ": 7535,
      "ĠxÃ´": 7536,
      "ĠxÃŃt": 7537,
      "Ġmá»ī": 7538,
      "Ġgiá»įt": 7539,
      "ĠKPL": 7540,
      "ĠGy": 7541,
      "ĠáŀŁáŀĦáŀģ": 7542,
      "áŀĸáŀĽáŀĢáŀļ": 7543,
      "Ġáŀ¯áŀĢáŀħ": 7544,
      "ĠFood": 7545,
      "ĠJaw": 7546,
      "iten": 7547,
      "áŀĥáŀĵ": 7548,
      "Ġchip": 7549,
      "ĠÄĲHQG": 7550,
      "áŀ¯áŀĦ": 7551,
      "eiko": 7552,
      "ĠáŁ¡áŁ©áŁ©áŁ¦": 7553,
      "ĠáŁ¡áŁ©áŁ©áŁ¨": 7554,
      "ĠVina": 7555,
      "ĠStart": 7556,
      "ĠPhá»¥ng": 7557,
      "áŁ¡áŁ§": 7558,
      "Ġ360": 7559,
      "ĠáŁ¡áŁ©áŁ§áŁ§": 7560,
      "ĠáŁ£áŁłáŁłáŁł": 7561,
      "ĠáŀĵáŀĤáŀļ": 7562,
      "ĠYout": 7563,
      "Ġhttps": 7564,
      "ĠGateway": 7565,
      "earch": 7566,
      "ĠSmith": 7567,
      "ĠHAGL": 7568,
      "KH": 7569,
      "áŀĺáŀĺ": 7570,
      "Ġky": 7571,
      "ĠbÃłng": 7572,
      "Ġbáº«y": 7573,
      "ĠbÃºn": 7574,
      "ĠTO": 7575,
      "Ġchanh": 7576,
      "Ġchim": 7577,
      "ĠdÃŃnh": 7578,
      "Ġpháº«u": 7579,
      "ĠáŀĺáŀĤ": 7580,
      "ant": 7581,
      "áŀīáŀĦ": 7582,
      "ĠBáº£y": 7583,
      "ĠBak": 7584,
      "Ġxi": 7585,
      "Ġxinh": 7586,
      "Ġres": 7587,
      "ĠNgÃ´n": 7588,
      "ĠPN": 7589,
      "ĠPac": 7590,
      "ĠLiá»ĩu": 7591,
      "ĠLas": 7592,
      "ĠTháº§n": 7593,
      "ĠSk": 7594,
      "áŀļáŀĶáŀŁ": 7595,
      "áŀļáŀŁáŀĶ": 7596,
      "enos": 7597,
      "Ġná»¥": 7598,
      "ĠEly": 7599,
      "ĠKhÃŃ": 7600,
      "ĠKhac": 7601,
      "áŀŁáŀĺáŀĢ": 7602,
      "Ġ103": 7603,
      "ĠFre": 7604,
      "ovich": 7605,
      "Ġáŀ¥áŀĵ": 7606,
      "ĠYPG": 7607,
      "ĠLand": 7608,
      "olog": 7609,
      "ĠBagh": 7610,
      "ĠSha": 7611,
      "ÌĤÌī": 7612,
      "ĠStar": 7613,
      "ĠMaurit": 7614,
      "Ġ1966": 7615,
      "ĠMorrison": 7616,
      "ĠGeneve": 7617,
      "ĠSchool": 7618,
      "ĠSisi": 7619,
      "ĠNguyet": 7620,
      "Ġhá»ķng": 7621,
      "gansk": 7622,
      "ĠJessen": 7623,
      "HR": 7624,
      "fest": 7625,
      "ĠáŀĶáŀļáŀĺ": 7626,
      "Ġnáº¡t": 7627,
      "ĠhÃ¢m": 7628,
      "ĠsÆ°á»Ŀn": 7629,
      "áŀħáŀł": 7630,
      "ĠTC": 7631,
      "ĠTÃ¡i": 7632,
      "ĠTuyá»ĥn": 7633,
      "ĠáŀĳáŀĽ": 7634,
      "ĠVis": 7635,
      "Ġáŀĸáŀļ": 7636,
      "ĠMH": 7637,
      "ĠAF": 7638,
      "áŀļáŀĢáŀĢ": 7639,
      "áŀļáŀħáŀĺ": 7640,
      "Ġyáº¿n": 7641,
      "ĠRinh": 7642,
      "elle": 7643,
      "ĠDonal": 7644,
      "aka": 7645,
      "Ġ188": 7646,
      "ĠBarnier": 7647,
      "Ġ1960": 7648,
      "Ġ1968": 7649,
      "ĠáŁ£áŁ¥áŁł": 7650,
      "Theo": 7651,
      "ĠáŁ¡áŁ©áŁ¦áŁ§": 7652,
      "rink": 7653,
      "ĠEbola": 7654,
      "IA": 7655,
      "MA": 7656,
      "cu": 7657,
      "ĠÃ¹n": 7658,
      "ĠtÆ¡": 7659,
      "ĠcÃ¢": 7660,
      "ĠvÄ©nh": 7661,
      "ĠlÃª": 7662,
      "ĠlÆ¡": 7663,
      "ĠÄĳá»ĳng": 7664,
      "ĠTai": 7665,
      "ĠTao": 7666,
      "ĠTen": 7667,
      "Ġdá»ĳi": 7668,
      "ĠVO": 7669,
      "ĠVang": 7670,
      "ĠCAE": 7671,
      "ĠÄĲiá»ģn": 7672,
      "ĠrÄĥn": 7673,
      "Ġtrá»į": 7674,
      "ĠMÆ°á»Ŀng": 7675,
      "ĠAung": 7676,
      "ĠPay": 7677,
      "ĠTháº¡nh": 7678,
      "Ġquyá»ĥn": 7679,
      "ĠKiá»ĩt": 7680,
      "ĠChÃŃn": 7681,
      "Ġdá»Ł": 7682,
      "ĠGh": 7683,
      "ĠáŀŁáŀłáŀŁ": 7684,
      "ĠXÃºc": 7685,
      "aro": 7686,
      "arta": 7687,
      "ĠWPK": 7688,
      "ĠLugansk": 7689,
      "ĠOr": 7690,
      "ĠOsius": 7691,
      "ĠTrá»£": 7692,
      "ĠNhá»¹": 7693,
      "Ġemail": 7694,
      "ĠAna": 7695,
      "ĠTTC": 7696,
      "ĠToy": 7697,
      "ĠáŁ¡áŁ¡áŁł": 7698,
      "tein": 7699,
      "ĠNghiÃªm": 7700,
      "ĠStein": 7701,
      "ĠSayasone": 7702,
      "ĠMelia": 7703,
      "ĠáŁ¢áŁłáŁ¤áŁ¥": 7704,
      "ĠFulbright": 7705,
      "ĠNozomi": 7706,
      "ĠYoutube": 7707,
      "Bá»Ļ": 7708,
      "me": 7709,
      "vel": 7710,
      "wat": 7711,
      "ĠtÃŃm": 7712,
      "áŀŁáŀĢáŀĺ": 7713,
      "Ġbo": 7714,
      "Ġshi": 7715,
      "ĠTÃªn": 7716,
      "ĠTor": 7717,
      "ĠTun": 7718,
      "ĠmÅ©": 7719,
      "ĠNáº±m": 7720,
      "ĠNas": 7721,
      "ĠNav": 7722,
      "ĠNig": 7723,
      "Ġáŀļáŀĸ": 7724,
      "ĠáŀĺáŀļáŀıáŀĢ": 7725,
      "anc": 7726,
      "ĠBay": 7727,
      "ĠrÃ£": 7728,
      "ĠMÃ£": 7729,
      "ĠAt": 7730,
      "ĠPVN": 7731,
      "ĠPost": 7732,
      "ĠGÃ¬n": 7733,
      "ĠáŀŁáŀłáŀŁáŀľáŀı": 7734,
      "ĠUber": 7735,
      "ĠFlor": 7736,
      "its": 7737,
      "ĠOp": 7738,
      "ĠOx": 7739,
      "Ġ115": 7740,
      "aki": 7741,
      "Ġ1971": 7742,
      "ĠáŁ©áŁ£": 7743,
      "ĠAires": 7744,
      "ĠTechfest": 7745,
      "ĠBuenos": 7746,
      "ĠMohammed": 7747,
      "ĠCambridge": 7748,
      "udential": 7749,
      "Ho": 7750,
      "bul": 7751,
      "brink": 7752,
      "cm": 7753,
      "dad": 7754,
      "mas": 7755,
      "pot": 7756,
      "tá»±": 7757,
      "Ġam": 7758,
      "ĠÄĳÄ©a": 7759,
      "áŀĺáŀļáŀĺáŀĵ": 7760,
      "Ġlá»Ļi": 7761,
      "áŀĻáŀĺáŀĵ": 7762,
      "áŁģáŁĴ": 7763,
      "ĠhiÃª": 7764,
      "Ġsáº¡t": 7765,
      "ĠsÆ¡n": 7766,
      "ĠmÃ¡c": 7767,
      "Ġcháº£": 7768,
      "Ġcháº©n": 7769,
      "Ġngáº¯m": 7770,
      "Ġqui": 7771,
      "ĠphÃ´": 7772,
      "Ġthá»ĩ": 7773,
      "ĠVND": 7774,
      "ĠVOA": 7775,
      "ĠÄĲáº·t": 7776,
      "ĠBÃ´": 7777,
      "ĠBá»Ń": 7778,
      "ĠBÃ£i": 7779,
      "ĠTrá»±c": 7780,
      "ĠLaz": 7781,
      "ĠKit": 7782,
      "ĠKTN": 7783,
      "ĠChÄĥn": 7784,
      "Ġsá»§a": 7785,
      "ĠâĢĭ": 7786,
      "ink": 7787,
      "Ġbá»Ĺng": 7788,
      "ĠEle": 7789,
      "ĠHotel": 7790,
      "áŀŁáŀĺáŀķáŀĽ": 7791,
      "ĠFA": 7792,
      "áŀħáŀŁáŀłáŀĢ": 7793,
      "Ġáŀ¥áŀľ": 7794,
      "ĠÃĤm": 7795,
      "Ġáŀĺáŀłáŀĵ": 7796,
      "omo": 7797,
      "omes": 7798,
      "áŁ¢áŁ¥": 7799,
      "ouch": 7800,
      "áŁ¦áŁł": 7801,
      "ĠShan": 7802,
      "ures": 7803,
      "iki": 7804,
      "ĠMans": 7805,
      "uki": 7806,
      "ĠWales": 7807,
      "NgÃły": 7808,
      "NgÆ°á»Ŀi": 7809,
      "NhÃł": 7810,
      "ĠLorelle": 7811,
      "ĠXayach": 7812,
      "ĠIstanbul": 7813,
      "ĠInternational": 7814,
      "ĠBá»Ńu": 7815,
      "ĠKTNN": 7816,
      "77": 7817,
      "ABank": 7818,
      "LA": 7819,
      "SI": 7820,
      "WC": 7821,
      "jee": 7822,
      "las": 7823,
      "pi": 7824,
      "prom": 7825,
      "ril": 7826,
      "Ġung": 7827,
      "Ľn": 7828,
      "ĠtÃ¡t": 7829,
      "Ġcáº¥y": 7830,
      "Ġtháº¡ch": 7831,
      "áŀĸáŀĴáŀĵ": 7832,
      "ĠngÆ¡i": 7833,
      "áŀľáŀħáŀĵ": 7834,
      "ĠBlog": 7835,
      "ĠQU": 7836,
      "ĠPul": 7837,
      "ĠQuáº§n": 7838,
      "ĠáŀĹáŀİ": 7839,
      "ĠGr": 7840,
      "ĠÄĲá»Ŀi": 7841,
      "ĠÄĲá»įc": 7842,
      "eld": 7843,
      "esby": 7844,
      "ase": 7845,
      "hito": 7846,
      "ĠWFP": 7847,
      "Ġcá»ĳc": 7848,
      "ĠOCO": 7849,
      "Ġ118": 7850,
      "Ġsum": 7851,
      "ĠTPA": 7852,
      "ĠVien": 7853,
      "ĠTTIP": 7854,
      "ĠKhoan": 7855,
      "irm": 7856,
      "ĠMeh": 7857,
      "Ġ175": 7858,
      "evi": 7859,
      "hanou": 7860,
      "ĠMarie": 7861,
      "ĠVNPT": 7862,
      "ĠGiá»Ĺ": 7863,
      "iness": 7864,
      "áŁ¡áŁ¤": 7865,
      "ĠMukh": 7866,
      "ĠManila": 7867,
      "engen": 7868,
      "ĠPrudential": 7869,
      "ĠSAT": 7870,
      "ĠSanta": 7871,
      "ĠSchengen": 7872,
      "ĠShiite": 7873,
      "arketing": 7874,
      "ĠIvanov": 7875,
      "tenberg": 7876,
      "ĠJakarta": 7877,
      "ĠCAEXPO": 7878,
      "ĠOCOP": 7879,
      "ĠIvanovna": 7880,
      "Káº¿t": 7881,
      "SC": 7882,
      "len": 7883,
      "mand": 7884,
      "sula": 7885,
      "viet": 7886,
      "¥i": 7887,
      "ĠÃ¡ch": 7888,
      "Ġáº£m": 7889,
      "Ġáŀ³": 7890,
      "Ġtáº§n": 7891,
      "áŀļáŀļáŀĦ": 7892,
      "áŀļáŀ§áŀĶáŀı": 7893,
      "ĠtrÆ°Æ¡": 7894,
      "ĠtrÄĥn": 7895,
      "Ġáŀĵáŀļ": 7896,
      "ĠthÆ°a": 7897,
      "Ġsim": 7898,
      "ĠTuyáº¿n": 7899,
      "Ġmen": 7900,
      "Ġder": 7901,
      "ĠVog": 7902,
      "ĠCáºŃu": 7903,
      "áŀīáŀĳ": 7904,
      "ĠBich": 7905,
      "ĠBrand": 7906,
      "Ġchá»¯ng": 7907,
      "Ġgiá»įng": 7908,
      "ĠGÃ²": 7909,
      "ĠGol": 7910,
      "Ġphá»Ł": 7911,
      "ĠIR": 7912,
      "ĠEv": 7913,
      "eria": 7914,
      "áŀĪáŀĹ": 7915,
      "ĠchuÃ´ng": 7916,
      "ĠAPF": 7917,
      "ĠáŁ¡áŁ©áŁ£áŁł": 7918,
      "Ġrá»ĵng": 7919,
      "ĠVik": 7920,
      "ouri": 7921,
      "ĠLeyen": 7922,
      "ĠMega": 7923,
      "ĠFTAAP": 7924,
      "ĠLag": 7925,
      "ĠáŁ©áŁ¡": 7926,
      "ĠáŁ¡áŁ©áŁ¨áŁł": 7927,
      "ĠAirb": 7928,
      "ĠSamrin": 7929,
      "ĠMoresby": 7930,
      "ĠTrieu": 7931,
      "ĠMohamad": 7932,
      "ĠOlympia": 7933,
      "ĠUrsula": 7934,
      "ĠMauritius": 7935,
      "EAN": 7936,
      "Group": 7937,
      "US": 7938,
      "fa": 7939,
      "hai": 7940,
      "lv": 7941,
      "ms": 7942,
      "vien": 7943,
      "we": 7944,
      "ĠÄĳÃłnh": 7945,
      "áŀĦáŀļáŀł": 7946,
      "áŀŁáŀĢáŀļ": 7947,
      "ĠtrÃ¡ng": 7948,
      "Ġse": 7949,
      "ĠTang": 7950,
      "ĠdÃ¢m": 7951,
      "ĠNÆ¡i": 7952,
      "Ġáŀ¢áŀĸ": 7953,
      "ĠáŀľáŀĬ": 7954,
      "ĠBC": 7955,
      "ĠBTC": 7956,
      "ĠrÃ©t": 7957,
      "ĠáŀĲáŀĦ": 7958,
      "Æ°Æ¡m": 7959,
      "ĠTháº¡c": 7960,
      "ĠSiÃªu": 7961,
      "ĠSCB": 7962,
      "ĠDÃ²ng": 7963,
      "ĠDac": 7964,
      "Ġhot": 7965,
      "onald": 7966,
      "Ġbá»¥i": 7967,
      "ĠGTV": 7968,
      "áŀļáŀĺáŀĢ": 7969,
      "áŀĻáŀĵáŀĹ": 7970,
      "ĠáŁ§áŁ¡": 7971,
      "ĠIPO": 7972,
      "ĠVNPA": 7973,
      "Ġáŀīáŀı": 7974,
      "ĠFranco": 7975,
      "ĠSoej": 7976,
      "ĠTimo": 7977,
      "ĠKriten": 7978,
      "ĠKarzai": 7979,
      "beco": 7980,
      "ansha": 7981,
      "Ġcarbon": 7982,
      "ĠAmsterdam": 7983,
      "ĠGTVT": 7984,
      "ĠVNPAY": 7985,
      "ĠSoejima": 7986,
      "ĠKritenbrink": 7987,
      "CR": 7988,
      "Hai": 7989,
      "TF": 7990,
      "eon": 7991,
      "jib": 7992,
      "Ġtáº¯m": 7993,
      "Ġcp": 7994,
      "Ġcasino": 7995,
      "ĠvÃ£n": 7996,
      "áŀĻáŀĽáŀĢ": 7997,
      "Ġtháº¯m": 7998,
      "Ġháº¡ch": 7999,
      "Ġháº¥u": 8000,
      "ĠTi": 8001,
      "Ġmarketing": 8002,
      "Ġngá»±a": 8003,
      "áŀĩáŀĳ": 8004,
      "á»Ļp": 8005,
      "ĠgiáºŃt": 8006,
      "ĠCÃ©": 8007,
      "áŀĤáŀĢáŀĺ": 8008,
      "ĠáŀĽáŀı": 8009,
      "ĠÄĲiá»ĩp": 8010,
      "Ġmá»ıng": 8011,
      "ĠQD": 8012,
      "ĠPin": 8013,
      "ĠSw": 8014,
      "ĠDá»ĩ": 8015,
      "Ġhoi": 8016,
      "ĠGNA": 8017,
      "Ġluá»¹": 8018,
      "ĠThá»Ń": 8019,
      "erjee": 8020,
      "Ġtá»ĳng": 8021,
      "ora": 8022,
      "ĠFBI": 8023,
      "ĠFitch": 8024,
      "acas": 8025,
      "ĠáŁ¦áŁ¡": 8026,
      "ome": 8027,
      "ĠInter": 8028,
      "ĠTula": 8029,
      "Ġ270": 8030,
      "ĠPhilippe": 8031,
      "ĠKyodo": 8032,
      "ĠCaracas": 8033,
      "ĠThayer": 8034,
      "ĠNoel": 8035,
      "Ġurani": 8036,
      "ĠBlack": 8037,
      "santo": 8038,
      "ĠBolivia": 8039,
      "ĠLÃªnin": 8040,
      "ĠEEZ": 8041,
      "ĠVOF": 8042,
      "ĠMukherjee": 8043,
      "Sá»±": 8044,
      "VA": 8045,
      "ctr": 8046,
      "nia": 8047,
      "petro": 8048,
      "ua": 8049,
      "á»Ł": 8050,
      "áŀĵáŀĻ": 8051,
      "ĠÄĳÃ¢m": 8052,
      "Ġki": 8053,
      "ĠNov": 8054,
      "Ġáŀļáŀıáŀĵ": 8055,
      "áŀĬáŀł": 8056,
      "anp": 8057,
      "ĠHÃło": 8058,
      "ĠHil": 8059,
      "ĠHav": 8060,
      "ĠÄĲÃ´i": 8061,
      "ĠAID": 8062,
      "ĠThaco": 8063,
      "ĠSain": 8064,
      "ony": 8065,
      "ĠXuyen": 8066,
      "ĠEther": 8067,
      "áŀļáŀħáŀĦáŀħ": 8068,
      "ĠHop": 8069,
      "eman": 8070,
      "ĠRat": 8071,
      "ĠRyan": 8072,
      "Ġ107": 8073,
      "hir": 8074,
      "ĠAnat": 8075,
      "ĠáŁ¦áŁ¦": 8076,
      "ĠAbu": 8077,
      "ĠáŁ¡áŁ¤áŁł": 8078,
      "ĠTex": 8079,
      "ĠSuga": 8080,
      "ĠáŁ¡áŁ©áŁ©áŁ©": 8081,
      "ĠKiem": 8082,
      "Ġ1962": 8083,
      "ĠUyen": 8084,
      "ĠCru": 8085,
      "ĠMBBank": 8086,
      "ĠHiro": 8087,
      "ĠHonda": 8088,
      "ĠRichard": 8089,
      "ĠSounthone": 8090,
      "ĠKlaus": 8091,
      "ĠElectr": 8092,
      "ĠViktor": 8093,
      "NV": 8094,
      "bour": 8095,
      "hide": 8096,
      "sey": 8097,
      "ĠtÃ²": 8098,
      "áŀĦáŀ¯áŀĢ": 8099,
      "áŀĢáŀĪ": 8100,
      "ĠtrÃ¹": 8101,
      "ĠlÄĥng": 8102,
      "áŀĻáŀĦ": 8103,
      "ĠhÄĥng": 8104,
      "ĠTaw": 8105,
      "Ġchiáº¿t": 8106,
      "Ġgá»ĳi": 8107,
      "ĠNáº¯m": 8108,
      "áŀľáŀĤ": 8109,
      "ĠvÃłnh": 8110,
      "Ġpho": 8111,
      "Ġkhuy": 8112,
      "ĠCÆ°á»Ŀi": 8113,
      "ÃŃaz": 8114,
      "ĠBez": 8115,
      "Ġxao": 8116,
      "Ġrung": 8117,
      "Ġráº£i": 8118,
      "ĠTrÃ¬": 8119,
      "ĠTráº¡m": 8120,
      "ĠAI": 8121,
      "ĠACB": 8122,
      "ĠPre": 8123,
      "ĠLÃ¢n": 8124,
      "ĠLou": 8125,
      "ĠTháºŃp": 8126,
      "ĠTháº©m": 8127,
      "áŁĬáŀ¶áŁĨ": 8128,
      "ĠPháº¥n": 8129,
      "ĠDÃŃaz": 8130,
      "onie": 8131,
      "áŀĵáŀĢáŀĶáŀĦ": 8132,
      "ĠGhani": 8133,
      "Ġ3000": 8134,
      "0000": 8135,
      "arm": 8136,
      "ĠRá»ĵi": 8137,
      "Ġ106": 8138,
      "esong": 8139,
      "ĠJac": 8140,
      "ĠLump": 8141,
      "ĠYi": 8142,
      "rak": 8143,
      "ĠThá»ĭt": 8144,
      "ĠSyriz": 8145,
      "Ġrá»Ľt": 8146,
      "even": 8147,
      "Ġuá»ĳn": 8148,
      "ĠAsan": 8149,
      "ĠSuth": 8150,
      "iá»ħu": 8151,
      "ody": 8152,
      "ĠBrende": 8153,
      "áŁ¡áŁ£": 8154,
      "áŁ¡áŁ¥": 8155,
      "ions": 8156,
      "ĠCSIS": 8157,
      "ĠKuala": 8158,
      "ĠKaesong": 8159,
      "ĠPetersburg": 8160,
      "gory": 8161,
      "ĠAyrault": 8162,
      "ĠMohsen": 8163,
      "ĠSyriza": 8164,
      "ĠSuthep": 8165,
      "01": 8166,
      "bu": 8167,
      "dung": 8168,
      "fur": 8169,
      "ny": 8170,
      "sal": 8171,
      "tic": 8172,
      "ven": 8173,
      "Ġao": 8174,
      "Ġorg": 8175,
      "ĠÄĳáº¯ng": 8176,
      "áŁĭáŀ¶": 8177,
      "Ġnoi": 8178,
      "ĠsÃ©t": 8179,
      "Ġáŀļáŀĳ": 8180,
      "ĠáŀļáŀĢáŀŁ": 8181,
      "ĠCang": 8182,
      "áŀīáŀľáŀĵ": 8183,
      "ĠHC": 8184,
      "ĠPLC": 8185,
      "ĠSul": 8186,
      "ĠSDGs": 8187,
      "ĠChao": 8188,
      "inc": 8189,
      "áŀĮáŀĽáŀĢ": 8190,
      "ĠGCC": 8191,
      "áŀļáŀıáŀľ": 8192,
      "erini": 8193,
      "ĠKhan": 8194,
      "ĠFab": 8195,
      "ĠFern": 8196,
      "ĠJens": 8197,
      "ĠYang": 8198,
      "ĠOTP": 8199,
      "Ġ116": 8200,
      "ĠMogh": 8201,
      "ÄĲáº¡i": 8202,
      "oltenberg": 8203,
      "ĠÄĳá»ĵi": 8204,
      "eiku": 8205,
      "ĠVinhomes": 8206,
      "Chiáº¿n": 8207,
      "Chat": 8208,
      "ĠUBTV": 8209,
      "ĠáŀĬáŀĢáŀł": 8210,
      "ĠStoltenberg": 8211,
      "ĠMahat": 8212,
      "ĠKraska": 8213,
      "ĠPleiku": 8214,
      "ĠJorge": 8215,
      "ĠSTEM": 8216,
      "ĠSoleim": 8217,
      "ĠJavad": 8218,
      "ĠIFAD": 8219,
      "ĠWeChat": 8220,
      "antanamo": 8221,
      "Ġresort": 8222,
      "ĠToyota": 8223,
      "ĠMogherini": 8224,
      "24": 8225,
      "bi": 8226,
      "kins": 8227,
      "á»ŀ": 8228,
      "ĠtÆ°á»Ľi": 8229,
      "Ġtuyáº¿t": 8230,
      "áŀ»áŀº": 8231,
      "ĠnhiÃª": 8232,
      "ĠTÆ°á»Ŀng": 8233,
      "ĠTá»ĳt": 8234,
      "Ġgá»ĳm": 8235,
      "ĠNe": 8236,
      "ĠNÃºi": 8237,
      "ĠngÃ³n": 8238,
      "ĠVH": 8239,
      "Äĥk": 8240,
      "ĠáŀıáŀĦ": 8241,
      "áŀłáŀĺ": 8242,
      "ĠÄĲÃ¡": 8243,
      "ĠxÃ´ng": 8244,
      "ĠMao": 8245,
      "ĠMang": 8246,
      "ĠChuyen": 8247,
      "á»ķng": 8248,
      "Ġbá»ī": 8249,
      "Ġbá»įn": 8250,
      "Ġkhuáº¥t": 8251,
      "ars": 8252,
      "ĠJa": 8253,
      "ĠtuÃ½": 8254,
      "ĠWTI": 8255,
      "ush": 8256,
      "adei": 8257,
      "ĠLá»ĩ": 8258,
      "ĠCá»Ŀ": 8259,
      "tana": 8260,
      "ĠObam": 8261,
      "ĠBá»ı": 8262,
      "osa": 8263,
      "ĠÄĲÃ³n": 8264,
      "ĠHaji": 8265,
      "ĠSuá»ĳt": 8266,
      "ĠáŁ¡áŁ¦áŁł": 8267,
      "ĠáŁ¡áŁ©áŁ¨áŁ¦": 8268,
      "ĠáŁ¡áŁ©áŁ¨áŁ©": 8269,
      "áŀĦáŀ¡áŀĦ": 8270,
      "ĠTNCS": 8271,
      "rick": 8272,
      "ĠYoung": 8273,
      "Thá»±c": 8274,
      "ĠChristine": 8275,
      "ĠSchwab": 8276,
      "ĠBaghdad": 8277,
      "ĠAirbus": 8278,
      "ĠDá»ĩt": 8279,
      "ĠAIDS": 8280,
      "ĠTexas": 8281,
      "ĠLumpur": 8282,
      "ĠAsanzo": 8283,
      "Táº¡i": 8284,
      "ll": 8285,
      "wn": 8286,
      "Ġcovid": 8287,
      "Ġle": 8288,
      "ĠáŀŁáŀĢáŀļ": 8289,
      "Ġbin": 8290,
      "ĠbÃ³c": 8291,
      "ĠchÃ¨o": 8292,
      "áŀĸáŀ¢áŀŁ": 8293,
      "Ġgame": 8294,
      "amal": 8295,
      "Ġáŀĸáŀĸ": 8296,
      "ĠxÃ¡m": 8297,
      "ĠMO": 8298,
      "Ġá»Ķ": 8299,
      "ĠSup": 8300,
      "ĠKor": 8301,
      "ĠCháº¥n": 8302,
      "áŀļáŀŁáŀĴáŀĺ": 8303,
      "eom": 8304,
      "Ġkhoai": 8305,
      "ĠXa": 8306,
      "ĠXe": 8307,
      "Ġ630": 8308,
      "imit": 8309,
      "ĠYas": 8310,
      "Ġtoan": 8311,
      "ĠSabeco": 8312,
      "ĠáŀĦáŀĦ": 8313,
      "ĠLá»ĩnh": 8314,
      "ĠNgá»¥y": 8315,
      "áŁ§áŁł": 8316,
      "Ġphá»ķi": 8317,
      "ĠKhuon": 8318,
      "ĠMaliki": 8319,
      "ASEAN": 8320,
      "ĠMua": 8321,
      "igh": 8322,
      "ĠBorge": 8323,
      "ĠMatvien": 8324,
      "ĠAlexis": 8325,
      "ĠZhang": 8326,
      "ĠRoberts": 8327,
      "ĠHSBC": 8328,
      "ĠMcCain": 8329,
      "ĠPyi": 8330,
      "ĠYoshihide": 8331,
      "ĠTunis": 8332,
      "ĠBezos": 8333,
      "ĠMatvienko": 8334,
      "TÄĥng": 8335,
      "XÃ¢y": 8336,
      "kan": 8337,
      "kva": 8338,
      "mei": 8339,
      "mone": 8340,
      "mond": 8341,
      "qa": 8342,
      "tre": 8343,
      "uco": 8344,
      "±a": 8345,
      "Ġá»ĳm": 8346,
      "ĭn": 8347,
      "ĠvÃ¢": 8348,
      "áŀĶáŀĻ": 8349,
      "áŀĶáŀ¡": 8350,
      "ĠlÃ¡t": 8351,
      "Ġláº©u": 8352,
      "Ġham": 8353,
      "ĠnhÃ´m": 8354,
      "ĠTFP": 8355,
      "ĠmÃłi": 8356,
      "ĠNen": 8357,
      "ĠCM": 8358,
      "Ġáŀľáŀĵ": 8359,
      "ĠHeiko": 8360,
      "ĠÄĲáº±ng": 8361,
      "ĠxÃ¡o": 8362,
      "ĠxÃ´n": 8363,
      "Ġchá»Ľp": 8364,
      "Ġnghiá»ĩn": 8365,
      "ĠQass": 8366,
      "ĠAhn": 8367,
      "áº·m": 8368,
      "ĠChÃ¢n": 8369,
      "ĠChina": 8370,
      "Ġdá»Ĺ": 8371,
      "Ã½t": 8372,
      "ĠNháº¯c": 8373,
      "Ġbá»ĥ": 8374,
      "ĠGÃ³p": 8375,
      "áŀļáŀıáŀĶáŀı": 8376,
      "Ġ320": 8377,
      "ĠUm": 8378,
      "ĠEcon": 8379,
      "ĠKhÃ¡i": 8380,
      "Ġ2026": 8381,
      "áº½n": 8382,
      "Ġá»ķi": 8383,
      "Ġáŀ¥áŀĬ": 8384,
      "ravel": 8385,
      "ĠTrá»ĵng": 8386,
      "áŁ¥áŁł": 8387,
      "ĠáŁ¡áŁ©áŁ¢": 8388,
      "Ġrá»ī": 8389,
      "ĠMoha": 8390,
      "ÄĲáº£ng": 8391,
      "ĠViets": 8392,
      "ĠÄĳuá»ĳi": 8393,
      "Ġ1987": 8394,
      "evin": 8395,
      "Ġ210": 8396,
      "urs": 8397,
      "Ġngoáº¡n": 8398,
      "ĠPuky": 8399,
      "Ġ280": 8400,
      "ĠMalcol": 8401,
      "ĠSumit": 8402,
      "ĠMoskva": 8403,
      "Ġ650": 8404,
      "ĠCNTT": 8405,
      "berger": 8406,
      "ĠSihanou": 8407,
      "ĠBusiness": 8408,
      "ĠNajib": 8409,
      "ĠFederica": 8410,
      "ĠMonsanto": 8411,
      "ĠPenn": 8412,
      "ĠVAT": 8413,
      "ĠPrak": 8414,
      "gue": 8415,
      "ĠKenya": 8416,
      "ĠCharpi": 8417,
      "ĠPhomvihane": 8418,
      "eview": 8419,
      "ĠGolan": 8420,
      "ĠCÃ©line": 8421,
      "ĠSaint": 8422,
      "meier": 8423,
      "ĠQassem": 8424,
      "ĠPukyong": 8425,
      "ĠMalcolm": 8426,
      "ĠSihanouk": 8427,
      "ĠCharpiot": 8428,
      "AR": 8429,
      "Cu": 8430,
      "Vá»ģ": 8431,
      "YC": 8432,
      "cent": 8433,
      "du": 8434,
      "eed": 8435,
      "fer": 8436,
      "kin": 8437,
      "nal": 8438,
      "raya": 8439,
      "yad": 8440,
      "ĠtÃ´ng": 8441,
      "áŀĢáŀıáŀĺ": 8442,
      "áŀĺáŀļ": 8443,
      "Ġlay": 8444,
      "ĠlÅ©ng": 8445,
      "ĠáŀŁáŀľ": 8446,
      "ĠTá»Ń": 8447,
      "áŀĸáŀ¢áŀĵ": 8448,
      "Ġdang": 8449,
      "Ġphiá»ģn": 8450,
      "Ġkhang": 8451,
      "Ġtá»©": 8452,
      "ĠCDC": 8453,
      "áŀĭáŀľ": 8454,
      "ĠQuáº¿": 8455,
      "Ġ2035": 8456,
      "áŀļáŀĩáŀĵ": 8457,
      "ĠKang": 8458,
      "ĠCháº·ng": 8459,
      "ĠDev": 8460,
      "ĠgiÃ¡ng": 8461,
      "arov": 8462,
      "áŀļáŀħáŀĽáŀĵ": 8463,
      "ĠRog": 8464,
      "ĠáŀĶáŀĳáŀĶáŀĦ": 8465,
      "ĠOus": 8466,
      "raham": 8467,
      "ady": 8468,
      "ĠáŁ§áŁ©": 8469,
      "ĠTuong": 8470,
      "áŀļáŀĪáŀĶ": 8471,
      "Ġ185": 8472,
      "áŁ¤áŁł": 8473,
      "irut": 8474,
      "avanh": 8475,
      "ĠParac": 8476,
      "ĠAstana": 8477,
      "arde": 8478,
      "ills": 8479,
      "ĠRobot": 8480,
      "ĠPrat": 8481,
      "ific": 8482,
      "ĠBeirut": 8483,
      "shima": 8484,
      "ĠResort": 8485,
      "ĠABAC": 8486,
      "ĠBolivar": 8487,
      "ĠKwang": 8488,
      "ĠVietGAP": 8489,
      "ĠPacific": 8490,
      "ĠLagarde": 8491,
      "anpage": 8492,
      "ĠAnatoly": 8493,
      "ĠUBTVQH": 8494,
      "10": 8495,
      "AEC": 8496,
      "VL": 8497,
      "bad": 8498,
      "iF": 8499,
      "kiah": 8500,
      "rmone": 8501,
      "ĠcÃło": 8502,
      "ĠÄĳao": 8503,
      "ĠÄĳÃ¹a": 8504,
      "ĠvÃ¡c": 8505,
      "Ġbáº¯p": 8506,
      "Ġnháº·t": 8507,
      "ĠsÃ´": 8508,
      "áŀħáŀĽ": 8509,
      "Ġgáº¡t": 8510,
      "ĠdÃª": 8511,
      "Ġdáº»o": 8512,
      "ĠNCB": 8513,
      "ĠngÃ´": 8514,
      "ĠáŀļáŀĢáŀĺ": 8515,
      "ĠphÆ¡i": 8516,
      "Ġkhao": 8517,
      "Ġthá»ģ": 8518,
      "ĠVill": 8519,
      "anistan": 8520,
      "ĠgiÆ°á»Ŀng": 8521,
      "ĠCáº¥m": 8522,
      "ĠáŀıáŀĶ": 8523,
      "ĠrÄĥng": 8524,
      "ĠMÃ³n": 8525,
      "ĠMass": 8526,
      "ĠMDGs": 8527,
      "ĠLac": 8528,
      "ĠSáº¯c": 8529,
      "ĠKevin": 8530,
      "ĠChÃ¹a": 8531,
      "ĠDuyÃªn": 8532,
      "ĠDen": 8533,
      "Ġhormone": 8534,
      "áŀĵáŀĢáŀĳáŀŁ": 8535,
      "ĠáŀŁáŀĦáŀŁ": 8536,
      "áŀĪáŀĢ": 8537,
      "ĠReview": 8538,
      "ĠJen": 8539,
      "ĠWin": 8540,
      "ĠWid": 8541,
      "atis": 8542,
      "ĠOai": 8543,
      "ĠGDNN": 8544,
      "ĠviÃª": 8545,
      "ĠTuá»ķi": 8546,
      "ĠKhuÃ´n": 8547,
      "ĠJoko": 8548,
      "ĠMarri": 8549,
      "ĠghÃ©": 8550,
      "áŁ¡áŁ¨": 8551,
      "Ġ1961": 8552,
      "ĠEuroCham": 8553,
      "ĠGazprom": 8554,
      "ThÃłnh": 8555,
      "ĠáŁ¡áŁ©áŁ¥áŁ¤": 8556,
      "ĠBolkiah": 8557,
      "ĠnÃ©n": 8558,
      "ĠResearch": 8559,
      "ĠSá»Ńu": 8560,
      "lava": 8561,
      "ĠLaurent": 8562,
      "ĠMetropol": 8563,
      "atislava": 8564,
      "Lu": 8565,
      "MI": 8566,
      "RE": 8567,
      "dney": 8568,
      "tour": 8569,
      "ux": 8570,
      "wanda": 8571,
      "xon": 8572,
      "áŀĢáŀŁáŀĵ": 8573,
      "Ġtrá»Ļm": 8574,
      "Ġlau": 8575,
      "Ġnhan": 8576,
      "ĠnhÆ°á»Ŀng": 8577,
      "ĠNat": 8578,
      "ĠkhÃ¢m": 8579,
      "ĠHwan": 8580,
      "ĠrÃ³t": 8581,
      "chin": 8582,
      "ĠMur": 8583,
      "ĠáŀŁáŀĺáŀĴáŀĺ": 8584,
      "Ġ2050": 8585,
      "ĠSand": 8586,
      "ĠKom": 8587,
      "ĠChh": 8588,
      "ĠDP": 8589,
      "ĠDuyá»ĩt": 8590,
      "iner": 8591,
      "ĠUi": 8592,
      "ario": 8593,
      "ĠHouse": 8594,
      "ĠRTA": 8595,
      "ĠRwanda": 8596,
      "over": 8597,
      "Ġvá»ĭnh": 8598,
      "ĠJap": 8599,
      "ĠJour": 8600,
      "ĠJiang": 8601,
      "ĠWest": 8602,
      "raf": 8603,
      "acare": 8604,
      "ĠSydney": 8605,
      "ĠÄĳÃ´la": 8606,
      "ĠMoc": 8607,
      "ĠVietravel": 8608,
      "Ġ182": 8609,
      "Ġ184": 8610,
      "ĠVincom": 8611,
      "ĠVNR": 8612,
      "ĠBratislava": 8613,
      "Trung": 8614,
      "ĠGuantanamo": 8615,
      "ĠPetrov": 8616,
      "ĠáŁ¢áŁ£áŁł": 8617,
      "ĠKyong": 8618,
      "ĠPrem": 8619,
      "ife": 8620,
      "ĠMaha": 8621,
      "ĠCLMTV": 8622,
      "pper": 8623,
      "ĠNormand": 8624,
      "ĠCapril": 8625,
      "ĠSNC": 8626,
      "ĠPanmun": 8627,
      "Ġshow": 8628,
      "ĠPower": 8629,
      "ĠPNJ": 8630,
      "ĠLasuco": 8631,
      "ĠTTCK": 8632,
      "ĠSteinmeier": 8633,
      "ĠObamacare": 8634,
      "ĠPetrovietnam": 8635,
      "ĠCapriles": 8636,
      "ĠPanmunj": 8637,
      "BF": 8638,
      "Cáº§n": 8639,
      "KP": 8640,
      "TGT": 8641,
      "Viet": 8642,
      "cÆ¡": 8643,
      "dary": 8644,
      "má»Ļt": 8645,
      "thá»": 8646,
      "vin": 8647,
      "áŀĢáŀĸ": 8648,
      "ĠthÃ¢u": 8649,
      "Ġháº§m": 8650,
      "Ġhiáº¿p": 8651,
      "Ġbáº¥m": 8652,
      "ĠnhÆ°á»£c": 8653,
      "Ġsay": 8654,
      "ĠmÃ£nh": 8655,
      "Ġmini": 8656,
      "ĠchÃ´ng": 8657,
      "Ġgá»Ļp": 8658,
      "Ġdáº·m": 8659,
      "áŀİáŀĶ": 8660,
      "ĠquáºŃt": 8661,
      "áŀľáŀĲ": 8662,
      "ĠVCB": 8663,
      "ĠgiÆ¡": 8664,
      "ĠCy": 8665,
      "ĠÄĲáº¿": 8666,
      "ĠBá»ķ": 8667,
      "ĠBat": 8668,
      "ĠBom": 8669,
      "ĠPurs": 8670,
      "ĠLetta": 8671,
      "ĠThiÃªm": 8672,
      "áŁĬáŁĴ": 8673,
      "ĠSim": 8674,
      "ĠSeb": 8675,
      "ĠKel": 8676,
      "ĠKeng": 8677,
      "áº±n": 8678,
      "ĠGun": 8679,
      "ĠGames": 8680,
      "ĠUni": 8681,
      "ĠÄĲá»«ng": 8682,
      "Ġkhá»Ľp": 8683,
      "ĠKhÃª": 8684,
      "ĠÄĳiÃª": 8685,
      "ĠRÃł": 8686,
      "ĠRub": 8687,
      "Ġ108": 8688,
      "áŀĢáŀĬáŀĶ": 8689,
      "Ġnhuáº§n": 8690,
      "Ġnhuá»Ļm": 8691,
      "ĠHugo": 8692,
      "áŁ¤áŁ¥": 8693,
      "ĠNgá»į": 8694,
      "ĠSudary": 8695,
      "ĠAfganistan": 8696,
      "iller": 8697,
      "ĠxoÃ¡y": 8698,
      "ĠDione": 8699,
      "ĠbÃ³p": 8700,
      "Ġ1947": 8701,
      "Ġ1957": 8702,
      "uma": 8703,
      "ÌĽÌī": 8704,
      "ĠHamad": 8705,
      "CPR": 8706,
      "ĠMaas": 8707,
      "ield": 8708,
      "ĠAki": 8709,
      "ĠHassanal": 8710,
      "ĠVACI": 8711,
      "ĠPracel": 8712,
      "ĠFinanc": 8713,
      "ĠTiki": 8714,
      "ukovych": 8715,
      "ĠICCPR": 8716,
      "ĠMobile": 8717,
      "ĠCorp": 8718,
      "ĠKwak": 8719,
      "onsai": 8720,
      "ĠPatrick": 8721,
      "ĠCá»§ng": 8722,
      "ĠÄĲBQH": 8723,
      "ĠElys": 8724,
      "ĠLazada": 8725,
      "Ġáŀ³áŀĢ": 8726,
      "ĠIRGC": 8727,
      "ĠKwangmy": 8728,
      "ĠPursat": 8729,
      "ĠSebast": 8730,
      "17": 8731,
      "PM": 8732,
      "dy": 8733,
      "ju": 8734,
      "lish": 8735,
      "oy": 8736,
      "td": 8737,
      "Ġcay": 8738,
      "áŀĺáŀľáŀı": 8739,
      "ĠtrÆ¡": 8740,
      "Ġtrau": 8741,
      "Ġáŀĵáŀļáŀħ": 8742,
      "ĠTy": 8743,
      "ĠmÃłng": 8744,
      "ĠNus": 8745,
      "ĠNak": 8746,
      "ĠVent": 8747,
      "ĠHadi": 8748,
      "ĠÄĲang": 8749,
      "Ġri": 8750,
      "ĠMak": 8751,
      "ĠMach": 8752,
      "ĠPing": 8753,
      "áŀļáŀĳáŀĵ": 8754,
      "ĠSTA": 8755,
      "áŀļáŀĶáŀĳ": 8756,
      "ĠGer": 8757,
      "ĠIT": 8758,
      "ĠUong": 8759,
      "ĠHold": 8760,
      "ĠáŀļáŀľáŀĽ": 8761,
      "ĠRang": 8762,
      "ĠFut": 8763,
      "áŀħáŀŁáŀł": 8764,
      "áŀļáŀļáŀľ": 8765,
      "hiko": 8766,
      "ĠWu": 8767,
      "ĠWes": 8768,
      "ĠOtan": 8769,
      "ĠSah": 8770,
      "ille": 8771,
      "ĠUNH": 8772,
      "ĠMyung": 8773,
      "ĠSum": 8774,
      "oney": 8775,
      "ĠáŁ¢áŁ¦áŁł": 8776,
      "áŀĳáŀŁáŀľáŀı": 8777,
      "ski": 8778,
      "ĠSerbia": 8779,
      "ĠCNRP": 8780,
      "Ġfin": 8781,
      "ĠThongl": 8782,
      "ĠHaiyan": 8783,
      "ĠIvo": 8784,
      "ĠVolachith": 8785,
      "ĠBoston": 8786,
      "ĠXoan": 8787,
      "ĠMansour": 8788,
      "ĠTunisia": 8789,
      "ĠWidodo": 8790,
      "Dá»±": 8791,
      "Máº·c": 8792,
      "OP": 8793,
      "Váº¥n": 8794,
      "ci": 8795,
      "gam": 8796,
      "hury": 8797,
      "lott": 8798,
      "sand": 8799,
      "uchi": 8800,
      "vest": 8801,
      "ĠtÃ²i": 8802,
      "ĠcÆ°á»£c": 8803,
      "ĠÄĳÃ¨": 8804,
      "áŀĽáŀĽ": 8805,
      "Ġtruyá»ĩn": 8806,
      "ĠáŀĢáŀļ": 8807,
      "ĠthÃ¢": 8808,
      "ĠnÆ°Æ¡": 8809,
      "Ġnang": 8810,
      "ĠhÃ¢n": 8811,
      "Ġbáº¡t": 8812,
      "ĠbÃ´i": 8813,
      "ĠbiÃª": 8814,
      "Ġbonsai": 8815,
      "ĠsÆ°Æ¡ng": 8816,
      "ĠsáºŃp": 8817,
      "Ġdiá»ĩu": 8818,
      "Ġdáº³ng": 8819,
      "ĠVe": 8820,
      "ĠHÆ°á»Ŀng": 8821,
      "ĠÄĲÄĥk": 8822,
      "ĠBÃły": 8823,
      "ĠBÃ©": 8824,
      "ĠxÃŃ": 8825,
      "Ġchá»ĳn": 8826,
      "ĠTrÃłng": 8827,
      "air": 8828,
      "aido": 8829,
      "Ġngháº½n": 8830,
      "áŀĢáŀĺáŀı": 8831,
      "ĠLÃ¢u": 8832,
      "ĠLá»±a": 8833,
      "Ġgiá»Ĺ": 8834,
      "ĠSop": 8835,
      "áŀļáŀĶáŀĢáŀŁ": 8836,
      "ĠChÃło": 8837,
      "Ġbá»¥c": 8838,
      "ĠÃįt": 8839,
      "ĠEAEC": 8840,
      "arth": 8841,
      "áŀļáŀĻáŀĢáŀĺáŀı": 8842,
      "ĠGiÃªng": 8843,
      "ĠFr": 8844,
      "ĠJW": 8845,
      "ĠJasan": 8846,
      "ĠOCB": 8847,
      "ĠbuÃ½t": 8848,
      "ĠTá»įa": 8849,
      "iss": 8850,
      "ĠAnth": 8851,
      "ĠTrumph": 8852,
      "ĠLanchang": 8853,
      "apt": 8854,
      "ĠTuÃ¢n": 8855,
      "Ġ258": 8856,
      "ĠHua": 8857,
      "ouard": 8858,
      "osite": 8859,
      "ibha": 8860,
      "ĠCPTTP": 8861,
      "Ġ1974": 8862,
      "ague": 8863,
      "ĠCoop": 8864,
      "ĠSena": 8865,
      "ental": 8866,
      "ĠCPC": 8867,
      "Ġáŀ¢áŀĶáŀ¢áŀļ": 8868,
      "ĠLiu": 8869,
      "ella": 8870,
      "ffet": 8871,
      "ĠSAD": 8872,
      "ĠNá»£": 8873,
      "ĠBern": 8874,
      "ĠTherase": 8875,
      "ĠWalter": 8876,
      "ĠXiao": 8877,
      "ĠAkka": 8878,
      "ĠAndrei": 8879,
      "ĠRosler": 8880,
      "mugam": 8881,
      "ĠDato": 8882,
      "Quá»ĳc": 8883,
      "ĠCIA": 8884,
      "ĠChristian": 8885,
      "ĠSokh": 8886,
      "ripal": 8887,
      "ĠSkripal": 8888,
      "ĠVanguard": 8889,
      "ĠShanmugam": 8890,
      "ĠQUAD": 8891,
      "eldt": 8892,
      "ĠMehta": 8893,
      "ĠCruz": 8894,
      "ĠFabius": 8895,
      "ĠMOU": 8896,
      "ĠPratibha": 8897,
      "ĠSTART": 8898,
      "ĠAnthony": 8899,
      "11": 8900,
      "Con": 8901,
      "sson": 8902,
      "xy": 8903,
      "áºµn": 8904,
      "áŀıáŀħáŀļ": 8905,
      "Ġváº«y": 8906,
      "áŀŁáŀļáŀĩáŀĵ": 8907,
      "Ġkeo": 8908,
      "ĠnhÃ¬": 8909,
      "ĠTat": 8910,
      "Ġgolf": 8911,
      "ĠNEP": 8912,
      "ĠNouri": 8913,
      "ano": 8914,
      "ĠHs": 8915,
      "chool": 8916,
      "ĠQuyen": 8917,
      "ĠAV": 8918,
      "ĠLar": 8919,
      "áŁģáŁĩáŁĸ": 8920,
      "áŀ¢áŀĶ": 8921,
      "ĠSuy": 8922,
      "ĠSmart": 8923,
      "ĠKaw": 8924,
      "ĠDC": 8925,
      "ĠDK": 8926,
      "áŀļáŀŁáŀĺáŀŁ": 8927,
      "ĠEver": 8928,
      "arak": 8929,
      "elson": 8930,
      "imi": 8931,
      "orra": 8932,
      "Ġ102": 8933,
      "ĠJim": 8934,
      "ĠVá»£": 8935,
      "atie": 8936,
      "ĠLuk": 8937,
      "ĠLuÃ¢n": 8938,
      "Ġ126": 8939,
      "isch": 8940,
      "ishi": 8941,
      "áŀĢáŀľáŀļ": 8942,
      "apital": 8943,
      "ĠDur": 8944,
      "ulen": 8945,
      "Ġ187": 8946,
      "ĠAlaska": 8947,
      "ĠShar": 8948,
      "ĠMart": 8949,
      "ĠZalo": 8950,
      "ĠáŁ¡áŁ©áŁł": 8951,
      "ĠáŁ¡áŁ§áŁł": 8952,
      "áŁ¡áŁ¦": 8953,
      "ĠáŁ¥áŁłáŁłáŁł": 8954,
      "ress": 8955,
      "ĠAndorra": 8956,
      "ĠRoma": 8957,
      "ĠáŀĻáŀĢáŀĺáŀı": 8958,
      "ĠNorth": 8959,
      "Nhiá»ģu": 8960,
      "ĠDiop": 8961,
      "ĠRosario": 8962,
      "ĠPrayut": 8963,
      "ETRO": 8964,
      "ĠgÃ£y": 8965,
      "ĠJawah": 8966,
      "ĠáŀŁáŀľáŀĵáŀĢáŀļ": 8967,
      "ĠFinancial": 8968,
      "EU": 8969,
      "LB": 8970,
      "LL": 8971,
      "Má»Ĺi": 8972,
      "ja": 8973,
      "ĠtÃ³c": 8974,
      "ĠcÃ¹": 8975,
      "ĠcÃ¡m": 8976,
      "ĠÄĳinh": 8977,
      "ĠÄĳÃŃnh": 8978,
      "áŀĢáŀŁáŀĺ": 8979,
      "áŀŁáŀĢ": 8980,
      "Ġlam": 8981,
      "ĠnÆ°Æ¡ng": 8982,
      "Ġhung": 8983,
      "ĠhÃ£i": 8984,
      "Ġbitcoin": 8985,
      "Ġsáº¥y": 8986,
      "ĠTet": 8987,
      "Ġme": 8988,
      "Ġcá»į": 8989,
      "ĠVui": 8990,
      "Ġgiáº¿": 8991,
      "ĠCÆ°": 8992,
      "ĠCáº¡nh": 8993,
      "ĠCas": 8994,
      "ĠCorn": 8995,
      "ĠxÃło": 8996,
      "ĠrÃ²": 8997,
      "ĠrÃ¡o": 8998,
      "cho": 8999,
      "ĠáŀģáŀĢáŀģ": 9000,
      "ĠME": 9001,
      "Ġlá»¥y": 9002,
      "ĠLeo": 9003,
      "ĠQue": 9004,
      "ĠKÃ½": 9005,
      "ĠChoi": 9006,
      "ĠChien": 9007,
      "Ġhoay": 9008,
      "ĠGa": 9009,
      "ĠIB": 9010,
      "ert": 9011,
      "ĠHoáº·c": 9012,
      "ĠKháº©u": 9013,
      "áŀĦáŀĢáŀĢ": 9014,
      "ĠRanh": 9015,
      "ĠRas": 9016,
      "orou": 9017,
      "ĠWei": 9018,
      "Ġngá»Ŀi": 9019,
      "Ġtoa": 9020,
      "Ġ112": 9021,
      "Ġsuá»ĳi": 9022,
      "ĠTrá»Ŀi": 9023,
      "Ġviet": 9024,
      "isha": 9025,
      "ĠLá»Ľn": 9026,
      "ĠQuyet": 9027,
      "osung": 9028,
      "ĠáŁ¡áŁ£áŁ¥": 9029,
      "ĠMaroc": 9030,
      "ĠHague": 9031,
      "ĠChoang": 9032,
      "ĠKieu": 9033,
      "Ġ370": 9034,
      "iano": 9035,
      "ĠMahdi": 9036,
      "ĠcÃºm": 9037,
      "ĠáŁ©áŁ¨áŁ¡": 9038,
      "ĠSteph": 9039,
      "ĠXVII": 9040,
      "ĠHeiner": 9041,
      "ĠVietGap": 9042,
      "ĠEnglish": 9043,
      "ĠYanukovych": 9044,
      "ĠFlorida": 9045,
      "LuáºŃt": 9046,
      "ĠNusra": 9047,
      "ĠSADECO": 9048,
      "ĠSokhonn": 9049,
      "ĠHsien": 9050,
      "KYC": 9051,
      "cat": 9052,
      "hot": 9053,
      "iy": 9054,
      "mi": 9055,
      "nu": 9056,
      "press": 9057,
      "tlin": 9058,
      "work": 9059,
      "áŀĺáŀĩáŀĵ": 9060,
      "ĠlÄĥn": 9061,
      "Ġná»ĵi": 9062,
      "Ġhang": 9063,
      "Ġhuyá»ģn": 9064,
      "ĠbÃªnh": 9065,
      "áŀħáŀĶáŀĵ": 9066,
      "ĠTAC": 9067,
      "ĠmÆ°á»Ŀi": 9068,
      "ĠpháºŃt": 9069,
      "ĠVideo": 9070,
      "Ġgieo": 9071,
      "ĠHN": 9072,
      "áŀłáŀĵ": 9073,
      "ĠBisch": 9074,
      "ĠMLC": 9075,
      "ĠPD": 9076,
      "ĠThom": 9077,
      "ĠThak": 9078,
      "ĠThorn": 9079,
      "ĠSÃ¢m": 9080,
      "ĠSOS": 9081,
      "ĠSSI": 9082,
      "ĠChou": 9083,
      "ĠDar": 9084,
      "áŀļáŀĸáŀı": 9085,
      "ĠETF": 9086,
      "ĠÄĲá»īnh": 9087,
      "ĠKhÃ¡c": 9088,
      "ĠKhÆ°Æ¡ng": 9089,
      "ĠRaz": 9090,
      "ĠRáº«y": 9091,
      "ĠFour": 9092,
      "ĠJu": 9093,
      "ĠVá»¹": 9094,
      "ĠWat": 9095,
      "ĠWies": 9096,
      "ĠáŀĶáŀĳáŀħáŀĺ": 9097,
      "Ġphá»¥ng": 9098,
      "ili": 9099,
      "ĠVir": 9100,
      "ĠLá»¯": 9101,
      "ulz": 9102,
      "rik": 9103,
      "ĠAlan": 9104,
      "Ġ1985": 9105,
      "ahaw": 9106,
      "acker": 9107,
      "ĠMarin": 9108,
      "ĠMika": 9109,
      "IPO": 9110,
      "ĠIPA": 9111,
      "ĠBrit": 9112,
      "ĠáŀŁáŀļáŀŁáŀļ": 9113,
      "ĠStand": 9114,
      "ĠGuaido": 9115,
      "ĠAngk": 9116,
      "ichi": 9117,
      "ĠáŁ¢áŁ¢áŁł": 9118,
      "ĠECOS": 9119,
      "inda": 9120,
      "ĠLoong": 9121,
      "ĠBuon": 9122,
      "ĠNetwork": 9123,
      "ĠMadrid": 9124,
      "ĠSchulz": 9125,
      "ofberger": 9126,
      "ĠáŁ¡áŁ©áŁ¥áŁ¨": 9127,
      "ĠEduc": 9128,
      "ĠVAVA": 9129,
      "ĠeKYC": 9130,
      "ĠdÃ£y": 9131,
      "box": 9132,
      "house": 9133,
      "ĠBalkan": 9134,
      "ĠTomahaw": 9135,
      "ĠNovaGroup": 9136,
      "ĠSilivong": 9137,
      "ĠXXI": 9138,
      "ĠGrigory": 9139,
      "ĠGyeong": 9140,
      "ĠStartup": 9141,
      "ĠMahathir": 9142,
      "ĠMetropole": 9143,
      "ĠAkihito": 9144,
      "ĠKwakwa": 9145,
      "ĠThongloi": 9146,
      "ĠBischofberger": 9147,
      "ĠThaksin": 9148,
      "ĠWiesen": 9149,
      "ĠTomahawk": 9150,
      "CG": 9151,
      "GÄĲ": 9152,
      "KK": 9153,
      "VÃ¬": 9154,
      "bay": 9155,
      "kat": 9156,
      "let": 9157,
      "mmaly": 9158,
      "nolog": 9159,
      "won": 9160,
      "áŀ¶áŁĪ": 9161,
      "ĠtÆ°á»Ľc": 9162,
      "Ġvouch": 9163,
      "áŀĶáŀĸ": 9164,
      "ĠtrÆ¡n": 9165,
      "Ġlung": 9166,
      "Ġlá»Ļt": 9167,
      "Ġnáº£n": 9168,
      "ĠhÆ°Æ¡": 9169,
      "Ġbáº©y": 9170,
      "Ġnháº¡t": 9171,
      "Ġnhá»Ļn": 9172,
      "ĠsÃło": 9173,
      "ĠTÃºc": 9174,
      "ĠTÆ°á»£ng": 9175,
      "ĠTÆ¯": 9176,
      "Ġmi": 9177,
      "ĠmÆ°": 9178,
      "Ġcháº¡p": 9179,
      "Ã´xin": 9180,
      "Ġáŀ¢áŀŁáŀĵ": 9181,
      "ĠphÃ¢": 9182,
      "ĠphÆ°á»£ng": 9183,
      "Ġthá»ĳi": 9184,
      "ĠViÃª": 9185,
      "Æ¡m": 9186,
      "ĠgiÃ²n": 9187,
      "ĠCÃ¹": 9188,
      "ĠCÃ¡nh": 9189,
      "ĠHáº¡t": 9190,
      "ĠBT": 9191,
      "ĠxÃł": 9192,
      "Ġráº«y": 9193,
      "ĠTriáº¿t": 9194,
      "ĠMÄĥng": 9195,
      "ĠMáº¥y": 9196,
      "ĠMet": 9197,
      "ĠMand": 9198,
      "ĠMaz": 9199,
      "ĠMÃ£o": 9200,
      "ĠMoney": 9201,
      "Ġá»ĵn": 9202,
      "ĠAM": 9203,
      "ĠAKP": 9204,
      "ĠLá»ĳp": 9205,
      "ĠSDF": 9206,
      "ĠKid": 9207,
      "ĠKun": 9208,
      "ĠKÃªnh": 9209,
      "ĠCháº¯c": 9210,
      "ĠDáº«u": 9211,
      "Ġhoáº¡n": 9212,
      "ĠâĢĶ": 9213,
      "ĠÃī": 9214,
      "ĠxuÃ¢": 9215,
      "áŀĻáŀĢáŀļ": 9216,
      "ĠXá»Ń": 9217,
      "Ġand": 9218,
      "Ã©e": 9219,
      "ĠáŀĤáŀİáŀĶ": 9220,
      "ĠKháº£": 9221,
      "ĠÄĳiÃ´xin": 9222,
      "ĠRet": 9223,
      "ĠRad": 9224,
      "ĠRav": 9225,
      "ĠRep": 9226,
      "orm": 9227,
      "ĠJay": 9228,
      "Ġngá»¡": 9229,
      "ĠTruc": 9230,
      "ĠáŁ¢áŁłáŁ¢áŁ¤": 9231,
      "Ġ122": 9232,
      "ĠYale": 9233,
      "ust": 9234,
      "Ġ117": 9235,
      "uni": 9236,
      "ĠSaber": 9237,
      "áŁ¡áŁłáŁł": 9238,
      "Ġcá»¥t": 9239,
      "Ġ155": 9240,
      "ĠáŁłáŁł": 9241,
      "ake": 9242,
      "Ġ137": 9243,
      "ĠThuot": 9244,
      "ĠHuan": 9245,
      "ĠLeague": 9246,
      "ĠSingh": 9247,
      "ĠáŀĢáŀĦáŀĸáŀĽ": 9248,
      "ĠZu": 9249,
      "ĠPalmy": 9250,
      "Ġoan": 9251,
      "ĠArch": 9252,
      "awi": 9253,
      "ago": 9254,
      "ĠáŁ¢áŁ¤áŁł": 9255,
      "ĠPhá»ĳi": 9256,
      "ĠSeneg": 9257,
      "ĠáŁ¡áŁ©áŁ§áŁ¢": 9258,
      "ĠHÄĲLÄĲ": 9259,
      "Ġ1965": 9260,
      "ĠDNNV": 9261,
      "áŀĸáŀħáŀĽ": 9262,
      "ĠDá»¯": 9263,
      "ĠDá»ĭp": 9264,
      "ĠMaham": 9265,
      "ĠKrÃ´ng": 9266,
      "ĠKono": 9267,
      "ĠáŁ¡áŁ©áŁ¥áŁ©": 9268,
      "guay": 9269,
      "ĠÄĳá»ĩm": 9270,
      "ĠPowell": 9271,
      "Má»įi": 9272,
      "ĠRenzi": 9273,
      "Hoang": 9274,
      "ĠVogt": 9275,
      "ĠPreah": 9276,
      "ĠKelly": 9277,
[...]
